{
  "version": "1.0",
  "truncation": null,
  "padding": null,
  "added_tokens": [
    {
      "id": 0,
      "content": "<|endoftext|>",
      "single_word": false,
      "lstrip": false,
      "rstrip": false,
      "normalized": true,
      "special": true
    }
  ],
  "normalizer": null,
  "pre_tokenizer": {
    "type": "ByteLevel",
    "add_prefix_space": false,
    "trim_offsets": true,
    "use_regex": true
  },
  "post_processor": {
    "type": "TemplateProcessing",
    "single": [
      {
        "Sequence": {
          "id": "A",
          "type_id": 0
        }
      }
    ],
    "pair": [
      {
        "Sequence": {
          "id": "A",
          "type_id": 0
        }
      },
      {
        "Sequence": {
          "id": "B",
          "type_id": 1
        }
      }
    ],
    "special_tokens": {}
  },
  "decoder": {
    "type": "ByteLevel",
    "add_prefix_space": true,
    "trim_offsets": true,
    "use_regex": true
  },
  "model": {
    "type": "BPE",
    "dropout": null,
    "unk_token": null,
    "continuing_subword_prefix": "",
    "end_of_word_suffix": "",
    "fuse_unk": false,
    "byte_fallback": false,
    "ignore_merges": false,
    "vocab": {
      "<|endoftext|>": 0,
      "!": 1,
      "\"": 2,
      "#": 3,
      "$": 4,
      "%": 5,
      "&": 6,
      "'": 7,
      "(": 8,
      ")": 9,
      "*": 10,
      "+": 11,
      ",": 12,
      "-": 13,
      ".": 14,
      "/": 15,
      "0": 16,
      "1": 17,
      "2": 18,
      "3": 19,
      "4": 20,
      "5": 21,
      "6": 22,
      "7": 23,
      "8": 24,
      "9": 25,
      ":": 26,
      ";": 27,
      "<": 28,
      "=": 29,
      ">": 30,
      "?": 31,
      "@": 32,
      "A": 33,
      "B": 34,
      "C": 35,
      "D": 36,
      "E": 37,
      "F": 38,
      "G": 39,
      "H": 40,
      "I": 41,
      "J": 42,
      "K": 43,
      "L": 44,
      "M": 45,
      "N": 46,
      "O": 47,
      "P": 48,
      "Q": 49,
      "R": 50,
      "S": 51,
      "T": 52,
      "U": 53,
      "V": 54,
      "W": 55,
      "X": 56,
      "Y": 57,
      "Z": 58,
      "[": 59,
      "\\": 60,
      "]": 61,
      "^": 62,
      "_": 63,
      "`": 64,
      "a": 65,
      "b": 66,
      "c": 67,
      "d": 68,
      "e": 69,
      "f": 70,
      "g": 71,
      "h": 72,
      "i": 73,
      "j": 74,
      "k": 75,
      "l": 76,
      "m": 77,
      "n": 78,
      "o": 79,
      "p": 80,
      "q": 81,
      "r": 82,
      "s": 83,
      "t": 84,
      "u": 85,
      "v": 86,
      "w": 87,
      "x": 88,
      "y": 89,
      "z": 90,
      "{": 91,
      "|": 92,
      "}": 93,
      "~": 94,
      "¡": 95,
      "¢": 96,
      "£": 97,
      "¤": 98,
      "¥": 99,
      "¦": 100,
      "§": 101,
      "¨": 102,
      "©": 103,
      "ª": 104,
      "«": 105,
      "¬": 106,
      "®": 107,
      "¯": 108,
      "°": 109,
      "±": 110,
      "²": 111,
      "³": 112,
      "´": 113,
      "µ": 114,
      "¶": 115,
      "·": 116,
      "¸": 117,
      "¹": 118,
      "º": 119,
      "»": 120,
      "¼": 121,
      "½": 122,
      "¾": 123,
      "¿": 124,
      "À": 125,
      "Á": 126,
      "Â": 127,
      "Ã": 128,
      "Ä": 129,
      "Å": 130,
      "Æ": 131,
      "Ç": 132,
      "È": 133,
      "É": 134,
      "Ê": 135,
      "Ë": 136,
      "Ì": 137,
      "Í": 138,
      "Î": 139,
      "Ï": 140,
      "Ð": 141,
      "Ñ": 142,
      "Ò": 143,
      "Ó": 144,
      "Ô": 145,
      "Õ": 146,
      "Ö": 147,
      "×": 148,
      "Ø": 149,
      "Ù": 150,
      "Ú": 151,
      "Û": 152,
      "Ü": 153,
      "Ý": 154,
      "Þ": 155,
      "ß": 156,
      "à": 157,
      "á": 158,
      "â": 159,
      "ã": 160,
      "ä": 161,
      "å": 162,
      "æ": 163,
      "ç": 164,
      "è": 165,
      "é": 166,
      "ê": 167,
      "ë": 168,
      "ì": 169,
      "í": 170,
      "î": 171,
      "ï": 172,
      "ð": 173,
      "ñ": 174,
      "ò": 175,
      "ó": 176,
      "ô": 177,
      "õ": 178,
      "ö": 179,
      "÷": 180,
      "ø": 181,
      "ù": 182,
      "ú": 183,
      "û": 184,
      "ü": 185,
      "ý": 186,
      "þ": 187,
      "ÿ": 188,
      "Ā": 189,
      "ā": 190,
      "Ă": 191,
      "ă": 192,
      "Ą": 193,
      "ą": 194,
      "Ć": 195,
      "ć": 196,
      "Ĉ": 197,
      "ĉ": 198,
      "Ċ": 199,
      "ċ": 200,
      "Č": 201,
      "č": 202,
      "Ď": 203,
      "ď": 204,
      "Đ": 205,
      "đ": 206,
      "Ē": 207,
      "ē": 208,
      "Ĕ": 209,
      "ĕ": 210,
      "Ė": 211,
      "ė": 212,
      "Ę": 213,
      "ę": 214,
      "Ě": 215,
      "ě": 216,
      "Ĝ": 217,
      "ĝ": 218,
      "Ğ": 219,
      "ğ": 220,
      "Ġ": 221,
      "ġ": 222,
      "Ģ": 223,
      "ģ": 224,
      "Ĥ": 225,
      "ĥ": 226,
      "Ħ": 227,
      "ħ": 228,
      "Ĩ": 229,
      "ĩ": 230,
      "Ī": 231,
      "ī": 232,
      "Ĭ": 233,
      "ĭ": 234,
      "Į": 235,
      "į": 236,
      "İ": 237,
      "ı": 238,
      "Ĳ": 239,
      "ĳ": 240,
      "Ĵ": 241,
      "ĵ": 242,
      "Ķ": 243,
      "ķ": 244,
      "ĸ": 245,
      "Ĺ": 246,
      "ĺ": 247,
      "Ļ": 248,
      "ļ": 249,
      "Ľ": 250,
      "ľ": 251,
      "Ŀ": 252,
      "ŀ": 253,
      "Ł": 254,
      "ł": 255,
      "Ń": 256,
      "an": 257,
      "Ġd": 258,
      "er": 259,
      "en": 260,
      "ar": 261,
      "Ġm": 262,
      "la": 263,
      "ang": 264,
      "Ġs": 265,
      "Ġp": 266,
      "in": 267,
      "at": 268,
      "Ġk": 269,
      "Ġt": 270,
      "Ġb": 271,
      "da": 272,
      "Ġdi": 273,
      "un": 274,
      "as": 275,
      "kan": 276,
      "em": 277,
      "ah": 278,
      "al": 279,
      "ya": 280,
      "am": 281,
      "Ġse": 282,
      "ada": 283,
      "Ġmen": 284,
      "si": 285,
      "yang": 286,
      "Ġdan": 287,
      "Ġyang": 288,
      "tu": 289,
      "on": 290,
      "ga": 291,
      "ĠS": 292,
      "ak": 293,
      "ari": 294,
      "lah": 295,
      "il": 296,
      "es": 297,
      "or": 298,
      "di": 299,
      "Ġke": 300,
      "is": 301,
      "Ġber": 302,
      "ik": 303,
      "ĠP": 304,
      "eng": 305,
      "ĠA": 306,
      "bu": 307,
      "Ġter": 308,
      "us": 309,
      "ta": 310,
      "ol": 311,
      "ing": 312,
      "el": 313,
      "um": 314,
      "ĠK": 315,
      "ur": 316,
      "Ġin": 317,
      "ĠM": 318,
      "Ġdari": 319,
      "ara": 320,
      "ba": 321,
      "ti": 322,
      "nya": 323,
      "lam": 324,
      "ap": 325,
      "ĠB": 326,
      "Ġper": 327,
      "ek": 328,
      "Ġini": 329,
      "akan": 330,
      "Ġmem": 331,
      "it": 332,
      "Ġ1": 333,
      "uk": 334,
      "ĠI": 335,
      "ja": 336,
      "ĠD": 337,
      "Ġ\"": 338,
      "ia": 339,
      "ĠT": 340,
      "Ġada": 341,
      "engan": 342,
      "Ġpada": 343,
      "Ġj": 344,
      "up": 345,
      "gi": 346,
      "tuk": 347,
      "Ġdengan": 348,
      "Ġh": 349,
      "im": 350,
      "do": 351,
      "ul": 352,
      "te": 353,
      "ir": 354,
      "alam": 355,
      "Ġ(": 356,
      "asi": 357,
      "ung": 358,
      "ama": 359,
      "Ġadalah": 360,
      "ut": 361,
      "Ġun": 362,
      "ro": 363,
      "Ġmer": 364,
      "Ġ2": 365,
      "et": 366,
      "Ġl": 367,
      "Ġmeng": 368,
      "Ġuntuk": 369,
      "Ġdalam": 370,
      "om": 371,
      "ri": 372,
      "esi": 373,
      "anya": 374,
      "eh": 375,
      "ĠC": 376,
      "eb": 377,
      "ĠJ": 378,
      "Ġpen": 379,
      "ter": 380,
      "ahun": 381,
      "ĠR": 382,
      "Ġr": 383,
      "se": 384,
      "gai": 385,
      "ela": 386,
      "Ġn": 387,
      "ata": 388,
      "ĠN": 389,
      "Ġf": 390,
      "Ġtahun": 391,
      "Ġla": 392,
      "ĠL": 393,
      "oleh": 394,
      "wa": 395,
      "bagai": 396,
      "Ġba": 397,
      "Ġg": 398,
      "per": 399,
      "Ġoleh": 400,
      "Ġa": 401,
      "pat": 402,
      "ĠH": 403,
      "id": 404,
      "Ġ20": 405,
      "Ġju": 406,
      "ĠIn": 407,
      "emb": 408,
      "xt": 409,
      "endo": 410,
      "Ġ19": 411,
      "text": 412,
      "endof": 413,
      "<|": 414,
      "|>": 415,
      "endoftext": 416,
      "Ġsebagai": 417,
      "ĠG": 418,
      "ra": 419,
      "ida": 420,
      "ih": 421,
      "itu": 422,
      "jadi": 423,
      "but": 424,
      "ok": 425,
      "Ġjuga": 426,
      "Ġte": 427,
      "asa": 428,
      "uh": 429,
      "eg": 430,
      "and": 431,
      "ai": 432,
      "os": 433,
      "upakan": 434,
      "Ġmerupakan": 435,
      "ant": 436,
      "ep": 437,
      "ĠF": 438,
      "amp": 439,
      "Ġc": 440,
      "orang": 441,
      "atu": 442,
      "ong": 443,
      "atan": 444,
      "ali": 445,
      "gian": 446,
      "ent": 447,
      "emu": 448,
      "angan": 449,
      "Ġmenjadi": 450,
      "sebut": 451,
      "ub": 452,
      "pesi": 453,
      "Ġbah": 454,
      "eri": 455,
      "ana": 456,
      "Ġsa": 457,
      "pesies": 458,
      "ĠU": 459,
      "ula": 460,
      "Ġw": 461,
      "idak": 462,
      "ud": 463,
      "atau": 464,
      "ĠE": 465,
      "Ġatau": 466,
      "Ġtidak": 467,
      "Ġpem": 468,
      "ĠW": 469,
      "eka": 470,
      "usi": 471,
      "Ġpert": 472,
      "ika": 473,
      "op": 474,
      "ot": 475,
      "Ġmeny": 476,
      "ota": 477,
      "ch": 478,
      "Ġ&": 479,
      "Ġka": 480,
      "bang": 481,
      "Ġbagian": 482,
      "angg": 483,
      "Ġitu": 484,
      "ip": 485,
      "ua": 486,
      "tr": 487,
      "ukan": 488,
      "ahan": 489,
      "Ġtersebut": 490,
      "buah": 491,
      "ilm": 492,
      "Ġpeng": 493,
      "ad": 494,
      "Ġkar": 495,
      "iki": 496,
      "ati": 497,
      "00": 498,
      "Ġ201": 499,
      "ena": 500,
      "anj": 501,
      "lu": 502,
      "ĠY": 503,
      "Ġsebuah": 504,
      "diri": 505,
      "ed": 506,
      "Ġia": 507,
      "cara": 508,
      "esar": 509,
      "apat": 510,
      "ĠO": 511,
      "Ġsek": 512,
      "ĠAn": 513,
      "isi": 514,
      "Ġdapat": 515,
      "int": 516,
      "ĠPer": 517,
      "amb": 518,
      "Ġmemil": 519,
      "gun": 520,
      "ala": 521,
      "Ġdik": 522,
      "Ġpro": 523,
      "Ġmereka": 524,
      "Ġak": 525,
      "\".": 526,
      "Ġtelah": 527,
      "inya": 528,
      "Ġas": 529,
      "angk": 530,
      "Ġlain": 531,
      "uan": 532,
      "ila": 533,
      "od": 534,
      "esa": 535,
      "Ġmemiliki": 536,
      "empat": 537,
      "Ġspesies": 538,
      "sa": 539,
      "apa": 540,
      "ran": 541,
      "Ġor": 542,
      "Ġser": 543,
      "perti": 544,
      "tan": 545,
      "Ġsatu": 546,
      "Ġseb": 547,
      "don": 548,
      "ag": 549,
      "Ġ200": 550,
      "Ġmemb": 551,
      "ebih": 552,
      "),": 553,
      "Ġbahwa": 554,
      "li": 555,
      "aran": 556,
      "ob": 557,
      "Ġker": 558,
      "Ġkep": 559,
      "wan": 560,
      "Ġmela": 561,
      "telah": 562,
      "uda": 563,
      "yah": 564,
      "esia": 565,
      "âĢ": 566,
      "Ġpertama": 567,
      ").": 568,
      "ĠSe": 569,
      "han": 570,
      "ab": 571,
      "tap": 572,
      "Ġsen": 573,
      "Ġorang": 574,
      "ĠâĢ": 575,
      "donesia": 576,
      "Ġbi": 577,
      "onal": 578,
      "Ġlebih": 579,
      "ist": 580,
      "eber": 581,
      "yu": 582,
      "ĠIndonesia": 583,
      "dian": 584,
      "hir": 585,
      "gunakan": 586,
      "ec": 587,
      "ingga": 588,
      "ili": 589,
      "gr": 590,
      "Ġ3": 591,
      "las": 592,
      "ĠV": 593,
      "ani": 594,
      "aya": 595,
      "eberapa": 596,
      "aan": 597,
      "Ġkarena": 598,
      "he": 599,
      "atas": 600,
      "anyak": 601,
      "Ġmel": 602,
      "ĠAr": 603,
      "Ġseorang": 604,
      "Ġdip": 605,
      "Ġakan": 606,
      "Ġmas": 607,
      "Ġant": 608,
      "ĠPada": 609,
      "th": 610,
      "Ġseperti": 611,
      "og": 612,
      "emudian": 613,
      "end": 614,
      "Ġkon": 615,
      "asil": 616,
      "dapat": 617,
      "ungan": 618,
      "lak": 619,
      "gal": 620,
      "ĠAm": 621,
      "rop": 622,
      "omp": 623,
      "Ġdit": 624,
      "arkan": 625,
      "ingk": 626,
      "egara": 627,
      "ma": 628,
      "ver": 629,
      "Ġan": 630,
      "Ġgen": 631,
      "ni": 632,
      "aja": 633,
      "Ġbesar": 634,
      "Ġsecara": 635,
      "dia": 636,
      "osi": 637,
      "\",": 638,
      "Ġmenc": 639,
      "oh": 640,
      "le": 641,
      "uj": 642,
      "alan": 643,
      "aman": 644,
      "Ġsej": 645,
      "Ġtetap": 646,
      "alia": 647,
      "Ġbar": 648,
      "Ġdib": 649,
      "ib": 650,
      "ic": 651,
      "ew": 652,
      "Ġkayu": 653,
      "ian": 654,
      "enal": 655,
      "lama": 656,
      "Ġberk": 657,
      "Ġkemudian": 658,
      "ov": 659,
      "Ġfam": 660,
      "Ġdis": 661,
      "Ġsaat": 662,
      "re": 663,
      "Ġsem": 664,
      "elum": 665,
      "ĠAl": 666,
      "man": 667,
      "entuk": 668,
      "Ġbeberapa": 669,
      "imp": 670,
      "duk": 671,
      "Ġordo": 672,
      "ember": 673,
      "apos": 674,
      "Ġkota": 675,
      "ka": 676,
      "bit": 677,
      "olong": 678,
      "buat": 679,
      "ĠIa": 680,
      "ulai": 681,
      "Ġya": 682,
      "emp": 683,
      "Ġkec": 684,
      "ĠSpesies": 685,
      "idup": 686,
      "gan": 687,
      "tas": 688,
      "ac": 689,
      "Ġbanyak": 690,
      "asanya": 691,
      "Ġal": 692,
      "Ġkali": 693,
      "erah": 694,
      "annya": 695,
      "Ġgenus": 696,
      "Ġterg": 697,
      "oid": 698,
      "gu": 699,
      "arga": 700,
      "Ġfamili": 701,
      "ea": 702,
      "Ġmenga": 703,
      "Ġbers": 704,
      "ĠCh": 705,
      "tus": 706,
      "Ġo": 707,
      "Ġfilm": 708,
      "anggal": 709,
      "Ġantara": 710,
      "Ġsetelah": 711,
      "mas": 712,
      "Pada": 713,
      "uran": 714,
      "erint": 715,
      "Ġkelas": 716,
      "Ġsu": 717,
      "arta": 718,
      "ilayah": 719,
      "anda": 720,
      "Ġbiasanya": 721,
      "Ġut": 722,
      "unya": 723,
      "unia": 724,
      "etak": 725,
      "umbang": 726,
      "Ġtergolong": 727,
      "teroid": 728,
      "Ġv": 729,
      "Ġmenye": 730,
      "itas": 731,
      "eda": 732,
      "Ġtanggal": 733,
      "lan": 734,
      "arah": 735,
      "aw": 736,
      "angkan": 737,
      "ju": 738,
      "tur": 739,
      "Ġterl": 740,
      "anjang": 741,
      "tor": 742,
      "ĠDi": 743,
      "Ġ4": 744,
      "Ġdua": 745,
      "Ġpara": 746,
      "Ġkem": 747,
      "uti": 748,
      "Ġmusi": 749,
      "Ġkes": 750,
      "Ġsel": 751,
      "umum": 752,
      "Se": 753,
      "ku": 754,
      "usia": 755,
      "ulan": 756,
      "Ġmengh": 757,
      "yar": 758,
      "Ġsalah": 759,
      "unan": 760,
      "ber": 761,
      "Ġ;": 762,
      "erika": 763,
      "oda": 764,
      "amun": 765,
      "Ġda": 766,
      "Ġ18": 767,
      "Ġberb": 768,
      "Ġtetapi": 769,
      "asional": 770,
      "ĠMar": 771,
      "ima": 772,
      "Ġpr": 773,
      "ina": 774,
      "ev": 775,
      "Ġatas": 776,
      "Ġ199": 777,
      "st": 778,
      "Ġpend": 779,
      "Ġnama": 780,
      "Ġnegara": 781,
      "Ġpas": 782,
      "ĠKa": 783,
      "Ġsamp": 784,
      "Ġked": 785,
      "Ġfil": 786,
      "Ġdim": 787,
      "ĠAmerika": 788,
      "Ġkepada": 789,
      "Ġsang": 790,
      "ĠSela": 791,
      "bab": 792,
      "dom": 793,
      "Ġwilayah": 794,
      "entara": 795,
      "Ġdir": 796,
      "idae": 797,
      "itar": 798,
      "Ġ5": 799,
      "Ġmasa": 800,
      "usah": 801,
      "orm": 802,
      "wal": 803,
      "inggal": 804,
      "asan": 805,
      "tif": 806,
      "umlah": 807,
      "Ġ&#": 808,
      "ay": 809,
      "Ġyaitu": 810,
      "eks": 811,
      "ki": 812,
      "arang": 813,
      "inan": 814,
      "Ġdia": 815,
      "Ġkumbang": 816,
      "Ġket": 817,
      "ingan": 818,
      "erik": 819,
      "Ġsendiri": 820,
      "inggi": 821,
      "Ġhidup": 822,
      "art": 823,
      "tera": 824,
      "ingkat": 825,
      "Ġasteroid": 826,
      "Ġbahasa": 827,
      "Ġhingga": 828,
      "uruh": 829,
      "na": 830,
      "ug": 831,
      "adap": 832,
      "Ġtan": 833,
      "lat": 834,
      "Ġterb": 835,
      "iga": 836,
      "versi": 837,
      "Ġhanya": 838,
      "Ġdigunakan": 839,
      "ĠBar": 840,
      "unc": 841,
      "angga": 842,
      "ola": 843,
      "enda": 844,
      "ensi": 845,
      "ons": 846,
      "atang": 847,
      "asih": 848,
      "ĠAnim": 849,
      "Ġtempat": 850,
      "embali": 851,
      "unj": 852,
      "uku": 853,
      "Ġakhir": 854,
      "Ġbert": 855,
      "isa": 856,
      "Ġserta": 857,
      "ode": 858,
      "ĠPro": 859,
      "Ġditer": 860,
      "era": 861,
      "Ġfilum": 862,
      "ingdom": 863,
      "ig": 864,
      "ĠAnimalia": 865,
      "ard": 866,
      "Ġsebelum": 867,
      "Ġsampai": 868,
      "Ġkingdom": 869,
      "ĠIs": 870,
      "ĠArth": 871,
      "Ġsep": 872,
      "udah": 873,
      "ĠKe": 874,
      "19": 875,
      "aris": 876,
      "cta": 877,
      "Ġsangat": 878,
      "ha": 879,
      "Ġmemper": 880,
      "uduk": 881,
      "Ġtim": 882,
      "Ġbaru": 883,
      "Ġumum": 884,
      "olo": 885,
      "ori": 886,
      "ini": 887,
      "Ġilm": 888,
      "olah": 889,
      "Ġdisebut": 890,
      "ont": 891,
      "Ġdiper": 892,
      "ropoda": 893,
      "ĠInse": 894,
      "asal": 895,
      "Ġseh": 896,
      "ĠArthropoda": 897,
      "ĠInsecta": 898,
      "Ġlainnya": 899,
      "dang": 900,
      "su": 901,
      "iah": 902,
      "wah": 903,
      "Ġangg": 904,
      "ses": 905,
      "Ġpeny": 906,
      "Ġkembali": 907,
      "Ġsekitar": 908,
      "engah": 909,
      "Ġlu": 910,
      "pan": 911,
      "Ġ6": 912,
      "Ġberh": 913,
      "Ġkom": 914,
      "Ġpemb": 915,
      "lik": 916,
      "Ġdesa": 917,
      "ĠAg": 918,
      "ungk": 919,
      "Ġselama": 920,
      "Ġanak": 921,
      "entang": 922,
      "me": 923,
      "Ġterletak": 924,
      "Ġpemerint": 925,
      "ĠPen": 926,
      "ita": 927,
      "Ġpern": 928,
      "Ġdikenal": 929,
      "Ġmenggunakan": 930,
      "Ġbersama": 931,
      "tern": 932,
      "akat": 933,
      "Ġsama": 934,
      "tasi": 935,
      "Ġmembuat": 936,
      "masuk": 937,
      "ĠâĢĵ": 938,
      "Ġmemp": 939,
      "Ġterh": 940,
      "adi": 941,
      "aka": 942,
      "amatan": 943,
      "ef": 944,
      "babkan": 945,
      "Ġag": 946,
      "bum": 947,
      "aj": 948,
      "itik": 949,
      "ern": 950,
      "oc": 951,
      "ĠTim": 952,
      "Ġof": 953,
      "disi": 954,
      "Ġdunia": 955,
      "Ġja": 956,
      "ump": 957,
      "eja": 958,
      "uc": 959,
      "umah": 960,
      "Ġkel": 961,
      "lui": 962,
      "ind": 963,
      "ow": 964,
      "atakan": 965,
      "Ġberp": 966,
      "Ġberasal": 967,
      "paten": 968,
      "ulis": 969,
      "Ġhari": 970,
      "ei": 971,
      "emen": 972,
      "Ġawal": 973,
      "Ġwak": 974,
      "enc": 975,
      "Ġbulan": 976,
      "ĠZ": 977,
      "urut": 978,
      "ain": 979,
      "bitkan": 980,
      "Ġi": 981,
      "inda": 982,
      "ks": 983,
      "tar": 984,
      "lahir": 985,
      "Ġmulai": 986,
      "Ġkedua": 987,
      "den": 988,
      "Ġanggota": 989,
      "insi": 990,
      "awa": 991,
      "ĠUni": 992,
      "eta": 993,
      "Ġmasih": 994,
      "Ġberada": 995,
      "Ġ7": 996,
      "Ġpanjang": 997,
      "bupaten": 998,
      "ĠPr": 999,
      "Ġ198": 1000,
      "ĠSa": 1001,
      "aling": 1002,
      "ĠMen": 1003,
      "va": 1004,
      "ilan": 1005,
      "ilis": 1006,
      "ahu": 1007,
      "dik": 1008,
      "eli": 1009,
      "Ġpol": 1010,
      "Ġdaerah": 1011,
      "alat": 1012,
      "erikan": 1013,
      "Ġmelalui": 1014,
      "20": 1015,
      "erikat": 1016,
      "ĠSerikat": 1017,
      "bad": 1018,
      "ikut": 1019,
      "Ġketika": 1020,
      "erja": 1021,
      "bat": 1022,
      "gris": 1023,
      "utra": 1024,
      "api": 1025,
      "ĠBel": 1026,
      "ologi": 1027,
      "Ġmenyebabkan": 1028,
      "Ġsehingga": 1029,
      "ranc": 1030,
      "arus": 1031,
      "entu": 1032,
      "yarakat": 1033,
      "ĠIng": 1034,
      "ĠCol": 1035,
      "Ġman": 1036,
      "Ġterhadap": 1037,
      "Ġbisa": 1038,
      "Ġ(\"": 1039,
      "upun": 1040,
      "Ġsela": 1041,
      "pa": 1042,
      "uari": 1043,
      "Ġma": 1044,
      "Ġtermasuk": 1045,
      "ubah": 1046,
      "ĠJep": 1047,
      "Ġmat": 1048,
      "Ġga": 1049,
      "Ġlagu": 1050,
      "Ġditerbitkan": 1051,
      "ĠSh": 1052,
      "buhan": 1053,
      "Ġkelu": 1054,
      "ĠBr": 1055,
      "emukan": 1056,
      "Ġutama": 1057,
      "ĠInggris": 1058,
      "000": 1059,
      "angsa": 1060,
      "ca": 1061,
      "Ġde": 1062,
      "bagian": 1063,
      "Ġmana": 1064,
      "das": 1065,
      "uni": 1066,
      "iter": 1067,
      "dikan": 1068,
      "Ġsejak": 1069,
      "Ġterk": 1070,
      "ĠAp": 1071,
      "Ġmendapat": 1072,
      "atkan": 1073,
      "angs": 1074,
      "Ġwaktu": 1075,
      "utan": 1076,
      "istem": 1077,
      "Ġbawah": 1078,
      "ĠAs": 1079,
      "ahkan": 1080,
      "Ġ8": 1081,
      "ĠNama": 1082,
      "Ġbagi": 1083,
      "Ġsudah": 1084,
      "Ġkomp": 1085,
      "Ġdilak": 1086,
      "Ġsemu": 1087,
      "Ġberbagai": 1088,
      "ĠJepang": 1089,
      "sia": 1090,
      "Ġmil": 1091,
      "kukan": 1092,
      "Ġair": 1093,
      "elas": 1094,
      "yan": 1095,
      "est": 1096,
      "Ġtentang": 1097,
      "ilih": 1098,
      "vinsi": 1099,
      "itan": 1100,
      "Ġme": 1101,
      "egeri": 1102,
      "yc": 1103,
      "isasi": 1104,
      "ĠBer": 1105,
      "Ġ-": 1106,
      "Ġpernah": 1107,
      "Ġhal": 1108,
      "eop": 1109,
      "Ġsuatu": 1110,
      "Ġpela": 1111,
      "yak": 1112,
      "Ġar": 1113,
      "usahaan": 1114,
      "enis": 1115,
      "Ġrumah": 1116,
      "Ġberj": 1117,
      "yi": 1118,
      "und": 1119,
      "Ġkh": 1120,
      "ĠTer": 1121,
      "Ġ10": 1122,
      "Ġad": 1123,
      "ĠII": 1124,
      "ura": 1125,
      "ekerja": 1126,
      "erman": 1127,
      "Ġilmiah": 1128,
      "nama": 1129,
      "Ġmasyarakat": 1130,
      "antu": 1131,
      "Ġmend": 1132,
      "por": 1133,
      "Ġkap": 1134,
      "hi": 1135,
      "eter": 1136,
      "engg": 1137,
      "Ġtiga": 1138,
      "ust": 1139,
      "Ġ197": 1140,
      "akhir": 1141,
      "Ġpenduduk": 1142,
      "mi": 1143,
      "Ġdil": 1144,
      "amanya": 1145,
      "Ġres": 1146,
      "Ġterdapat": 1147,
      "Ġterjadi": 1148,
      "Ġmelakukan": 1149,
      "tikan": 1150,
      "impin": 1151,
      "ĠSM": 1152,
      "Ġterdiri": 1153,
      "93": 1154,
      "ĠDia": 1155,
      "isti": 1156,
      "duksi": 1157,
      "ĠDesa": 1158,
      "anc": 1159,
      "teri": 1160,
      "eti": 1161,
      "esk": 1162,
      "91": 1163,
      "didikan": 1164,
      "ahari": 1165,
      "Ġtak": 1166,
      "de": 1167,
      "Ġ196": 1168,
      "Ġpaling": 1169,
      "inta": 1170,
      "Ġdite": 1171,
      "ĠUt": 1172,
      "ĠKabupaten": 1173,
      "ĠJawa": 1174,
      "onom": 1175,
      "bur": 1176,
      "ihat": 1177,
      "ekat": 1178,
      "Ġtinggi": 1179,
      "eoptera": 1180,
      "Ġtum": 1181,
      "buh": 1182,
      "Ġkeb": 1183,
      "Ġsementara": 1184,
      "Ġbaik": 1185,
      "tiap": 1186,
      "ikasi": 1187,
      "usat": 1188,
      "Ġkecil": 1189,
      "Ġmusik": 1190,
      "ting": 1191,
      "angsung": 1192,
      "ĠKar": 1193,
      "Ġterp": 1194,
      "Ġku": 1195,
      "ĠNamun": 1196,
      "ĠTi": 1197,
      "jar": 1198,
      "ne": 1199,
      "erita": 1200,
      "uang": 1201,
      "dirikan": 1202,
      "Ġsistem": 1203,
      "ajaan": 1204,
      "ĠDalam": 1205,
      "Ġ194": 1206,
      "ĠAng": 1207,
      "lis": 1208,
      "ĠSelatan": 1209,
      "arva": 1210,
      "dasarkan": 1211,
      "ulau": 1212,
      "anjut": 1213,
      "angkat": 1214,
      "angi": 1215,
      "ĠMer": 1216,
      "ĠTimur": 1217,
      "ublik": 1218,
      "Ġ15": 1219,
      "anta": 1220,
      "Ġ0": 1221,
      "ompok": 1222,
      "angunan": 1223,
      "\")": 1224,
      "Ġseluruh": 1225,
      "apai": 1226,
      "wat": 1227,
      "ĠKr": 1228,
      "Ġmeninggal": 1229,
      "ho": 1230,
      "Ġdilakukan": 1231,
      "isme": 1232,
      "rancis": 1233,
      "Ġsemua": 1234,
      "ĠFilm": 1235,
      "Ġabad": 1236,
      "uli": 1237,
      "Ġharus": 1238,
      "ĠPem": 1239,
      "ĠUn": 1240,
      "Ġditu": 1241,
      "ĠBarat": 1242,
      "Ġmener": 1243,
      "eran": 1244,
      "Ġdin": 1245,
      "asar": 1246,
      "udara": 1247,
      "ĠJerman": 1248,
      "Ġ9": 1249,
      "yat": 1250,
      "istr": 1251,
      "ark": 1252,
      "Ġmemba": 1253,
      "Ġkerus": 1254,
      "ambil": 1255,
      "Ġtel": 1256,
      "ereja": 1257,
      "Ġkur": 1258,
      "Ġmenj": 1259,
      "Ġsering": 1260,
      "ukum": 1261,
      "ekn": 1262,
      "ungai": 1263,
      "ukup": 1264,
      "Ġalbum": 1265,
      "ine": 1266,
      "Ġdiri": 1267,
      "Ġbernama": 1268,
      "ĠSetelah": 1269,
      "Ġmusim": 1270,
      "uru": 1271,
      "Ġsesu": 1272,
      "ĠKota": 1273,
      "ĠColeoptera": 1274,
      "inkan": 1275,
      "unjuk": 1276,
      "utus": 1277,
      "jak": 1278,
      "Ġkerusakan": 1279,
      "dara": 1280,
      "Ġtert": 1281,
      "versitas": 1282,
      "iran": 1283,
      "ober": 1284,
      "upa": 1285,
      "tiv": 1286,
      "Ġjumlah": 1287,
      "umi": 1288,
      "anggap": 1289,
      "ill": 1290,
      "Ġbatang": 1291,
      "Ġ12": 1292,
      "ahasa": 1293,
      "Ġcukup": 1294,
      "ĠDa": 1295,
      "Ġthe": 1296,
      "ĠSep": 1297,
      "ĠCer": 1298,
      "ĠBelanda": 1299,
      "gram": 1300,
      "Ġpers": 1301,
      "ĠLa": 1302,
      "ell": 1303,
      "Ġberhasil": 1304,
      "Ġperusahaan": 1305,
      "esiden": 1306,
      "Ġlagi": 1307,
      "elar": 1308,
      "ĠSek": 1309,
      "Ġplan": 1310,
      "Ġsebesar": 1311,
      "Ġtand": 1312,
      "ĠKor": 1313,
      "Ġ17": 1314,
      "Ġkons": 1315,
      "gab": 1316,
      "Ġdih": 1317,
      "idang": 1318,
      "Ġperm": 1319,
      "ast": 1320,
      "apan": 1321,
      "ide": 1322,
      "fat": 1323,
      "ipun": 1324,
      "engk": 1325,
      "ebu": 1326,
      "Ġnamun": 1327,
      "ĠKep": 1328,
      "bangun": 1329,
      "aksi": 1330,
      "ĠPrancis": 1331,
      "Larva": 1332,
      "angka": 1333,
      "eskipun": 1334,
      "Ġmakan": 1335,
      "ropa": 1336,
      "elah": 1337,
      "Ġro": 1338,
      "akarta": 1339,
      "Ġmatahari": 1340,
      "Ġkeh": 1341,
      "ampil": 1342,
      "Ġkarya": 1343,
      "Ġakhirnya": 1344,
      "ck": 1345,
      "usus": 1346,
      "eksi": 1347,
      "fi": 1348,
      "Ġsi": 1349,
      "ubungan": 1350,
      "ulu": 1351,
      "ton": 1352,
      "Ġbela": 1353,
      "Ã©": 1354,
      "Ġ16": 1355,
      "ongk": 1356,
      "Ġ195": 1357,
      "Ġsekolah": 1358,
      "ebor": 1359,
      "to": 1360,
      "ĠEropa": 1361,
      "Ġbu": 1362,
      "aruh": 1363,
      "Ġtanduk": 1364,
      "Ġz": 1365,
      "ĠX": 1366,
      "ustr": 1367,
      "ry": 1368,
      "ĠKer": 1369,
      "perasi": 1370,
      "Ġpel": 1371,
      "akai": 1372,
      "Ġsetiap": 1373,
      "ĠSelain": 1374,
      "arti": 1375,
      "Ġditebang": 1376,
      "Ġre": 1377,
      "ami": 1378,
      "esawat": 1379,
      "Ġumumnya": 1380,
      "Ġmengebor": 1381,
      "ambyc": 1382,
      "ĠCerambyc": 1383,
      "ĠCerambycidae": 1384,
      "Ġberikut": 1385,
      "Ġmemberikan": 1386,
      "Ġwa": 1387,
      "osisi": 1388,
      "Ġpun": 1389,
      "ĠDip": 1390,
      "Ġbentuk": 1391,
      "eae": 1392,
      "inal": 1393,
      "Ġdekat": 1394,
      "ers": 1395,
      "ĠAk": 1396,
      "Ġkeku": 1397,
      "Ġpengh": 1398,
      "eral": 1399,
      "artai": 1400,
      "ord": 1401,
      "emba": 1402,
      "ĠDe": 1403,
      "ĠJan": 1404,
      "Ġseri": 1405,
      "Ġpemerintahan": 1406,
      "The": 1407,
      "uhan": 1408,
      "Ġpasukan": 1409,
      "ĠKec": 1410,
      "ĠPeng": 1411,
      "kt": 1412,
      "ĠOr": 1413,
      "Ġek": 1414,
      "ĠMas": 1415,
      "all": 1416,
      "Ġen": 1417,
      "Ġmenja": 1418,
      "Ġperk": 1419,
      "enggara": 1420,
      "Ġsebagian": 1421,
      "Ġluar": 1422,
      "ĠRom": 1423,
      "unyai": 1424,
      "Ġ13": 1425,
      "atat": 1426,
      "Ġkl": 1427,
      "Ġmengen": 1428,
      "Ġ11": 1429,
      "Ġsebelumnya": 1430,
      "Di": 1431,
      "Ġdirilis": 1432,
      "ji": 1433,
      "Ġjar": 1434,
      "Ġmanusia": 1435,
      "Ġmuda": 1436,
      "usan": 1437,
      "ril": 1438,
      "Ġeks": 1439,
      "aranya": 1440,
      "ĠDes": 1441,
      "Ġmod": 1442,
      "urat": 1443,
      "rans": 1444,
      "Ġmempunyai": 1445,
      "Ġdem": 1446,
      "alur": 1447,
      "arna": 1448,
      "Ġlalat": 1449,
      "Ġmasuk": 1450,
      "Ġproses": 1451,
      "Ġberl": 1452,
      "Ġtu": 1453,
      "asis": 1454,
      "gabung": 1455,
      "Ġketi": 1456,
      "Ġtumbuhan": 1457,
      "antan": 1458,
      "ou": 1459,
      "ban": 1460,
      "Ġsp": 1461,
      "Ġtanah": 1462,
      "ĠUtara": 1463,
      "Ġst": 1464,
      "Ġ14": 1465,
      "tian": 1466,
      "Ġlaut": 1467,
      "Ġpolitik": 1468,
      "umber": 1469,
      "Ġterc": 1470,
      "Ġpendidikan": 1471,
      "ebula": 1472,
      "ĠThe": 1473,
      "..": 1474,
      "main": 1475,
      "ĠJakarta": 1476,
      "Ġkapal": 1477,
      "buka": 1478,
      "iwa": 1479,
      "ternasional": 1480,
      "Ġpemerintah": 1481,
      "form": 1482,
      "Ġpop": 1483,
      "epat": 1484,
      "erb": 1485,
      "umat": 1486,
      "uncul": 1487,
      "ich": 1488,
      "Ġtra": 1489,
      "Ġmaka": 1490,
      "Ġlok": 1491,
      "tasiun": 1492,
      "Ġnebula": 1493,
      "Ġjenis": 1494,
      "atif": 1495,
      "enar": 1496,
      "ĠNov": 1497,
      "ulang": 1498,
      "inasi": 1499,
      "ĠSo": 1500,
      "Ġberubah": 1501,
      "uka": 1502,
      "Ġsed": 1503,
      "sis": 1504,
      "Ġput": 1505,
      "Ġkeluarga": 1506,
      "ĠKom": 1507,
      "ron": 1508,
      "oy": 1509,
      "dis": 1510,
      "Ġlahir": 1511,
      "men": 1512,
      "Ġsekarang": 1513,
      "onomi": 1514,
      "res": 1515,
      "ĠIslam": 1516,
      "12": 1517,
      "Ġpemain": 1518,
      "ustus": 1519,
      "Ġkata": 1520,
      "Ġmemen": 1521,
      "ĠMa": 1522,
      "Ġat": 1523,
      "uasa": 1524,
      "kannya": 1525,
      "buk": 1526,
      "tember": 1527,
      "ly": 1528,
      "ger": 1529,
      "ingin": 1530,
      "Ġlalu": 1531,
      "ĠMei": 1532,
      "Ġbermain": 1533,
      "ira": 1534,
      "ator": 1535,
      "Ġset": 1536,
      "ĠQ": 1537,
      "ĠJuni": 1538,
      "ĠJuli": 1539,
      "ĠÂ": 1540,
      "etisi": 1541,
      "ĠLalat": 1542,
      "Ġluas": 1543,
      "ĠDiptera": 1544,
      "ĠBa": 1545,
      "ĠIndia": 1546,
      "Ġdiba": 1547,
      "urn": 1548,
      "Ġpesawat": 1549,
      "ĠSt": 1550,
      "Ġsejarah": 1551,
      "Ġkhusus": 1552,
      "ĠRaja": 1553,
      "ĠDesember": 1554,
      "ktober": 1555,
      "ff": 1556,
      ".\"": 1557,
      "Ġbekerja": 1558,
      "Ġasal": 1559,
      "Ġ2010": 1560,
      "Ġpenga": 1561,
      "utu": 1562,
      "oph": 1563,
      "Ġmendapatkan": 1564,
      "Ġmaupun": 1565,
      "embangan": 1566,
      "ĠUniversitas": 1567,
      "arl": 1568,
      "usaha": 1569,
      "ĠKat": 1570,
      "uri": 1571,
      "ĠOktober": 1572,
      "Ġkecamatan": 1573,
      "200": 1574,
      "Ġbidang": 1575,
      "Ġkal": 1576,
      "gen": 1577,
      "Ġditemukan": 1578,
      "Ġdic": 1579,
      "Ġberbeda": 1580,
      "Ġperang": 1581,
      "tua": 1582,
      "Ġkelompok": 1583,
      "antai": 1584,
      "Ġmencapai": 1585,
      "Ġtinggal": 1586,
      "ĠSeptember": 1587,
      "Ġmenyer": 1588,
      "ĠMan": 1589,
      "Ġjalan": 1590,
      "ĠMaret": 1591,
      "Ġterakhir": 1592,
      "ĠAb": 1593,
      "Ġmuncul": 1594,
      "ation": 1595,
      "Ġand": 1596,
      "Ġorgan": 1597,
      "ĠNegeri": 1598,
      "argaan": 1599,
      "Ġacara": 1600,
      "ĠAgustus": 1601,
      "indah": 1602,
      "ĠLe": 1603,
      "Ġhasil": 1604,
      "Ġbarat": 1605,
      "embang": 1606,
      "Ġempat": 1607,
      "lt": 1608,
      "iet": 1609,
      "Ġresmi": 1610,
      "ĠKecamatan": 1611,
      "Ġmenyatakan": 1612,
      "ĠSem": 1613,
      "ikuti": 1614,
      "urkan": 1615,
      "ĠMereka": 1616,
      "baik": 1617,
      "ĠJanuari": 1618,
      "dukung": 1619,
      "Ġap": 1620,
      "andar": 1621,
      "Ġterkenal": 1622,
      "ĠPert": 1623,
      "ĠPerang": 1624,
      "ĠHal": 1625,
      "osial": 1626,
      "ĠApril": 1627,
      "gt": 1628,
      "qu": 1629,
      "ĠPa": 1630,
      "Ġberdasarkan": 1631,
      "jah": 1632,
      "ens": 1633,
      "ebr": 1634,
      "ge": 1635,
      "truk": 1636,
      "agn": 1637,
      "Ġdibuat": 1638,
      "iri": 1639,
      "ci": 1640,
      "ve": 1641,
      "nis": 1642,
      "Ġhukum": 1643,
      "Ġsekali": 1644,
      "takan": 1645,
      "ĠTh": 1646,
      "Ġpusat": 1647,
      "ongkok": 1648,
      "Ġpenting": 1649,
      "Ġbola": 1650,
      "Ġdianggap": 1651,
      "Ġjiwa": 1652,
      "Ġpes": 1653,
      "iman": 1654,
      "Ġkont": 1655,
      "atur": 1656,
      "arik": 1657,
      "mp": 1658,
      "ij": 1659,
      "ĠDunia": 1660,
      "lo": 1661,
      "Ġkm": 1662,
      "fr": 1663,
      "Ġjuta": 1664,
      "egi": 1665,
      "intang": 1666,
      "ĠEn": 1667,
      "ultan": 1668,
      "ilai": 1669,
      "Ġtanpa": 1670,
      "ĠKorea": 1671,
      "aks": 1672,
      "tik": 1673,
      "Per": 1674,
      "Ġlangsung": 1675,
      "asilkan": 1676,
      "Ġorbit": 1677,
      "isten": 1678,
      "rab": 1679,
      "andung": 1680,
      "ĠTiongkok": 1681,
      "unjukkan": 1682,
      "ĠAustr": 1683,
      "Ġdig": 1684,
      "lahan": 1685,
      "empuan": 1686,
      "Ġagar": 1687,
      "ĠAc": 1688,
      "Ġ2011": 1689,
      "ĠNovember": 1690,
      "adang": 1691,
      "evisi": 1692,
      "Ġtekn": 1693,
      "Ġ193": 1694,
      "Ġperj": 1695,
      "etika": 1696,
      "ĠIt": 1697,
      "Ġel": 1698,
      "Ġmengi": 1699,
      "anita": 1700,
      "ĠPol": 1701,
      "aikan": 1702,
      "ungsi": 1703,
      "omor": 1704,
      "Ġraja": 1705,
      "aria": 1706,
      "Ġmengenai": 1707,
      "Ġsedang": 1708,
      "ĠLi": 1709,
      "Ġdep": 1710,
      "ĠRep": 1711,
      "Ġperi": 1712,
      "ahui": 1713,
      "ĠMus": 1714,
      "tab": 1715,
      "Ġselatan": 1716,
      "uler": 1717,
      "omb": 1718,
      "san": 1719,
      "ungkin": 1720,
      "Ġlama": 1721,
      "Ġnasional": 1722,
      "lami": 1723,
      "ce": 1724,
      "rup": 1725,
      "Ġbukan": 1726,
      "tudi": 1727,
      "elu": 1728,
      "utama": 1729,
      "Ġalam": 1730,
      "utradara": 1731,
      "laba": 1732,
      "Ġpenggun": 1733,
      "ĠTe": 1734,
      "ĠNew": 1735,
      "Ġtuj": 1736,
      "Ġmelawan": 1737,
      "okoh": 1738,
      "Ġkomun": 1739,
      "Ġ2012": 1740,
      "andingan": 1741,
      "erta": 1742,
      "etahui": 1743,
      "Ġtradisi": 1744,
      "Ġagama": 1745,
      "ye": 1746,
      "Ġind": 1747,
      "Ġmengg": 1748,
      "Seperti": 1749,
      "ĠProvinsi": 1750,
      "wak": 1751,
      "rom": 1752,
      "Ġutara": 1753,
      "askan": 1754,
      "Ġbuku": 1755,
      "eluruh": 1756,
      "Ġkak": 1757,
      "10": 1758,
      "min": 1759,
      "ftar": 1760,
      "Ġgelar": 1761,
      "son": 1762,
      "Ġbatu": 1763,
      "Ġterbentuk": 1764,
      "isah": 1765,
      "ĠTengah": 1766,
      "isar": 1767,
      "Ġe": 1768,
      "unt": 1769,
      "ank": 1770,
      "ask": 1771,
      "sep": 1772,
      "Ġibu": 1773,
      "ĠâĢĿ": 1774,
      "Ġdidirikan": 1775,
      "dan": 1776,
      "fer": 1777,
      "Ġkurang": 1778,
      "rat": 1779,
      "Ġmenik": 1780,
      "adakan": 1781,
      "roduksi": 1782,
      "Dalam": 1783,
      "Ġpenc": 1784,
      "Ġtubuh": 1785,
      "sik": 1786,
      "Ġob": 1787,
      "ebruari": 1788,
      "Ġ2014": 1789,
      "Ġtimur": 1790,
      "arat": 1791,
      "Ġsaja": 1792,
      "ĠDem": 1793,
      "unuh": 1794,
      "our": 1795,
      "Ġ2013": 1796,
      "Ġmiliter": 1797,
      "18": 1798,
      "oni": 1799,
      "wi": 1800,
      "alnya": 1801,
      "Ġmengalami": 1802,
      "Ġklub": 1803,
      "titu": 1804,
      "ibat": 1805,
      "akyat": 1806,
      "bi": 1807,
      "sk": 1808,
      "ihak": 1809,
      "Ġtercatat": 1810,
      "caya": 1811,
      "Ġmungkin": 1812,
      "Ġmes": 1813,
      "araan": 1814,
      "encana": 1815,
      "Ġpe": 1816,
      "Ġkek": 1817,
      "Ġsuara": 1818,
      "ĠFebruari": 1819,
      "ema": 1820,
      "ustri": 1821,
      "yata": 1822,
      "unung": 1823,
      "Ġperempuan": 1824,
      "atian": 1825,
      "Ġayah": 1826,
      "Ġ30": 1827,
      "mal": 1828,
      "oba": 1829,
      "olusi": 1830,
      "Ġprogram": 1831,
      "Ġbergabung": 1832,
      "Ġkita": 1833,
      "Ġ2009": 1834,
      "isan": 1835,
      "ĠNasional": 1836,
      "usun": 1837,
      "ales": 1838,
      "Ġhubungan": 1839,
      "ward": 1840,
      "Ġposisi": 1841,
      "lin": 1842,
      "Ġmenerima": 1843,
      "jaran": 1844,
      "Ġbangsa": 1845,
      "ilihan": 1846,
      "Ġterbesar": 1847,
      "Ġ2007": 1848,
      "asti": 1849,
      "Ġberm": 1850,
      "akar": 1851,
      "Ġ2008": 1852,
      "wasan": 1853,
      "Ġpermuk": 1854,
      "mad": 1855,
      "anding": 1856,
      "bar": 1857,
      "fa": 1858,
      "za": 1859,
      "Ġger": 1860,
      "Ġsejumlah": 1861,
      "Lalat": 1862,
      "arier": 1863,
      "Ġ2015": 1864,
      "Ġmenulis": 1865,
      "ey": 1866,
      "Ġcara": 1867,
      "Ġprovinsi": 1868,
      "apkan": 1869,
      "Ġsuku": 1870,
      "Ġkr": 1871,
      "adaan": 1872,
      "Ġsesuatu": 1873,
      "Ġmenunjukkan": 1874,
      "Ġwanita": 1875,
      "embangkan": 1876,
      "jo": 1877,
      "Ġditulis": 1878,
      "ĠRepublik": 1879,
      "ĠPresiden": 1880,
      "udaya": 1881,
      "umen": 1882,
      "Ġtingkat": 1883,
      "ĠKon": 1884,
      "II": 1885,
      "asaan": 1886,
      "ogra": 1887,
      "Ġberarti": 1888,
      "Ġmengambil": 1889,
      "Ġterutama": 1890,
      "ĠDengan": 1891,
      "Ġbumi": 1892,
      "Ġri": 1893,
      "Ġtrans": 1894,
      "An": 1895,
      "Ġ25": 1896,
      "atus": 1897,
      "dul": 1898,
      "Ġjika": 1899,
      "ulasi": 1900,
      "Ġbahan": 1901,
      "Ġsub": 1902,
      "Ġplanet": 1903,
      "ona": 1904,
      "Ġkereta": 1905,
      "Ġyak": 1906,
      "Ġdimulai": 1907,
      "Ġdasar": 1908,
      "Ġseni": 1909,
      "atasan": 1910,
      "eman": 1911,
      "Ġti": 1912,
      "aian": 1913,
      "Ġkor": 1914,
      "endah": 1915,
      "Ġ2016": 1916,
      "akin": 1917,
      "Ġjalur": 1918,
      "Ġketiga": 1919,
      "ampung": 1920,
      "Ġsin": 1921,
      "eles": 1922,
      "Ġdibangun": 1923,
      "ĠMala": 1924,
      "Ġlam": 1925,
      "Ġmenemukan": 1926,
      "Ġsepak": 1927,
      "ĠMe": 1928,
      "Ġ2006": 1929,
      "Ġsosial": 1930,
      "Ġpec": 1931,
      "ĠBeberapa": 1932,
      "jata": 1933,
      "ĠItalia": 1934,
      "obil": 1935,
      "ris": 1936,
      "lim": 1937,
      "ĠYun": 1938,
      "Ġpula": 1939,
      "agu": 1940,
      "rama": 1941,
      "ĠGereja": 1942,
      "Ġart": 1943,
      "Ġmin": 1944,
      "Ġbiasa": 1945,
      "Ġtelevisi": 1946,
      "entukan": 1947,
      "empuran": 1948,
      "gantikan": 1949,
      "olik": 1950,
      "oto": 1951,
      "yl": 1952,
      "Ġmembentuk": 1953,
      "Ġkepala": 1954,
      "Ġpan": 1955,
      "Ġmakanan": 1956,
      "ĠMenteri": 1957,
      "ulit": 1958,
      "udul": 1959,
      "Ġmagn": 1960,
      "ĠAsia": 1961,
      "ampir": 1962,
      "ĠAngk": 1963,
      "ĠSin": 1964,
      "Ġkeluar": 1965,
      "Ġilmu": 1966,
      "yek": 1967,
      "erintah": 1968,
      "emui": 1969,
      "tida": 1970,
      "anan": 1971,
      "Ġsumber": 1972,
      "Ġsebelah": 1973,
      "adem": 1974,
      "Ġmeningkat": 1975,
      "Ġpulau": 1976,
      "was": 1977,
      "ĠAd": 1978,
      "Ġapi": 1979,
      "Ġmenjabat": 1980,
      "udd": 1981,
      "ĠâĢľ": 1982,
      "sen": 1983,
      "ebar": 1984,
      "Ġapa": 1985,
      "ĠSp": 1986,
      "Ġperb": 1987,
      "ht": 1988,
      "Ġ=": 1989,
      "inc": 1990,
      "Ġmemas": 1991,
      "Ġkol": 1992,
      "sp": 1993,
      "ĠMah": 1994,
      "Ġmenikah": 1995,
      "urun": 1996,
      "Ġbelum": 1997,
      "asikan": 1998,
      "Ġdid": 1999,
      "ĠKal": 2000,
      "Ġpermukaan": 2001,
      "ĠEks": 2002,
      "giatan": 2003,
      "ore": 2004,
      "Ġputra": 2005,
      "Ġperiode": 2006,
      "ĠRusia": 2007,
      "ui": 2008,
      "In": 2009,
      "ontoh": 2010,
      "Ġkerajaan": 2011,
      "Ġlima": 2012,
      "ĠMat": 2013,
      "onia": 2014,
      "are": 2015,
      "ikian": 2016,
      "Ġterus": 2017,
      "embaga": 2018,
      "Ġmenya": 2019,
      "Ġbin": 2020,
      "anjian": 2021,
      "idupan": 2022,
      "Ġisti": 2023,
      "ĠTahun": 2024,
      "ĠKerajaan": 2025,
      "16": 2026,
      "ft": 2027,
      "Ġsitu": 2028,
      "bul": 2029,
      "Ġsk": 2030,
      "ĠKristen": 2031,
      "ĠSur": 2032,
      "aih": 2033,
      "ora": 2034,
      "akter": 2035,
      "AN": 2036,
      "Ġmemulai": 2037,
      "ektur": 2038,
      "Ġnegeri": 2039,
      "Ġversi": 2040,
      "tion": 2041,
      "anak": 2042,
      "Ġjauh": 2043,
      "ampu": 2044,
      "uju": 2045,
      "Ġot": 2046,
      "ideo": 2047,
      "elenggara": 2048,
      "ĠGr": 2049,
      "anyakan": 2050,
      "Ġsedangkan": 2051,
      "imb": 2052,
      "ria": 2053,
      "zi": 2054,
      "Ġpenulis": 2055,
      "ĠJo": 2056,
      "pada": 2057,
      "uki": 2058,
      "Ġjam": 2059,
      "ungi": 2060,
      "masing": 2061,
      "anggung": 2062,
      "ĠSen": 2063,
      "oksi": 2064,
      "ĠSch": 2065,
      "ubahan": 2066,
      "ess": 2067,
      "ungg": 2068,
      "Ġpihak": 2069,
      "ohn": 2070,
      "olog": 2071,
      "alitas": 2072,
      "Ġzaman": 2073,
      "entri": 2074,
      "Ġlingk": 2075,
      "15": 2076,
      "yo": 2077,
      "arian": 2078,
      "usk": 2079,
      "ĠSu": 2080,
      "ity": 2081,
      "andang": 2082,
      "eluruhan": 2083,
      "Ġudara": 2084,
      "butu": 2085,
      "Ġmut": 2086,
      "ĠMal": 2087,
      "Ġpertandingan": 2088,
      "Ġhak": 2089,
      "ĠAir": 2090,
      "atuh": 2091,
      "Ġmenghasilkan": 2092,
      "anyi": 2093,
      "enang": 2094,
      "itania": 2095,
      "ĠSam": 2096,
      "Ġbahkan": 2097,
      "Ġekonomi": 2098,
      "Ġrek": 2099,
      "Ġmemenangkan": 2100,
      "Ġdirinya": 2101,
      "ĠPas": 2102,
      "ĠHar": 2103,
      "Ġyakni": 2104,
      "ĠKes": 2105,
      "Ġinternasional": 2106,
      "Ġberjudul": 2107,
      "Setelah": 2108,
      "Ġprim": 2109,
      "Ġsungai": 2110,
      "Ġdiberikan": 2111,
      "ĠSi": 2112,
      "Ġmasing": 2113,
      "ĠYunani": 2114,
      "13": 2115,
      "ĠPara": 2116,
      "ork": 2117,
      "Ġdatang": 2118,
      "ohon": 2119,
      "Ġmampu": 2120,
      "Ġkeseluruhan": 2121,
      "Ġtengah": 2122,
      "fikasi": 2123,
      "Ġmis": 2124,
      "Ġbudaya": 2125,
      "inggu": 2126,
      "Ġkawasan": 2127,
      "Ġmengatakan": 2128,
      "Ġmenuju": 2129,
      "alis": 2130,
      "mainan": 2131,
      "av": 2132,
      "Ġkarier": 2133,
      "Ġpendek": 2134,
      "Ġstasiun": 2135,
      "Ġproduksi": 2136,
      "Ġmelihat": 2137,
      "ret": 2138,
      "Ġ2005": 2139,
      "formasi": 2140,
      "uluh": 2141,
      "Ġmah": 2142,
      "Ġist": 2143,
      "Ġorganisasi": 2144,
      "ĠAngkatan": 2145,
      "awi": 2146,
      "dam": 2147,
      "Ġmenyebut": 2148,
      "dikit": 2149,
      "uno": 2150,
      "Ġgrup": 2151,
      "ĠRaya": 2152,
      "ĠSungai": 2153,
      "Ġhi": 2154,
      "17": 2155,
      "Ġsing": 2156,
      "Ġbangunan": 2157,
      "ĠPang": 2158,
      "Ġ2017": 2159,
      "Ġ24": 2160,
      "Ġkegiatan": 2161,
      "Ġdok": 2162,
      "yanan": 2163,
      "ĠBritania": 2164,
      "Ġ192": 2165,
      "ĠIr": 2166,
      "Ġkehidupan": 2167,
      "truktur": 2168,
      "Ġtokoh": 2169,
      "Ġsepanjang": 2170,
      "Ġmembantu": 2171,
      "Ġperan": 2172,
      "ampilkan": 2173,
      "Ġbur": 2174,
      "Ġjaringan": 2175,
      "ĠIni": 2176,
      "itudo": 2177,
      "lahkan": 2178,
      "Ġmengikuti": 2179,
      "ĠSaat": 2180,
      "Ġwarga": 2181,
      "operasi": 2182,
      "Ġmak": 2183,
      "utih": 2184,
      "ĠArab": 2185,
      "ĠSeb": 2186,
      "Ġmenurut": 2187,
      "iss": 2188,
      "ĠOl": 2189,
      "gus": 2190,
      "istrik": 2191,
      "ke": 2192,
      "Ġmutlak": 2193,
      "Ġditemui": 2194,
      "Ġmembawa": 2195,
      "Ġmeskipun": 2196,
      "ĠGe": 2197,
      "jid": 2198,
      "ĠDan": 2199,
      "Ġpener": 2200,
      "Ġep": 2201,
      "sama": 2202,
      "Ġdise": 2203,
      "Ġband": 2204,
      "land": 2205,
      "unga": 2206,
      "isata": 2207,
      "ĠLaut": 2208,
      "ĠBo": 2209,
      "Ġpet": 2210,
      "iputi": 2211,
      "isaran": 2212,
      "14": 2213,
      "Ġmus": 2214,
      "ĠSekolah": 2215,
      "batan": 2216,
      "sitas": 2217,
      "Ġbelak": 2218,
      "ampak": 2219,
      "Ġbuah": 2220,
      "gas": 2221,
      "antung": 2222,
      "Ġsebanyak": 2223,
      "aba": 2224,
      "Ġakibat": 2225,
      "ĠPartai": 2226,
      "Ġmeraih": 2227,
      "Ġkeras": 2228,
      "engaruh": 2229,
      "ulus": 2230,
      "Ġ2004": 2231,
      "Ġawalnya": 2232,
      "co": 2233,
      "ty": 2234,
      "Ġmesin": 2235,
      "Ġsedikit": 2236,
      "Ġpenghargaan": 2237,
      "Ġmagnitudo": 2238,
      "olak": 2239,
      "ganti": 2240,
      "daya": 2241,
      "orn": 2242,
      "ĠâĢĻ": 2243,
      "Ġtertentu": 2244,
      "pe": 2245,
      "Ġproduk": 2246,
      "Ġmet": 2247,
      "tim": 2248,
      "rik": 2249,
      "ĠEl": 2250,
      "ĠMo": 2251,
      "Ġdepan": 2252,
      "iala": 2253,
      "ukuran": 2254,
      "Ġpertamanya": 2255,
      "ĠKan": 2256,
      "ĠNo": 2257,
      "akit": 2258,
      "Ġhampir": 2259,
      "Ġkas": 2260,
      "ond": 2261,
      "edung": 2262,
      "Ġsesuai": 2263,
      "Ġcerita": 2264,
      "Ġters": 2265,
      "dana": 2266,
      "Ġdij": 2267,
      "Ġindustri": 2268,
      "Ġmeliputi": 2269,
      "Ġserangan": 2270,
      "Ġdimana": 2271,
      "Ġadanya": 2272,
      "utusan": 2273,
      "ate": 2274,
      "jual": 2275,
      "Al": 2276,
      "alik": 2277,
      "ilang": 2278,
      "Ġingin": 2279,
      "sh": 2280,
      "ĠJohn": 2281,
      "Ġmilik": 2282,
      "Ġpri": 2283,
      "umumkan": 2284,
      "one": 2285,
      "entrisitas": 2286,
      "ral": 2287,
      "imana": 2288,
      "ĠPulau": 2289,
      "enderal": 2290,
      "ĠUntuk": 2291,
      "rip": 2292,
      "Ġberupa": 2293,
      "Ġberkembang": 2294,
      "Ġ22": 2295,
      "ĠPal": 2296,
      "ĠAllah": 2297,
      "jek": 2298,
      "atunya": 2299,
      "upaya": 2300,
      "Ġmutlaknya": 2301,
      "tic": 2302,
      "dial": 2303,
      "arn": 2304,
      "ĠMin": 2305,
      "Ġmasalah": 2306,
      "Ã¡": 2307,
      "ish": 2308,
      "landia": 2309,
      "Ġef": 2310,
      "Ġlap": 2311,
      "ĠMusi": 2312,
      "Ġseg": 2313,
      "Ġtangan": 2314,
      "Ġselalu": 2315,
      "Ġkat": 2316,
      "Ġsemakin": 2317,
      "Ġmobil": 2318,
      "ĠAS": 2319,
      "Ġpecahan": 2320,
      "ĠBaru": 2321,
      "ĠIb": 2322,
      "ĠKh": 2323,
      "pati": 2324,
      "rim": 2325,
      "erasi": 2326,
      "yol": 2327,
      "anjutnya": 2328,
      "Ġkarakter": 2329,
      "Ġangk": 2330,
      "Ġusia": 2331,
      "ite": 2332,
      "Ġkekuatan": 2333,
      "ulkan": 2334,
      "Ġik": 2335,
      "Ġperjalan": 2336,
      "odi": 2337,
      "ĠNegara": 2338,
      "Ġ23": 2339,
      "ĠCo": 2340,
      "Ġdemikian": 2341,
      "Ġspons": 2342,
      "Ġmodern": 2343,
      "vid": 2344,
      "Ġpemimpin": 2345,
      "ĠSer": 2346,
      "rah": 2347,
      "ĠKarena": 2348,
      "Ġ2018": 2349,
      "ĠMuh": 2350,
      "ational": 2351,
      "Ġmata": 2352,
      "itam": 2353,
      "ĠAustralia": 2354,
      "Un": 2355,
      "ĠAgung": 2356,
      "umur": 2357,
      "ono": 2358,
      "ĠTan": 2359,
      "una": 2360,
      "Ġ21": 2361,
      "ĠPh": 2362,
      "Ġsisi": 2363,
      "Ġmendirikan": 2364,
      "isode": 2365,
      "sur": 2366,
      "ĠSumat": 2367,
      "Ġmengk": 2368,
      "urahan": 2369,
      "ender": 2370,
      "Ġca": 2371,
      "Ġrendah": 2372,
      "Ġdaripada": 2373,
      "impinan": 2374,
      "ĠKatolik": 2375,
      "via": 2376,
      "ase": 2377,
      "pen": 2378,
      "Ġdiberi": 2379,
      "ĠSal": 2380,
      "eum": 2381,
      "ĠSw": 2382,
      "iz": 2383,
      "ĠWil": 2384,
      "Ġmew": 2385,
      "ĠAward": 2386,
      "Ġpekerja": 2387,
      "ongan": 2388,
      "Ġkerja": 2389,
      "ment": 2390,
      "panyol": 2391,
      "frika": 2392,
      "utuskan": 2393,
      "Ġdiketahui": 2394,
      "gaimana": 2395,
      "ĠRe": 2396,
      "enti": 2397,
      "ĠSy": 2398,
      "Ġstudi": 2399,
      "Ġdisi": 2400,
      "Ġå": 2401,
      "ahli": 2402,
      "ĠUm": 2403,
      "Ġruang": 2404,
      "io": 2405,
      "ĠSel": 2406,
      "Ġmeter": 2407,
      "antor": 2408,
      "Ġpemba": 2409,
      "ost": 2410,
      "utradarai": 2411,
      "osa": 2412,
      "ass": 2413,
      "Ġmene": 2414,
      "Ġna": 2415,
      "Ġform": 2416,
      "Ġkeber": 2417,
      "tum": 2418,
      "uter": 2419,
      "iptakan": 2420,
      "amat": 2421,
      "udi": 2422,
      "ordial": 2423,
      "unda": 2424,
      "Åį": 2425,
      "ĠAsteroid": 2426,
      "Ġbelakang": 2427,
      "ĠKetika": 2428,
      "NI": 2429,
      "Ġradi": 2430,
      "Ġprimordial": 2431,
      "Ġtentara": 2432,
      "11": 2433,
      "Ġprof": 2434,
      "Ġtujuan": 2435,
      "Ġberw": 2436,
      "Ġistilah": 2437,
      "oritas": 2438,
      "ĠSan": 2439,
      "sek": 2440,
      "ock": 2441,
      "Ġbintang": 2442,
      "Men": 2443,
      "uskup": 2444,
      "angkap": 2445,
      "ambar": 2446,
      "Ġib": 2447,
      "Ġbersi": 2448,
      "ĠKel": 2449,
      "Ġ$": 2450,
      "etisimal": 2451,
      "Ġplanetisimal": 2452,
      "ilip": 2453,
      "ĠKed": 2454,
      "oko": 2455,
      "turunan": 2456,
      "ĠEksentrisitas": 2457,
      "Ġ2000": 2458,
      "emuan": 2459,
      "Ġmur": 2460,
      "Ġli": 2461,
      "ĠGo": 2462,
      "Ġkekuasaan": 2463,
      "ĠDewan": 2464,
      "Ġis": 2465,
      "uth": 2466,
      "ros": 2467,
      "ph": 2468,
      "ĠKu": 2469,
      "ewan": 2470,
      "Ġperubahan": 2471,
      "ĠKemudian": 2472,
      "aksa": 2473,
      "Ġberikutnya": 2474,
      "ugas": 2475,
      "ĠMenurut": 2476,
      "Ġpeneli": 2477,
      "gangan": 2478,
      "oro": 2479,
      "ambarkan": 2480,
      "ĠDr": 2481,
      "ric": 2482,
      "visi": 2483,
      "istiwa": 2484,
      "Ġpermainan": 2485,
      "ampuan": 2486,
      "ort": 2487,
      "Ġbelajar": 2488,
      "Ġins": 2489,
      "Ġkuat": 2490,
      "uman": 2491,
      "ĠSpanyol": 2492,
      "intangi": 2493,
      "Ġberlangsung": 2494,
      "ĠAfrika": 2495,
      "Ġasli": 2496,
      "erbangan": 2497,
      "Ġ2019": 2498,
      "deka": 2499,
      "Ġmeninggalkan": 2500,
      "ith": 2501,
      "ĠRa": 2502,
      "ash": 2503,
      "ko": 2504,
      "ĠMak": 2505,
      "Ġ100": 2506,
      "Ġhutan": 2507,
      "ame": 2508,
      "anjutkan": 2509,
      "Ġsaya": 2510,
      "Ġvideo": 2511,
      "ĠTel": 2512,
      "Ġbertu": 2513,
      "uga": 2514,
      "wab": 2515,
      "Ġserial": 2516,
      "untu": 2517,
      "ambah": 2518,
      "ĠNa": 2519,
      "ĠAran": 2520,
      "oviet": 2521,
      "bo": 2522,
      "Ġsurat": 2523,
      "ĠMad": 2524,
      "Ġmemilih": 2525,
      "Ġem": 2526,
      "ĠDari": 2527,
      "amen": 2528,
      "50": 2529,
      "uanya": 2530,
      "ater": 2531,
      "Ġdiadakan": 2532,
      "Ġelek": 2533,
      "Ġkini": 2534,
      "Ġmendukung": 2535,
      "Ġmemutuskan": 2536,
      "hkan": 2537,
      "Ġlingkungan": 2538,
      "ysia": 2539,
      "lap": 2540,
      "Ġgereja": 2541,
      "otal": 2542,
      "Ġpat": 2543,
      "har": 2544,
      "egori": 2545,
      "edi": 2546,
      "dok": 2547,
      "ahanan": 2548,
      "ĠSumatra": 2549,
      "rael": 2550,
      "ĠLu": 2551,
      "ĠPiala": 2552,
      "Ġdipimpin": 2553,
      "Ġpergi": 2554,
      "Ġlaki": 2555,
      "ĠRo": 2556,
      "\"),": 2557,
      "bak": 2558,
      "ĠRomawi": 2559,
      "atangan": 2560,
      "Ġdiperk": 2561,
      "Ġperjalanan": 2562,
      "Sa": 2563,
      "ukses": 2564,
      "Ġdaya": 2565,
      "lukan": 2566,
      "ĠMuham": 2567,
      "Ġbis": 2568,
      "lor": 2569,
      "go": 2570,
      "Ġtua": 2571,
      "uangan": 2572,
      "Ġjabatan": 2573,
      "imia": 2574,
      "yakit": 2575,
      "Ġtampil": 2576,
      "Ġarah": 2577,
      "atuan": 2578,
      "Ġberakhir": 2579,
      "ino": 2580,
      "ilia": 2581,
      "laki": 2582,
      "ibatkan": 2583,
      "askah": 2584,
      "ĠSoviet": 2585,
      "Ġpenggunaan": 2586,
      "ceae": 2587,
      "Ġmedia": 2588,
      "Ġdata": 2589,
      "ĠAnd": 2590,
      "Ġutamanya": 2591,
      "Ġtradisional": 2592,
      "Ġcepat": 2593,
      "\").": 2594,
      "ubern": 2595,
      "istik": 2596,
      "Ġberisi": 2597,
      "Ġpembangunan": 2598,
      "egitu": 2599,
      "ĠGu": 2600,
      "ĠGen": 2601,
      "ĠAda": 2602,
      "egang": 2603,
      "Ġ26": 2604,
      "Ġketurunan": 2605,
      "ersi": 2606,
      "ministr": 2607,
      "urus": 2608,
      "Ġnilai": 2609,
      "luk": 2610,
      "ĠTur": 2611,
      "ahudi": 2612,
      "enangan": 2613,
      "Ġmengak": 2614,
      "andi": 2615,
      "ĠâĢĶ": 2616,
      "au": 2617,
      "Ġbuk": 2618,
      "Ġsal": 2619,
      "ubung": 2620,
      "Ġdaftar": 2621,
      "Ġmembangun": 2622,
      "akup": 2623,
      "Ġalat": 2624,
      "irip": 2625,
      "Ġim": 2626,
      "ĠDin": 2627,
      "ĠInd": 2628,
      "kota": 2629,
      "PR": 2630,
      "Ġdew": 2631,
      "Ġputri": 2632,
      "anto": 2633,
      "eluarkan": 2634,
      "ĠMalaysia": 2635,
      "Ġ27": 2636,
      "Ġaktif": 2637,
      "kitab": 2638,
      "Ġkematian": 2639,
      "ĠMesi": 2640,
      "Ġdrama": 2641,
      "ts": 2642,
      "Ġenam": 2643,
      "Ġberper": 2644,
      "ie": 2645,
      "Ġpartai": 2646,
      "ĠKong": 2647,
      "ehatan": 2648,
      "ambahan": 2649,
      "ĠMeskipun": 2650,
      "Ġpember": 2651,
      "dah": 2652,
      "Ġtangga": 2653,
      "Ġ!": 2654,
      "Ġoksi": 2655,
      "Ġbeb": 2656,
      "Ġsempat": 2657,
      "ĠTr": 2658,
      "Ġmalam": 2659,
      "Ġ2003": 2660,
      "ĠBat": 2661,
      "ĠIsrael": 2662,
      "ĠTV": 2663,
      "mu": 2664,
      "Ġpenyanyi": 2665,
      "ler": 2666,
      "kar": 2667,
      "Ch": 2668,
      "Ġtepat": 2669,
      "Ġdiproduksi": 2670,
      "Ġinformasi": 2671,
      "Ġlokal": 2672,
      "dalam": 2673,
      "ĠSebagai": 2674,
      "Ġsah": 2675,
      "ulauan": 2676,
      "ans": 2677,
      "ĠYahudi": 2678,
      "Ġpindah": 2679,
      "asiswa": 2680,
      "trak": 2681,
      "aram": 2682,
      "bel": 2683,
      "Ġmul": 2684,
      "Ġmencari": 2685,
      "Ġdita": 2686,
      "ĠPemb": 2687,
      "Ġdisutradarai": 2688,
      "ley": 2689,
      "pi": 2690,
      "ĠHong": 2691,
      "aru": 2692,
      "ĠKap": 2693,
      "iaya": 2694,
      "elenggarakan": 2695,
      "Ġjatuh": 2696,
      "rasi": 2697,
      "pura": 2698,
      "Ġrakyat": 2699,
      "Ġdipakai": 2700,
      "tivitas": 2701,
      "estiv": 2702,
      "AS": 2703,
      "Ġlem": 2704,
      "ampilan": 2705,
      "Ġterpilih": 2706,
      "ĠSMA": 2707,
      "Ġkaki": 2708,
      "atin": 2709,
      "Ġ28": 2710,
      "alon": 2711,
      "bagi": 2712,
      "ĠSk": 2713,
      "ital": 2714,
      "ĠAt": 2715,
      "Ġmemperoleh": 2716,
      "Ġmemberi": 2717,
      "ahaya": 2718,
      "Ġwarna": 2719,
      "uper": 2720,
      "ilangan": 2721,
      "evolusi": 2722,
      "Ġputih": 2723,
      "Ġtah": 2724,
      "ames": 2725,
      "ĠHe": 2726,
      "Ġikut": 2727,
      "Ġuj": 2728,
      "ĠIII": 2729,
      "estival": 2730,
      "ografi": 2731,
      "andia": 2732,
      "tron": 2733,
      "Ġmantan": 2734,
      "ĠIl": 2735,
      "jang": 2736,
      "ubernur": 2737,
      "burg": 2738,
      "anian": 2739,
      "ĠMesir": 2740,
      "Ġuang": 2741,
      "ĠBe": 2742,
      "Ġberat": 2743,
      "osp": 2744,
      "Ġpenj": 2745,
      "tadi": 2746,
      "Ġdebut": 2747,
      "Ġnomor": 2748,
      "Ġberdiri": 2749,
      "Ġpantai": 2750,
      "upiter": 2751,
      "Ġterbaik": 2752,
      "atatan": 2753,
      "RI": 2754,
      "gerak": 2755,
      "ergi": 2756,
      "bus": 2757,
      "Ġkemampuan": 2758,
      "ĠKaisar": 2759,
      "ĠUdara": 2760,
      "ĠSultan": 2761,
      "andingkan": 2762,
      "dus": 2763,
      "Ġkamp": 2764,
      "engahan": 2765,
      "ĠBandung": 2766,
      "war": 2767,
      "ikan": 2768,
      "Ġbertemu": 2769,
      "Ġayahnya": 2770,
      "tual": 2771,
      "otor": 2772,
      "Ġberwarna": 2773,
      "oli": 2774,
      "trik": 2775,
      "tapkan": 2776,
      "ilik": 2777,
      "enarnya": 2778,
      "Ġmodel": 2779,
      "Ġmenampilkan": 2780,
      "Ġtugas": 2781,
      "Ġperkembangan": 2782,
      "Ġ190": 2783,
      "ĠYork": 2784,
      "anjung": 2785,
      "Ġlog": 2786,
      "ĠLiga": 2787,
      "Ġko": 2788,
      "ĠDaerah": 2789,
      "ĠDep": 2790,
      "uncak": 2791,
      "ĠNor": 2792,
      "butan": 2793,
      "Ġfisi": 2794,
      "ijakan": 2795,
      "Ġteknologi": 2796,
      "Ġgaya": 2797,
      "Ia": 2798,
      "ĠMon": 2799,
      "negara": 2800,
      "Ġbek": 2801,
      "ĠYo": 2802,
      "Ġpopuler": 2803,
      "endali": 2804,
      "astra": 2805,
      "Ġdibentuk": 2806,
      "Ġ2002": 2807,
      "aku": 2808,
      "ĠKepala": 2809,
      "Ġbantu": 2810,
      "ren": 2811,
      "Ġpenerbangan": 2812,
      "Ġefek": 2813,
      "ins": 2814,
      "ĠCar": 2815,
      "Ġberg": 2816,
      "ikat": 2817,
      "etik": 2818,
      "ingkatan": 2819,
      "sir": 2820,
      "ĠMela": 2821,
      "ĠSementara": 2822,
      "bon": 2823,
      "Ġpasar": 2824,
      "Ġantaranya": 2825,
      "ovel": 2826,
      "Ġkaum": 2827,
      "edia": 2828,
      "tih": 2829,
      "anakan": 2830,
      "omo": 2831,
      "badi": 2832,
      "Ġmenggantikan": 2833,
      "ĠEd": 2834,
      "Ġahli": 2835,
      "ĠHa": 2836,
      "Ġta": 2837,
      "Ġketer": 2838,
      "oa": 2839,
      "ĠBahasa": 2840,
      "Ġmencakup": 2841,
      "Ġsakit": 2842,
      "ath": 2843,
      "Ġlokasi": 2844,
      "lawan": 2845,
      "enn": 2846,
      "Ġkasus": 2847,
      "rata": 2848,
      "akul": 2849,
      "Ġsana": 2850,
      "Ġlaba": 2851,
      "Ber": 2852,
      "Ġepisode": 2853,
      "orong": 2854,
      "raga": 2855,
      "Ġmeminta": 2856,
      "Ġ2001": 2857,
      "ĠYang": 2858,
      "Ġpin": 2859,
      "ukul": 2860,
      "ĠGunung": 2861,
      "ys": 2862,
      "artemen": 2863,
      "Ã¼": 2864,
      "yangkan": 2865,
      "ĠPemerintah": 2866,
      "ĠPers": 2867,
      "Ġsitus": 2868,
      "Ġsenjata": 2869,
      "Ġperh": 2870,
      "Ġjarak": 2871,
      "ĠKeka": 2872,
      "mer": 2873,
      "Ġnon": 2874,
      "Ġpenyakit": 2875,
      "ool": 2876,
      "Ġ)": 2877,
      "ĠDir": 2878,
      "199": 2879,
      "urusan": 2880,
      "ood": 2881,
      "ominasi": 2882,
      "30": 2883,
      "Ġkam": 2884,
      "elapan": 2885,
      "Ġikan": 2886,
      "Ġsis": 2887,
      "Ġtertinggi": 2888,
      "Ġmudah": 2889,
      "ĠPT": 2890,
      "buatan": 2891,
      "Ġpenuh": 2892,
      "ten": 2893,
      "ĠInternasional": 2894,
      "ribu": 2895,
      "ĠPangeran": 2896,
      "ĠHer": 2897,
      "amaan": 2898,
      "dir": 2899,
      "ungkinan": 2900,
      "titusi": 2901,
      "Ġsekaligus": 2902,
      "aturan": 2903,
      "esus": 2904,
      "amai": 2905,
      "dagangan": 2906,
      "Ġoperasi": 2907,
      "baya": 2908,
      "Ġkondisi": 2909,
      "ice": 2910,
      "iliki": 2911,
      "jem": 2912,
      "alu": 2913,
      "sit": 2914,
      "ĠPendidikan": 2915,
      "seorang": 2916,
      "Ġhewan": 2917,
      "Ġbegitu": 2918,
      "Ġmon": 2919,
      "fik": 2920,
      "ensis": 2921,
      "Ġpublik": 2922,
      "Pen": 2923,
      "Ġberd": 2924,
      "Ġhadi": 2925,
      "ĠPor": 2926,
      "gala": 2927,
      "ganya": 2928,
      "Ġmerah": 2929,
      "Ġmenolak": 2930,
      "ld": 2931,
      "Ġmenarik": 2932,
      "ĠTerbaik": 2933,
      "Ġpanas": 2934,
      "Ġ50": 2935,
      "Ġmati": 2936,
      "ĠKetua": 2937,
      "gak": 2938,
      "lasan": 2939,
      "diakan": 2940,
      "Ġ1999": 2941,
      "Ġialah": 2942,
      "vi": 2943,
      "Ġsar": 2944,
      "erang": 2945,
      "tis": 2946,
      "Ġgaris": 2947,
      "Ġmeningkatkan": 2948,
      "hal": 2949,
      "ual": 2950,
      "iring": 2951,
      "Ġpertanian": 2952,
      "ĠAsi": 2953,
      "acam": 2954,
      "ĠRoma": 2955,
      "Ġgerakan": 2956,
      "Ġduk": 2957,
      "ĠPat": 2958,
      "Ġcontoh": 2959,
      "Ġusaha": 2960,
      "ick": 2961,
      "Ġmenempat": 2962,
      "elesaikan": 2963,
      "ĠÂ²": 2964,
      "Ġet": 2965,
      "Ġtotal": 2966,
      "lasi": 2967,
      "akultas": 2968,
      "Ġulang": 2969,
      "etah": 2970,
      "Ġbantuan": 2971,
      "SM": 2972,
      "ĠSte": 2973,
      "ez": 2974,
      "ĠIntern": 2975,
      "abi": 2976,
      "hanc": 2977,
      "ĠPan": 2978,
      "ĠJalan": 2979,
      "chi": 2980,
      "Ġkeadaan": 2981,
      "Ġdiangkat": 2982,
      "Ġhid": 2983,
      "ĠLon": 2984,
      "Ġon": 2985,
      "undang": 2986,
      "Ġtanaman": 2987,
      "Ġbunga": 2988,
      "asilitas": 2989,
      "Ġmemakan": 2990,
      "ungkinkan": 2991,
      "ĠLagu": 2992,
      "ĠCom": 2993,
      "ĠKekaisaran": 2994,
      "arap": 2995,
      "Ġdewasa": 2996,
      "uruf": 2997,
      "Ġfinal": 2998,
      "der": 2999,
      "ĠHin": 3000,
      "kait": 3001,
      "tadion": 3002,
      "48": 3003,
      "Ġterlihat": 3004,
      "unggal": 3005,
      "amanan": 3006,
      "bor": 3007,
      "elola": 3008,
      "ĠPe": 3009,
      "Ġkuno": 3010,
      "ĠPerj": 3011,
      "omat": 3012,
      "Ġtulis": 3013,
      "Ġpertempuran": 3014,
      "ĠYupiter": 3015,
      "uncurkan": 3016,
      "Ġfor": 3017,
      "ĠMuhammad": 3018,
      "Ġpemilihan": 3019,
      "ĠBi": 3020,
      "ĠTa": 3021,
      "bahasa": 3022,
      "ĠEm": 3023,
      "Ġanti": 3024,
      "Ġpopulasi": 3025,
      "Ġmengalahkan": 3026,
      "ĠAli": 3027,
      "trat": 3028,
      "ĠKalim": 3029,
      "uali": 3030,
      "Ġid": 3031,
      "elaskan": 3032,
      "satunya": 3033,
      "Ġbarang": 3034,
      "lahraga": 3035,
      "Ġsebenarnya": 3036,
      "ĠAlkitab": 3037,
      "oth": 3038,
      "ney": 3039,
      "Laba": 3040,
      "apun": 3041,
      "sip": 3042,
      "Ġrata": 3043,
      "Ġagr": 3044,
      "Ġkeduanya": 3045,
      "yam": 3046,
      "andangan": 3047,
      "arikan": 3048,
      "ajalah": 3049,
      "Ġam": 3050,
      "uhi": 3051,
      "sedia": 3052,
      "yn": 3053,
      "Ġunit": 3054,
      "ĠAraneae": 3055,
      "Ġproyek": 3056,
      "sikan": 3057,
      "Ġstruktur": 3058,
      "dayaan": 3059,
      "ĠSed": 3060,
      "Pro": 3061,
      "Ġpendiri": 3062,
      "iling": 3063,
      "ĠWak": 3064,
      "libat": 3065,
      "lex": 3066,
      "ĠIns": 3067,
      "anti": 3068,
      "Ġdiambil": 3069,
      "ĠMaj": 3070,
      "Ġfamilia": 3071,
      "luas": 3072,
      "orld": 3073,
      "enaga": 3074,
      "eth": 3075,
      "Ġwisata": 3076,
      "Ġpria": 3077,
      "Ġmenyerang": 3078,
      "Ġberusaha": 3079,
      "ves": 3080,
      "ĠBudd": 3081,
      "Ġnovel": 3082,
      "Ġpot": 3083,
      "Ġperistiwa": 3084,
      "Ġmengembangkan": 3085,
      "ĠDis": 3086,
      "Ġ1990": 3087,
      "enalkan": 3088,
      "Ġbabak": 3089,
      "uruan": 3090,
      "yakarta": 3091,
      "ĠKo": 3092,
      "illa": 3093,
      "Ġto": 3094,
      "Ġfungsi": 3095,
      "Ġ29": 3096,
      "enteng": 3097,
      "itur": 3098,
      "ogyakarta": 3099,
      "kanan": 3100,
      "Ġpengembangan": 3101,
      "ĠHo": 3102,
      "Ġpresiden": 3103,
      "Ġgol": 3104,
      "Ġpenelitian": 3105,
      "ĠKem": 3106,
      "Ġmerilis": 3107,
      "ĠBad": 3108,
      "ĠJenderal": 3109,
      "erikut": 3110,
      "Ġperingkat": 3111,
      "ĠKeb": 3112,
      "atal": 3113,
      "ĠHan": 3114,
      "irakan": 3115,
      "epas": 3116,
      "laman": 3117,
      "Ġberjalan": 3118,
      "Ġhitam": 3119,
      "Ġberf": 3120,
      "Ġrasa": 3121,
      "Ġlayanan": 3122,
      "ikahan": 3123,
      "lay": 3124,
      "ĠAceh": 3125,
      "ĠSinga": 3126,
      "lob": 3127,
      "ĠSula": 3128,
      "Ġsegera": 3129,
      "Ġkhas": 3130,
      "Ġmengirim": 3131,
      "hana": 3132,
      "ue": 3133,
      "jadikan": 3134,
      "ĠGeor": 3135,
      "mar": 3136,
      "Ġguru": 3137,
      "ĠBali": 3138,
      "Ġseba": 3139,
      "ĠBur": 3140,
      "FA": 3141,
      "Ġge": 3142,
      "dak": 3143,
      "udukan": 3144,
      "jaya": 3145,
      "Ġbisnis": 3146,
      "aktor": 3147,
      "Ġdar": 3148,
      "erdeka": 3149,
      "rid": 3150,
      "ĠKalimantan": 3151,
      "Ġpengg": 3152,
      "Ġadministr": 3153,
      "ĠLondon": 3154,
      "Ġseseorang": 3155,
      "omba": 3156,
      "engaruhi": 3157,
      "inyak": 3158,
      "Ġdibintangi": 3159,
      "Ġmelanjutkan": 3160,
      "Ġkimia": 3161,
      "Ġmengaku": 3162,
      "Ġtampak": 3163,
      "Ġsaudara": 3164,
      "Ġobjek": 3165,
      "umpang": 3166,
      "uf": 3167,
      "Ar": 3168,
      "Ġterkait": 3169,
      "Ġmerasa": 3170,
      "likasi": 3171,
      "lalu": 3172,
      "ĠSejak": 3173,
      "Ġgel": 3174,
      "Ġterlibat": 3175,
      "Ġbenar": 3176,
      "abat": 3177,
      "ĠFran": 3178,
      "Ġdag": 3179,
      "Ġpohon": 3180,
      "Ġtiba": 3181,
      "Ġ40": 3182,
      "tes": 3183,
      "Ġmengubah": 3184,
      "let": 3185,
      "Ġkeper": 3186,
      "Ġberbentuk": 3187,
      "ser": 3188,
      "ĠBu": 3189,
      "Ġjuara": 3190,
      "iau": 3191,
      "Ġmencoba": 3192,
      "yr": 3193,
      "jukan": 3194,
      "ĠSeri": 3195,
      "ĠAh": 3196,
      "alif": 3197,
      "indakan": 3198,
      "Ġkabupaten": 3199,
      "edan": 3200,
      "Ġmemungkinkan": 3201,
      "Ġdikembangkan": 3202,
      "Ġdif": 3203,
      "ĠBen": 3204,
      "Ġmember": 3205,
      "Ġkemungkinan": 3206,
      "ĠAdi": 3207,
      "Ġgi": 3208,
      "ĠYogyakarta": 3209,
      "Ġmemimpin": 3210,
      "Ġmengumumkan": 3211,
      "Ġlembaga": 3212,
      "Ġgambar": 3213,
      "Ġmisalnya": 3214,
      "Ġlistrik": 3215,
      "jad": 3216,
      "Ġ188": 3217,
      "dari": 3218,
      "uskupan": 3219,
      "ĠSebelum": 3220,
      "Ġmenghadap": 3221,
      "etahuan": 3222,
      "Ġperangkat": 3223,
      "ikel": 3224,
      "elak": 3225,
      "Ġdijadikan": 3226,
      "opi": 3227,
      "antik": 3228,
      "lahirkan": 3229,
      "tain": 3230,
      "ĠAlbum": 3231,
      "Ġperlu": 3232,
      "jau": 3233,
      "ven": 3234,
      "Ġmempert": 3235,
      "erahkan": 3236,
      "Ġselanjutnya": 3237,
      "hargaan": 3238,
      "liam": 3239,
      "ĠBesar": 3240,
      "Ġnamanya": 3241,
      "Ġpra": 3242,
      "Ġteori": 3243,
      "butuhkan": 3244,
      "Ġtitik": 3245,
      "old": 3246,
      "ĠCon": 3247,
      "ella": 3248,
      "Ġoksigen": 3249,
      "Ġteman": 3250,
      "okus": 3251,
      "Ġkeka": 3252,
      "Ġken": 3253,
      "Ġberusia": 3254,
      "onton": 3255,
      "bah": 3256,
      "Ġmembunuh": 3257,
      "Ġkend": 3258,
      "Ġpasangan": 3259,
      "ster": 3260,
      "esai": 3261,
      "ĠÃ": 3262,
      "ania": 3263,
      "inggian": 3264,
      "Ġref": 3265,
      "Ġmirip": 3266,
      "Ġgagal": 3267,
      "ker": 3268,
      "Ġpengaruh": 3269,
      "ongia": 3270,
      "Ġtumbuh": 3271,
      "Ġbel": 3272,
      "tuju": 3273,
      "Ġdaun": 3274,
      "ĠMet": 3275,
      "ĠPar": 3276,
      "ĠPerjanjian": 3277,
      "Ġnya": 3278,
      "Ġbr": 3279,
      "icara": 3280,
      "Ġbadan": 3281,
      "ĠPusat": 3282,
      "Ġleg": 3283,
      "juan": 3284,
      "ĠFilip": 3285,
      "ĠTak": 3286,
      "agam": 3287,
      "Ġperdagangan": 3288,
      "Ġjelas": 3289,
      "ĠYesus": 3290,
      "jam": 3291,
      "aksud": 3292,
      "Ġmerek": 3293,
      "Ġprofesi": 3294,
      "ĠPak": 3295,
      "unjukan": 3296,
      "asia": 3297,
      "Ġbelas": 3298,
      "Ġstatus": 3299,
      "uci": 3300,
      "jari": 3301,
      "Ġpertengahan": 3302,
      "ĠPut": 3303,
      "ence": 3304,
      "Ġkomputer": 3305,
      "uasai": 3306,
      "esif": 3307,
      "osis": 3308,
      "Ġtemp": 3309,
      "ĠTekn": 3310,
      "ahankan": 3311,
      "Ter": 3312,
      "Ġpenguasa": 3313,
      "ĠKam": 3314,
      "Ġ_": 3315,
      "aki": 3316,
      "erdekaan": 3317,
      "les": 3318,
      "sch": 3319,
      "Ġpengguna": 3320,
      "edaan": 3321,
      "Ġdah": 3322,
      "Or": 3323,
      "arlemen": 3324,
      "Ġkemenangan": 3325,
      "Ġbertahan": 3326,
      "sy": 3327,
      "Ġselain": 3328,
      "urabaya": 3329,
      "Ġ1980": 3330,
      "ebut": 3331,
      "Ġumat": 3332,
      "Ġkulit": 3333,
      "ĠSelama": 3334,
      "isahkan": 3335,
      "Ġmenciptakan": 3336,
      "ĠUmum": 3337,
      "Ġkebijakan": 3338,
      "emat": 3339,
      "ĠCl": 3340,
      "ĠCity": 3341,
      "ĠIm": 3342,
      "uhnya": 3343,
      "Ġtur": 3344,
      "Ġdiak": 3345,
      "tia": 3346,
      "ĠKedua": 3347,
      "ĠRakyat": 3348,
      "epatan": 3349,
      "Ġenergi": 3350,
      "Ġperp": 3351,
      "Ġpendapat": 3352,
      "Menurut": 3353,
      "stra": 3354,
      "sel": 3355,
      "Ġsingel": 3356,
      "Ġuni": 3357,
      "arm": 3358,
      "tein": 3359,
      "budayaan": 3360,
      "Ġdarah": 3361,
      "Ġdibandingkan": 3362,
      "124": 3363,
      "ĠAbdul": 3364,
      "Ġ1998": 3365,
      "Ġrela": 3366,
      "jarah": 3367,
      "ĠTinggi": 3368,
      "tin": 3369,
      "Ã³": 3370,
      "Ġistri": 3371,
      "tidae": 3372,
      "hoa": 3373,
      "ean": 3374,
      "uta": 3375,
      "Ġtip": 3376,
      "Ġinter": 3377,
      "dow": 3378,
      "buran": 3379,
      "pun": 3380,
      "Ġtern": 3381,
      "egun": 3382,
      "Ġy": 3383,
      "Ġkonsep": 3384,
      "lus": 3385,
      "Ġdimiliki": 3386,
      "ĠTNI": 3387,
      "ĠCor": 3388,
      "Ġjudul": 3389,
      "ĠGer": 3390,
      "Ġkhususnya": 3391,
      "Ġkantor": 3392,
      "25": 3393,
      "wang": 3394,
      "iru": 3395,
      "ĠTenggara": 3396,
      "Äģ": 3397,
      "elis": 3398,
      "Ġop": 3399,
      "okasi": 3400,
      "Ġbebas": 3401,
      "Ġbersa": 3402,
      "Ġmisi": 3403,
      "sal": 3404,
      "Ġkesehatan": 3405,
      "Ġpribadi": 3406,
      "Ġgedung": 3407,
      "wesi": 3408,
      "Ġ189": 3409,
      "nam": 3410,
      "ham": 3411,
      "ĠBro": 3412,
      "Ġtambahan": 3413,
      "ipta": 3414,
      "lum": 3415,
      "onghoa": 3416,
      "gang": 3417,
      "ĠStasiun": 3418,
      "Ġbersifat": 3419,
      "andan": 3420,
      "otel": 3421,
      "trol": 3422,
      "Ġunsur": 3423,
      "Sela": 3424,
      "Ġæ": 3425,
      "Ġrep": 3426,
      "ĠDen": 3427,
      "Ġberbasis": 3428,
      "Ġtunggal": 3429,
      "ĠMes": 3430,
      "usa": 3431,
      "ĠGa": 3432,
      "elompok": 3433,
      "Ġmengandung": 3434,
      "sus": 3435,
      "ĠMich": 3436,
      "rag": 3437,
      "ĠMuslim": 3438,
      "anjar": 3439,
      "erus": 3440,
      "Ġbenda": 3441,
      "unyi": 3442,
      "zim": 3443,
      "Ġhuruf": 3444,
      "Ġsifat": 3445,
      "Ġberperan": 3446,
      "laim": 3447,
      "ĠKepulauan": 3448,
      "Ġkala": 3449,
      "alih": 3450,
      "ĠÂ°": 3451,
      "Ġkeempat": 3452,
      "ĠOrang": 3453,
      "iro": 3454,
      "Ġradio": 3455,
      "60": 3456,
      "amakan": 3457,
      "SI": 3458,
      "ĠSum": 3459,
      "Ġelektron": 3460,
      "ujud": 3461,
      "Ġupaya": 3462,
      "Ġsukses": 3463,
      "istan": 3464,
      "pro": 3465,
      "ĠPet": 3466,
      "gia": 3467,
      "ĠSurabaya": 3468,
      "Ġbergerak": 3469,
      "Ġ?": 3470,
      "Desa": 3471,
      "Ġminyak": 3472,
      "Ġtujuh": 3473,
      "ary": 3474,
      "uat": 3475,
      "Ġadat": 3476,
      "angat": 3477,
      "angkaian": 3478,
      "ĠFr": 3479,
      "ale": 3480,
      "Ġketinggian": 3481,
      "engar": 3482,
      "Ġpar": 3483,
      "ĠHam": 3484,
      "Ġpad": 3485,
      "Ġmembuka": 3486,
      "Ġkul": 3487,
      "ling": 3488,
      "Ġstandar": 3489,
      "ilus": 3490,
      "itra": 3491,
      "ospongia": 3492,
      "Ġaktor": 3493,
      "Ġasam": 3494,
      "egunungan": 3495,
      "ĠKi": 3496,
      "Ġselesai": 3497,
      "upacara": 3498,
      "ner": 3499,
      "Ġkonser": 3500,
      "Ġgunung": 3501,
      "Ġburung": 3502,
      "yp": 3503,
      "ĠPur": 3504,
      "abis": 3505,
      "Ġditayangkan": 3506,
      "resi": 3507,
      "ĠWin": 3508,
      "ĠSri": 3509,
      "tris": 3510,
      "akaian": 3511,
      "of": 3512,
      "ĠLin": 3513,
      "ujan": 3514,
      "Ġu": 3515,
      "empatan": 3516,
      "Ġpernikahan": 3517,
      "ĠKol": 3518,
      "ĠOn": 3519,
      "ĠWorld": 3520,
      "ĠDinasti": 3521,
      "ĠKons": 3522,
      "Ġperc": 3523,
      "Ġdibagi": 3524,
      "Ġkepem": 3525,
      "ainkan": 3526,
      "Ã¶": 3527,
      "abel": 3528,
      "Ġprodus": 3529,
      "tihan": 3530,
      "ĠKanada": 3531,
      "Ġnaskah": 3532,
      "ĠSingapura": 3533,
      "Ġdipilih": 3534,
      "Ġserangga": 3535,
      "40": 3536,
      "aha": 3537,
      "Ġanim": 3538,
      "KI": 3539,
      "Ġkompetisi": 3540,
      "Ġprak": 3541,
      "jana": 3542,
      "Ġkalangan": 3543,
      "tup": 3544,
      "Ġcer": 3545,
      "ĠMil": 3546,
      "Ġdukungan": 3547,
      "Ġplat": 3548,
      "oma": 3549,
      "198": 3550,
      "Ġterlalu": 3551,
      "elam": 3552,
      "ĠSulawesi": 3553,
      "Ġmajalah": 3554,
      "itab": 3555,
      "Ġturun": 3556,
      "can": 3557,
      "ĠDPR": 3558,
      "Ġtersedia": 3559,
      "ĠNe": 3560,
      "ester": 3561,
      "ĠTidak": 3562,
      "mat": 3563,
      "ĠLatin": 3564,
      "Ġgas": 3565,
      "upati": 3566,
      "Ġfr": 3567,
      "Ġmenggambarkan": 3568,
      "ĠPolandia": 3569,
      "Ġindi": 3570,
      "af": 3571,
      "ektor": 3572,
      "Ġhati": 3573,
      "Ġmengur": 3574,
      "ĠTionghoa": 3575,
      "ĠSalah": 3576,
      "leks": 3577,
      "Ġterbuka": 3578,
      "ras": 3579,
      "ement": 3580,
      "Ġlahan": 3581,
      "ony": 3582,
      "Ġjawab": 3583,
      "itung": 3584,
      "ĠUnit": 3585,
      "jur": 3586,
      "abrik": 3587,
      "Ġmewak": 3588,
      "eni": 3589,
      "laku": 3590,
      "porkan": 3591,
      "ĠWilliam": 3592,
      "Ġdiselenggarakan": 3593,
      "yani": 3594,
      "Ġnaik": 3595,
      "Ġpeserta": 3596,
      "usak": 3597,
      "eku": 3598,
      "ĠPela": 3599,
      ".,": 3600,
      "Ġmenyediakan": 3601,
      "AR": 3602,
      "Ġkonf": 3603,
      "Ġkomunitas": 3604,
      "ejabat": 3605,
      "ĠMis": 3606,
      "andatangan": 3607,
      "ular": 3608,
      "Ġmemainkan": 3609,
      "ĠMc": 3610,
      "Ġwala": 3611,
      "Ġperse": 3612,
      "urnamen": 3613,
      "ĠPaus": 3614,
      "Ġ31": 3615,
      "intah": 3616,
      "TV": 3617,
      "ese": 3618,
      "Ġtr": 3619,
      "Ġfasilitas": 3620,
      "ight": 3621,
      "tidak": 3622,
      "okrat": 3623,
      "ipil": 3624,
      "Ġterbang": 3625,
      "ospongiae": 3626,
      "ĠDemospongiae": 3627,
      "uji": 3628,
      "Ġkendaraan": 3629,
      "erj": 3630,
      "any": 3631,
      "Ġmenyelesaikan": 3632,
      "Ġneg": 3633,
      "vasi": 3634,
      "ujuk": 3635,
      "ĠWilayah": 3636,
      "Ġcabang": 3637,
      "Ġkadang": 3638,
      "ero": 3639,
      "engkap": 3640,
      "rich": 3641,
      "Ġteknik": 3642,
      "Ġdibuka": 3643,
      "Ġemas": 3644,
      "ĠSedangkan": 3645,
      "ĠGro": 3646,
      "ĠSD": 3647,
      "antara": 3648,
      "Ġupacara": 3649,
      "irus": 3650,
      "alankan": 3651,
      "Ġmay": 3652,
      "Ġpenumpang": 3653,
      "Ġsat": 3654,
      "Ġpukul": 3655,
      "Ke": 3656,
      "ĠPenghargaan": 3657,
      "usul": 3658,
      "Ġdistrik": 3659,
      "Ġperdana": 3660,
      "ĠFilipina": 3661,
      "dar": 3662,
      "ĠJac": 3663,
      "bangkan": 3664,
      "Ġtindakan": 3665,
      "Ġpemu": 3666,
      "Ġkebanyakan": 3667,
      "Pem": 3668,
      "tifikasi": 3669,
      "Ġteks": 3670,
      "ganisasi": 3671,
      "wakilan": 3672,
      "Ġmewakili": 3673,
      "Ġmahasiswa": 3674,
      "Ġpa": 3675,
      "Ġsur": 3676,
      "Ġmenjal": 3677,
      "ando": 3678,
      "ĠSing": 3679,
      "grasi": 3680,
      "Ġperjanjian": 3681,
      "butuhan": 3682,
      "yanya": 3683,
      "ombang": 3684,
      "ĠTai": 3685,
      "Ġterd": 3686,
      "ĠEx": 3687,
      "Ġkalinya": 3688,
      "tre": 3689,
      "Selain": 3690,
      "Ġedisi": 3691,
      "Ġmenit": 3692,
      "Ġ1997": 3693,
      "ĠHen": 3694,
      "Ġinf": 3695,
      "Ġmenyerap": 3696,
      "arg": 3697,
      "aceae": 3698,
      "uhu": 3699,
      "Ġide": 3700,
      "ĠEk": 3701,
      "ultanan": 3702,
      "ĠSebuah": 3703,
      "enter": 3704,
      "inisi": 3705,
      "ĠTurki": 3706,
      "ontakan": 3707,
      "umb": 3708,
      "ĠSMP": 3709,
      "ektar": 3710,
      "ribusi": 3711,
      "Ġpekerjaan": 3712,
      "Ġpu": 3713,
      "ĠSc": 3714,
      "ĠPi": 3715,
      "ĠPortu": 3716,
      "ox": 3717,
      "Agr": 3718,
      "lar": 3719,
      "Ġcatatan": 3720,
      "ram": 3721,
      "itis": 3722,
      "Ġata": 3723,
      "irim": 3724,
      "ĠTro": 3725,
      "arapan": 3726,
      "kuat": 3727,
      "enduduk": 3728,
      "Berikut": 3729,
      "ĠHindia": 3730,
      "Ġ1970": 3731,
      "Ġ187": 3732,
      "ĠWal": 3733,
      "guruan": 3734,
      "eld": 3735,
      ",\"": 3736,
      "Ġmenjadikan": 3737,
      "jib": 3738,
      "ambahkan": 3739,
      "kadang": 3740,
      "Ġdilaksan": 3741,
      "Ġsik": 3742,
      "Ġkorban": 3743,
      "Ġistana": 3744,
      "ĠStudi": 3745,
      "Ġalasan": 3746,
      "ny": 3747,
      "wasta": 3748,
      "ĠParis": 3749,
      "Ġdiikuti": 3750,
      "Ġmengadakan": 3751,
      "dop": 3752,
      "21": 3753,
      "Ġaliran": 3754,
      "Ġpuncak": 3755,
      "elang": 3756,
      "ĠGubernur": 3757,
      "Ġperl": 3758,
      "ĠNomor": 3759,
      "Ġberbatasan": 3760,
      "Ġrencana": 3761,
      "Ġkategori": 3762,
      "ikir": 3763,
      "Ġbiaya": 3764,
      "ĠBangsa": 3765,
      "Ġpetani": 3766,
      "Ġdilaksanakan": 3767,
      "yawa": 3768,
      "az": 3769,
      "ĠFakultas": 3770,
      "ĠFestival": 3771,
      "use": 3772,
      "hancurkan": 3773,
      "Ġbak": 3774,
      "ayaan": 3775,
      "elit": 3776,
      "Ġpeda": 3777,
      "Ġmemakai": 3778,
      "Ġmetode": 3779,
      "ĠKomp": 3780,
      "Agrilus": 3781,
      "ĠBank": 3782,
      "Ġint": 3783,
      "Ġ+": 3784,
      "Ġkisah": 3785,
      "ĠBumi": 3786,
      "Ġasing": 3787,
      "mo": 3788,
      "Ø§": 3789,
      "Ġdila": 3790,
      "arak": 3791,
      "Ġkebutuhan": 3792,
      "AM": 3793,
      "uma": 3794,
      "tiga": 3795,
      "unjung": 3796,
      "Ġminggu": 3797,
      "Ġberpen": 3798,
      "ĠUniversi": 3799,
      "Ġterbagi": 3800,
      "Ġolahraga": 3801,
      "Ġpembuatan": 3802,
      "rad": 3803,
      "Ġibunya": 3804,
      "Ġrekaman": 3805,
      "ire": 3806,
      "Ġmasjid": 3807,
      "uel": 3808,
      "embatan": 3809,
      "Ġmenjelaskan": 3810,
      "Ġsemi": 3811,
      "Ġtanda": 3812,
      "ÃŃ": 3813,
      "Ġdesain": 3814,
      "airan": 3815,
      "juaraan": 3816,
      "ambang": 3817,
      "Ġmanaj": 3818,
      "Ġberc": 3819,
      "Ġmengetahui": 3820,
      "ĠSang": 3821,
      "ĠRatu": 3822,
      "lahiran": 3823,
      "Ġjadi": 3824,
      "Ġkelurahan": 3825,
      "engkapi": 3826,
      "Ġes": 3827,
      "anye": 3828,
      "Ġobat": 3829,
      "uara": 3830,
      "lok": 3831,
      "Ġera": 3832,
      "Ġditerima": 3833,
      "ute": 3834,
      "ĠKur": 3835,
      "Ġaktivitas": 3836,
      "Ġlulus": 3837,
      "Ġataupun": 3838,
      "rani": 3839,
      "ĠPertama": 3840,
      "ĠAustria": 3841,
      "jualan": 3842,
      "Ġtenaga": 3843,
      "ĠBuddha": 3844,
      "esu": 3845,
      "eritakan": 3846,
      "Ġprofesional": 3847,
      "24": 3848,
      "hari": 3849,
      "Ġrem": 3850,
      "Ġpengetahuan": 3851,
      "Ġsiswa": 3852,
      "iv": 3853,
      "embilan": 3854,
      "Ġsaling": 3855,
      "ude": 3856,
      "23": 3857,
      "Ġmemasuki": 3858,
      "Ġmengeluarkan": 3859,
      "com": 3860,
      "ewat": 3861,
      "ĠSim": 3862,
      "tahun": 3863,
      "Ġintern": 3864,
      "Ġbus": 3865,
      "ologis": 3866,
      "Ġsastra": 3867,
      "ĠAwards": 3868,
      "dilan": 3869,
      "ĠUS": 3870,
      "ĠHol": 3871,
      "Ġdigantikan": 3872,
      "ĠMaria": 3873,
      "hat": 3874,
      "Ġukuran": 3875,
      "Ġmempertahankan": 3876,
      "Ġsegala": 3877,
      "edakan": 3878,
      "ĠTuhan": 3879,
      "Ġantar": 3880,
      "Ġhujan": 3881,
      "ĠPap": 3882,
      "Ġ1960": 3883,
      "elan": 3884,
      "ĠBanjar": 3885,
      "ingg": 3886,
      "lobal": 3887,
      "umpulan": 3888,
      "Ġdahulu": 3889,
      "jadian": 3890,
      "Ġspesi": 3891,
      "Ġterj": 3892,
      "ĠSun": 3893,
      "adah": 3894,
      "Ġcamp": 3895,
      "anaan": 3896,
      "ikiran": 3897,
      "Ġmemperk": 3898,
      "Ġmurid": 3899,
      "Ġgug": 3900,
      "Ġpercaya": 3901,
      "Ġ1996": 3902,
      "embak": 3903,
      "akah": 3904,
      "Ġsetempat": 3905,
      "yataan": 3906,
      "ĠPark": 3907,
      "pek": 3908,
      "che": 3909,
      "edator": 3910,
      "Ġtewas": 3911,
      "uduki": 3912,
      "ĠMelayu": 3913,
      "Ġagresif": 3914,
      "AT": 3915,
      "Ġberita": 3916,
      "Ġselam": 3917,
      "Ġkitab": 3918,
      "rus": 3919,
      "indungi": 3920,
      "ĠJika": 3921,
      "Ġdom": 3922,
      "erhana": 3923,
      "Ġkehilangan": 3924,
      "Ġses": 3925,
      "Ġtahu": 3926,
      "sipasi": 3927,
      "intas": 3928,
      "atasi": 3929,
      "Peng": 3930,
      "cu": 3931,
      "ĠTok": 3932,
      "Ġvok": 3933,
      "ukai": 3934,
      "ĠWakil": 3935,
      "ubungkan": 3936,
      "indu": 3937,
      "Ġpimpinan": 3938,
      "ental": 3939,
      "Ġmenganggap": 3940,
      "unjungi": 3941,
      "Ġstrat": 3942,
      "alaupun": 3943,
      "osiasi": 3944,
      "antaranya": 3945,
      "ĠSebagian": 3946,
      "ander": 3947,
      "ĠZh": 3948,
      "Ġbatas": 3949,
      "igh": 3950,
      "enakan": 3951,
      "onis": 3952,
      "ĠPri": 3953,
      "Ġmencetak": 3954,
      "Ġdat": 3955,
      "anggil": 3956,
      "ee": 3957,
      "atnya": 3958,
      "Ġsus": 3959,
      "ĠAlex": 3960,
      "ĠInternational": 3961,
      "indahkan": 3962,
      "Ġkeputusan": 3963,
      "Ġ1945": 3964,
      "Beberapa": 3965,
      "tumbuhan": 3966,
      "arisan": 3967,
      "Ġab": 3968,
      "Ġ(;": 3969,
      "ĠInstitu": 3970,
      "ato": 3971,
      "Ġsaluran": 3972,
      "Ġberumur": 3973,
      "Ġpersen": 3974,
      "Kar": 3975,
      "Untuk": 3976,
      "embah": 3977,
      "Ġmenang": 3978,
      "Ġ1995": 3979,
      "asinya": 3980,
      "ĠProgram": 3981,
      "ene": 3982,
      "Ġkontrak": 3983,
      "ĠTra": 3984,
      "utar": 3985,
      "Ada": 3986,
      "alaman": 3987,
      "efinisi": 3988,
      "emua": 3989,
      "Ġbila": 3990,
      "ĠMi": 3991,
      "elajari": 3992,
      "my": 3993,
      "Ġpredator": 3994,
      "iade": 3995,
      "Ġdika": 3996,
      "pu": 3997,
      "ĠDua": 3998,
      "ĠTrans": 3999,
      "Ġkomunikasi": 4000,
      "faatkan": 4001,
      "ĠCharl": 4002,
      "ĠKemen": 4003,
      "film": 4004,
      "ĠJames": 4005,
      "Ġkode": 4006,
      "Ġdewa": 4007,
      "uskan": 4008,
      "BC": 4009,
      "entikan": 4010,
      "Ġterbatas": 4011,
      "Ġkritik": 4012,
      "Ġdisebabkan": 4013,
      "no": 4014,
      "Ġindivid": 4015,
      "Ġmerujuk": 4016,
      "Ġmenghadapi": 4017,
      "ĠKomun": 4018,
      "uning": 4019,
      "Ġberoperasi": 4020,
      "amu": 4021,
      "Ġtertu": 4022,
      "Ġmateri": 4023,
      "onen": 4024,
      "ulat": 4025,
      "eidae": 4026,
      "ĠWar": 4027,
      "Am": 4028,
      "ĠBal": 4029,
      "osk": 4030,
      "ĠMay": 4031,
      "Ġdelapan": 4032,
      "impiade": 4033,
      "Ġgenerasi": 4034,
      "ukur": 4035,
      "Ġterm": 4036,
      "Ġmili": 4037,
      "egal": 4038,
      "Ġkecepatan": 4039,
      "oris": 4040,
      "truksi": 4041,
      "Ġmengin": 4042,
      "Ġperbedaan": 4043,
      "ĠFor": 4044,
      "Ġkepad": 4045,
      "Ġmenentukan": 4046,
      "ĠComp": 4047,
      "ĠChr": 4048,
      "ĠHari": 4049,
      "Ġangka": 4050,
      "Ġberjumlah": 4051,
      "Ġbe": 4052,
      "awat": 4053,
      "ĠPertempuran": 4054,
      "Ġpuluh": 4055,
      "Ġperbatasan": 4056,
      "Ġ1994": 4057,
      "22": 4058,
      "ĠMark": 4059,
      "Ġkot": 4060,
      "Ġditetapkan": 4061,
      "andatangani": 4062,
      "ĠTaman": 4063,
      "Ġcinta": 4064,
      "Ġkemerdekaan": 4065,
      "Ġcm": 4066,
      "Ġinst": 4067,
      "Ġdifusi": 4068,
      "Ġbuatan": 4069,
      "Ġoper": 4070,
      "Ġberkata": 4071,
      "Ġpenduduknya": 4072,
      "ĠSecara": 4073,
      "jen": 4074,
      "ory": 4075,
      "turut": 4076,
      "Ġdiperkirakan": 4077,
      "ĠUniversity": 4078,
      "Ġwalaupun": 4079,
      "Ġkos": 4080,
      "ĠRI": 4081,
      "rak": 4082,
      "Ġpenja": 4083,
      "Ġujung": 4084,
      "eph": 4085,
      "Ġmol": 4086,
      "Ġtulisan": 4087,
      "win": 4088,
      "taf": 4089,
      "Ġtapi": 4090,
      "insip": 4091,
      "Ġreg": 4092,
      "Ġsulit": 4093,
      "ĠGre": 4094,
      "Ġadik": 4095,
      "Ġ1992": 4096,
      "Ġmakanannya": 4097,
      "Ġbagaimana": 4098,
      "Ġdiantaranya": 4099,
      "Ġkabar": 4100,
      "egah": 4101,
      "Ġpo": 4102,
      "irasi": 4103,
      "Ġkoloni": 4104,
      "Ġmemang": 4105,
      "ĠRober": 4106,
      "Ġ1950": 4107,
      "Ġbekas": 4108,
      "lain": 4109,
      "ĠRad": 4110,
      "Ġpejabat": 4111,
      "alang": 4112,
      "Ġ(,": 4113,
      "Ġpertemuan": 4114,
      "ĠSar": 4115,
      "Ġmemenuhi": 4116,
      "Ġ\".": 4117,
      "Ġmenging": 4118,
      "Ġpendukung": 4119,
      "ĠBand": 4120,
      "wira": 4121,
      "ĠEr": 4122,
      "Ġcalon": 4123,
      "Ġmelayani": 4124,
      "tapi": 4125,
      "ĠIbu": 4126,
      "uddin": 4127,
      "Ġped": 4128,
      "Ġpenampilan": 4129,
      "alisis": 4130,
      "jil": 4131,
      "Ġlewat": 4132,
      "kh": 4133,
      "Ġbala": 4134,
      "ĠSuk": 4135,
      "BB": 4136,
      "Ġdikirim": 4137,
      "mada": 4138,
      "Ġlar": 4139,
      "Ġmemegang": 4140,
      "ĠIV": 4141,
      "ariasi": 4142,
      "ietnam": 4143,
      "Ġarsit": 4144,
      "ĠBanyak": 4145,
      "gn": 4146,
      "Ġberpori": 4147,
      "bulkan": 4148,
      "bau": 4149,
      "ferensi": 4150,
      "ĠUr": 4151,
      "eliling": 4152,
      "berg": 4153,
      "Ġfisik": 4154,
      "ĠPon": 4155,
      "ĠCina": 4156,
      "Ġreaksi": 4157,
      "ĠRumah": 4158,
      "Ġram": 4159,
      "Ġputr": 4160,
      "hail": 4161,
      "ĠEnter": 4162,
      "ĠGar": 4163,
      "Ġlengkap": 4164,
      "Ġdikar": 4165,
      "ume": 4166,
      "Seb": 4167,
      "angkah": 4168,
      "Ġ60": 4169,
      "ĠWi": 4170,
      "Ġaplikasi": 4171,
      "Ġturnamen": 4172,
      "alem": 4173,
      "Ġharga": 4174,
      "Ġdr": 4175,
      "osh": 4176,
      "ĠDivisi": 4177,
      "Ġmo": 4178,
      "way": 4179,
      "ĠOs": 4180,
      "Ġcahaya": 4181,
      "urutan": 4182,
      "NA": 4183,
      "ej": 4184,
      "Astra": 4185,
      "ĠCir": 4186,
      "Ġwakil": 4187,
      "omun": 4188,
      "Ġketua": 4189,
      "ometer": 4190,
      "ĠYou": 4191,
      "ĠOleh": 4192,
      "Ġdipas": 4193,
      "Ġmemproduksi": 4194,
      "Ġinsting": 4195,
      "emi": 4196,
      "Ġweb": 4197,
      "kin": 4198,
      "ĠKitab": 4199,
      "ĠEur": 4200,
      "Ġkampung": 4201,
      "ĠPo": 4202,
      "fan": 4203,
      "lasik": 4204,
      "Ġposi": 4205,
      "galus": 4206,
      "okan": 4207,
      "Ġbertugas": 4208,
      "Astragalus": 4209,
      "Ġkesempatan": 4210,
      "Ġuniversitas": 4211,
      "Ġberfungsi": 4212,
      "itus": 4213,
      "Ġmembuatnya": 4214,
      "Ġmenengah": 4215,
      "Ġangkatan": 4216,
      "Keb": 4217,
      "Ġmelew": 4218,
      "Ġ1991": 4219,
      "ĠPerdana": 4220,
      "27": 4221,
      "Ġdokumen": 4222,
      "ĠAsil": 4223,
      "Ġterpisah": 4224,
      "unisi": 4225,
      "197": 4226,
      "Ġlogam": 4227,
      "ademi": 4228,
      "ĠCa": 4229,
      "own": 4230,
      "gawa": 4231,
      "ĠRi": 4232,
      "ĠFI": 4233,
      "operasikan": 4234,
      "Ġhilang": 4235,
      "Sek": 4236,
      "rig": 4237,
      "ĠMana": 4238,
      "ĠMag": 4239,
      "ilu": 4240,
      "ĠAsilidae": 4241,
      "Ġsutradara": 4242,
      "Ġperhatian": 4243,
      "omas": 4244,
      "imbol": 4245,
      "atikan": 4246,
      "ĠMel": 4247,
      "ĠBay": 4248,
      "ĠAz": 4249,
      "Ġpres": 4250,
      "Ġpintu": 4251,
      "Ġberhubungan": 4252,
      "Ġkompleks": 4253,
      "Ġpenjualan": 4254,
      "ĠUs": 4255,
      "ĠMor": 4256,
      "Ġjasa": 4257,
      "obatan": 4258,
      "din": 4259,
      "ĠJaya": 4260,
      "umpulkan": 4261,
      "Ġdilihat": 4262,
      "Ġpabrik": 4263,
      "Ġsederhana": 4264,
      "ĠMari": 4265,
      "unggu": 4266,
      "cayaan": 4267,
      "Ġbukti": 4268,
      "Ġlapangan": 4269,
      "Ġsuhu": 4270,
      "ĠBul": 4271,
      "Ġkursi": 4272,
      "ept": 4273,
      "val": 4274,
      "Ġno": 4275,
      "Ġch": 4276,
      "dopsi": 4277,
      "Ġternyata": 4278,
      "Ġdial": 4279,
      "Ġsipil": 4280,
      "lamatkan": 4281,
      "Ġ1993": 4282,
      "ĠVietnam": 4283,
      "Ġben": 4284,
      "Ġkil": 4285,
      "Ġlebar": 4286,
      "angsaan": 4287,
      "Ġmelam": 4288,
      "ace": 4289,
      "Ġberbahasa": 4290,
      "ole": 4291,
      "Ġpolisi": 4292,
      "ĠAkhir": 4293,
      "Ġmiliar": 4294,
      "fe": 4295,
      "Ġberla": 4296,
      "esh": 4297,
      "ĠIst": 4298,
      "indak": 4299,
      "so": 4300,
      "Ġbakar": 4301,
      "ille": 4302,
      "mark": 4303,
      "intaan": 4304,
      "esisir": 4305,
      "Film": 4306,
      "Ġrah": 4307,
      "ĠPadang": 4308,
      "Ġkela": 4309,
      "jian": 4310,
      "ebasan": 4311,
      "istrinya": 4312,
      "arawan": 4313,
      "anji": 4314,
      "ng": 4315,
      "Saat": 4316,
      "TI": 4317,
      "untungan": 4318,
      "car": 4319,
      "we": 4320,
      "ĠSat": 4321,
      "Ġsamping": 4322,
      "rancang": 4323,
      "Ġdihasilkan": 4324,
      "terian": 4325,
      "...": 4326,
      "Ġkecuali": 4327,
      "Ġmengurangi": 4328,
      "26": 4329,
      "Ġajaran": 4330,
      "ĠIlmu": 4331,
      "urang": 4332,
      "ĠStar": 4333,
      "ĠPerusahaan": 4334,
      "Ġditan": 4335,
      "ĠSemarang": 4336,
      "ĠPra": 4337,
      "tainment": 4338,
      "Ġsebutan": 4339,
      "Ġditempat": 4340,
      "Ġtop": 4341,
      "80": 4342,
      "Ġhar": 4343,
      "Ġdirancang": 4344,
      "Ġistrinya": 4345,
      "ĠTip": 4346,
      "ĠProf": 4347,
      "ush": 4348,
      "ĠBrasil": 4349,
      "Ġsayap": 4350,
      "ect": 4351,
      "Ġdibawa": 4352,
      "Ġmelibatkan": 4353,
      "poran": 4354,
      "baikan": 4355,
      "ĠBuk": 4356,
      "Ġdisebutkan": 4357,
      "TA": 4358,
      "ersial": 4359,
      "Ġtahap": 4360,
      "tilah": 4361,
      "Ġmassa": 4362,
      "ĠBadan": 4363,
      "Ġstudio": 4364,
      "ĠAf": 4365,
      "Ġberkeb": 4366,
      "stem": 4367,
      "artisipasi": 4368,
      "Ġç": 4369,
      "ove": 4370,
      "Ġpembentukan": 4371,
      "Ġpah": 4372,
      "ome": 4373,
      "Ġmm": 4374,
      "Ġpemenang": 4375,
      "endera": 4376,
      "kapai": 4377,
      "yanyi": 4378,
      "amil": 4379,
      "Ġtekanan": 4380,
      "onel": 4381,
      "Ġ\"(": 4382,
      "Ġ186": 4383,
      "Ġberhenti": 4384,
      "Ġarea": 4385,
      "Ġmelewati": 4386,
      "35": 4387,
      "IN": 4388,
      "Ġkalah": 4389,
      "ĠAri": 4390,
      "Ġdiluncurkan": 4391,
      ";,": 4392,
      "Ġmenda": 4393,
      "ĠDo": 4394,
      "ps": 4395,
      "ĠSuci": 4396,
      "oki": 4397,
      "Ġdiam": 4398,
      "ophyl": 4399,
      "hann": 4400,
      "ica": 4401,
      "ĠAcadem": 4402,
      "Ġbern": 4403,
      "ĠHukum": 4404,
      "Ġterbuat": 4405,
      "Ġpengan": 4406,
      "ĠMur": 4407,
      "redi": 4408,
      "Ġvan": 4409,
      "ĠBandar": 4410,
      "jurit": 4411,
      "emar": 4412,
      "Ġribu": 4413,
      "esta": 4414,
      "Ġrump": 4415,
      "Ġkeluarganya": 4416,
      "ĠSatu": 4417,
      "mon": 4418,
      "Ġdian": 4419,
      "Sen": 4420,
      "ael": 4421,
      "Ġsini": 4422,
      "Ġsup": 4423,
      "ĠDavid": 4424,
      "Ġmenurun": 4425,
      "jat": 4426,
      "ĠMac": 4427,
      "mur": 4428,
      "Ġmenguasai": 4429,
      "ĠOlimpiade": 4430,
      "ĠÎ": 4431,
      "ĠSwedia": 4432,
      "ĠMuseum": 4433,
      "Ġartinya": 4434,
      "Ġaksi": 4435,
      "asitas": 4436,
      "ĠTanah": 4437,
      "Ġlun": 4438,
      "Ġmusuh": 4439,
      "Bul": 4440,
      "itasi": 4441,
      "ornia": 4442,
      "Ġso": 4443,
      "Ġaktris": 4444,
      "Dengan": 4445,
      "bin": 4446,
      "Ġlayar": 4447,
      "Ġer": 4448,
      "yon": 4449,
      "ild": 4450,
      "yal": 4451,
      "Ġpositif": 4452,
      "Ġnuk": 4453,
      "ĠMasjid": 4454,
      "Ġdigital": 4455,
      "Ġpandangan": 4456,
      "ĠSir": 4457,
      "ekor": 4458,
      "fis": 4459,
      "Nama": 4460,
      "alifornia": 4461,
      "retaris": 4462,
      "bila": 4463,
      "olongan": 4464,
      "Ġmenyimp": 4465,
      "itt": 4466,
      "alib": 4467,
      "ĠTanjung": 4468,
      "enia": 4469,
      "Ġpeningkatan": 4470,
      "gar": 4471,
      "Ġmacam": 4472,
      "Ġgra": 4473,
      "Ġtersi": 4474,
      "Ġkontes": 4475,
      "ĠSuper": 4476,
      "Ġmeman": 4477,
      "Ġmenempati": 4478,
      "Da": 4479,
      "ĠSab": 4480,
      "ĠTang": 4481,
      "ĠGi": 4482,
      "ĠPersia": 4483,
      "esan": 4484,
      "ukis": 4485,
      "ĠDar": 4486,
      "Ġdaging": 4487,
      "ksanakan": 4488,
      "Sh": 4489,
      "Sejak": 4490,
      "ington": 4491,
      "ĠJa": 4492,
      "oci": 4493,
      "hailand": 4494,
      "juangan": 4495,
      "ĠUnited": 4496,
      "Ġsh": 4497,
      "ĠBagian": 4498,
      "ĠVen": 4499,
      "ĠDarat": 4500,
      "ĠApol": 4501,
      "mani": 4502,
      "urnal": 4503,
      "Ġmenjaga": 4504,
      "Ġdingin": 4505,
      "Ġmendorong": 4506,
      "Ġkariernya": 4507,
      "Ġajang": 4508,
      "Ġpertunjukan": 4509,
      "ĠChamp": 4510,
      "alian": 4511,
      "ĠBang": 4512,
      "ĠHindu": 4513,
      "portasi": 4514,
      "Ġpotensi": 4515,
      "Ġkelahiran": 4516,
      "Ġberka": 4517,
      "Ġsingle": 4518,
      "Ġkaisar": 4519,
      "ingatan": 4520,
      "ÙĦ": 4521,
      "ĠKris": 4522,
      "Ġskor": 4523,
      "yli": 4524,
      "45": 4525,
      "Ġkonflik": 4526,
      "Ġkanan": 4527,
      "Ġkiri": 4528,
      "Ġmenteri": 4529,
      "ĠRich": 4530,
      "ormasi": 4531,
      "Ġmenyebutkan": 4532,
      "yangan": 4533,
      "Ġsul": 4534,
      "angit": 4535,
      "inding": 4536,
      "Ġpemberontakan": 4537,
      "apak": 4538,
      "Ġatom": 4539,
      "Ġdikatakan": 4540,
      "Col": 4541,
      "Ġtertua": 4542,
      "ĠAcademy": 4543,
      "tra": 4544,
      "epend": 4545,
      "PS": 4546,
      "Ġmenaw": 4547,
      "empuh": 4548,
      "egan": 4549,
      "by": 4550,
      "37": 4551,
      "ĠFC": 4552,
      "cha": 4553,
      "nan": 4554,
      "Ġkeuangan": 4555,
      "oso": 4556,
      "ĠBas": 4557,
      "Ġkomersial": 4558,
      "ĠEntertainment": 4559,
      "Ġmengakibatkan": 4560,
      "Ġfitur": 4561,
      "ĠAdipati": 4562,
      "Ġmenim": 4563,
      "29": 4564,
      "ĠSchool": 4565,
      "Ġalih": 4566,
      "Ġdiperlukan": 4567,
      "Ġindividu": 4568,
      "ĠFed": 4569,
      "Ġmerebut": 4570,
      "ĠIrlandia": 4571,
      "Ġhijau": 4572,
      "ĠMusic": 4573,
      "Ġpenonton": 4574,
      "its": 4575,
      "Ġsenyawa": 4576,
      "akh": 4577,
      "mb": 4578,
      "Ġmenduduki": 4579,
      "len": 4580,
      "vensi": 4581,
      "Ġberkebangsaan": 4582,
      ";/": 4583,
      "Ġang": 4584,
      "Is": 4585,
      "Ġmembeli": 4586,
      "Ġdilengkapi": 4587,
      "ower": 4588,
      "atori": 4589,
      "Ġpertahanan": 4590,
      "Ġkeamanan": 4591,
      "ĠUk": 4592,
      "Ġkomedi": 4593,
      "ake": 4594,
      "skup": 4595,
      "inus": 4596,
      "ubang": 4597,
      "Ġpertumbuhan": 4598,
      "ĠPenga": 4599,
      "ĠSunda": 4600,
      "Ġder": 4601,
      "Ġmelarikan": 4602,
      "ĠDepartemen": 4603,
      "lack": 4604,
      ";.": 4605,
      "Ġsehari": 4606,
      "yarat": 4607,
      "ĠBupati": 4608,
      "Ġpemilik": 4609,
      "ĠPaul": 4610,
      "Ġdiubah": 4611,
      "Ġpanggung": 4612,
      "ĠTo": 4613,
      "gis": 4614,
      "Ġ1989": 4615,
      "ru": 4616,
      "Ġsetengah": 4617,
      "ile": 4618,
      "ĠPapua": 4619,
      "Ġapabila": 4620,
      "ĠCalifornia": 4621,
      "ĠIbrani": 4622,
      "lawanan": 4623,
      "etan": 4624,
      "ĠRas": 4625,
      "pon": 4626,
      "Ġ80": 4627,
      "ĠKim": 4628,
      "ĠTroya": 4629,
      "Ġrelatif": 4630,
      "Ġmembutuhkan": 4631,
      "Ġ\",": 4632,
      "juang": 4633,
      "ĠLib": 4634,
      "Ġhalaman": 4635,
      "ugh": 4636,
      "ophyllum": 4637,
      "ĠTetapi": 4638,
      "ze": 4639,
      "eserta": 4640,
      "ĠMeng": 4641,
      "ĠThailand": 4642,
      "Ġswasta": 4643,
      "que": 4644,
      "jikan": 4645,
      "hy": 4646,
      "Ġdiumumkan": 4647,
      "tai": 4648,
      "pur": 4649,
      "ĠChina": 4650,
      "Ġmemer": 4651,
      "egis": 4652,
      "ĠBan": 4653,
      "Ġlanjut": 4654,
      "anga": 4655,
      "ĠRobert": 4656,
      "Ġartis": 4657,
      "eus": 4658,
      "Ġbertanggung": 4659,
      "Ġmempelajari": 4660,
      "Ġdijual": 4661,
      "28": 4662,
      "ĠPasukan": 4663,
      "nu": 4664,
      "ref": 4665,
      "ajak": 4666,
      "PP": 4667,
      "wakan": 4668,
      "agus": 4669,
      "Ġkepercayaan": 4670,
      "Ġsebagaimana": 4671,
      "ormatan": 4672,
      "ĠAngg": 4673,
      "Ġpelabuhan": 4674,
      "po": 4675,
      "Ġsenior": 4676,
      "Ġmit": 4677,
      "Ġmenerbitkan": 4678,
      "Ġ35": 4679,
      "undur": 4680,
      "ĠGeorge": 4681,
      "sych": 4682,
      "bert": 4683,
      "ĠBomb": 4684,
      "Kota": 4685,
      "mus": 4686,
      "ĠVal": 4687,
      "Ġbersamaan": 4688,
      "wood": 4689,
      "ĠFer": 4690,
      "erintahan": 4691,
      "Ġfik": 4692,
      "Ġmelaksanakan": 4693,
      "ĠLou": 4694,
      "à¤": 4695,
      "saan": 4696,
      "ĠCharles": 4697,
      "akam": 4698,
      "ott": 4699,
      "ĠVer": 4700,
      "Ġsaham": 4701,
      "Ġpos": 4702,
      "ĠRec": 4703,
      "Ġhidupnya": 4704,
      "Ġtaman": 4705,
      "akaan": 4706,
      "Ġdokter": 4707,
      "Ġtipe": 4708,
      "yatakan": 4709,
      "Ġurutan": 4710,
      "Ġberukuran": 4711,
      "ĠMyc": 4712,
      "Ġperintah": 4713,
      "Ġseminggu": 4714,
      "lima": 4715,
      "ĠKementerian": 4716,
      "Ġmengatur": 4717,
      "ĠMul": 4718,
      "Ġmenjalankan": 4719,
      "BS": 4720,
      "ĠHongaria": 4721,
      "Ġtema": 4722,
      "ĠDusun": 4723,
      "Ġmengajar": 4724,
      "angeran": 4725,
      "hou": 4726,
      "dur": 4727,
      "ĠKesultanan": 4728,
      "Ġmenawarkan": 4729,
      "Ġberlaku": 4730,
      "etron": 4731,
      "ĠEp": 4732,
      "ĠPeter": 4733,
      "ĠTom": 4734,
      "Ġ,": 4735,
      "ukisan": 4736,
      "entasi": 4737,
      "Ġkebudayaan": 4738,
      "utif": 4739,
      "ĠRos": 4740,
      "ewi": 4741,
      "udut": 4742,
      "Care": 4743,
      "ĠLo": 4744,
      "anggota": 4745,
      "Ġserupa": 4746,
      "Ġjangka": 4747,
      "ashi": 4748,
      "Ġfoto": 4749,
      "abiskan": 4750,
      "oman": 4751,
      "Ġmemerintah": 4752,
      "ampai": 4753,
      "ĠMiss": 4754,
      "Ġsig": 4755,
      "ĠJalur": 4756,
      "ĠSeperti": 4757,
      "ĠOt": 4758,
      "ĠEs": 4759,
      "ĠKen": 4760,
      "ĠâĢĺ": 4761,
      "abatan": 4762,
      "47": 4763,
      "umsi": 4764,
      "Bulb": 4765,
      "ĠApollo": 4766,
      "Ketika": 4767,
      "yur": 4768,
      "ll": 4769,
      "Bulbophyllum": 4770,
      "Ġmaju": 4771,
      "rogen": 4772,
      "Carex": 4773,
      "bal": 4774,
      "Ġgadis": 4775,
      "ink": 4776,
      "lir": 4777,
      "ĠUskup": 4778,
      "Ġberkaitan": 4779,
      "Ġsepen": 4780,
      "utup": 4781,
      "olos": 4782,
      "ĠQu": 4783,
      "Ġlaporan": 4784,
      "alai": 4785,
      "Ġpemeran": 4786,
      "ĠGol": 4787,
      "ebon": 4788,
      "Sebagai": 4789,
      "Ġproduser": 4790,
      "Ġac": 4791,
      "yakini": 4792,
      "ĠWalaupun": 4793,
      "ĠTor": 4794,
      "Ġregi": 4795,
      "reg": 4796,
      "line": 4797,
      "ĠOb": 4798,
      "Ġburuk": 4799,
      "Ġkopi": 4800,
      "Ġkakak": 4801,
      "Ġsec": 4802,
      "Ġringan": 4803,
      "iti": 4804,
      "ustakaan": 4805,
      "Ġberbicara": 4806,
      "Ġsimbol": 4807,
      "ekul": 4808,
      "Ġtari": 4809,
      "Dia": 4810,
      "Ġpulang": 4811,
      "Ġsebab": 4812,
      "Tahun": 4813,
      "Ġpraktik": 4814,
      "kal": 4815,
      "ĠPel": 4816,
      "ĠRes": 4817,
      "Ġ70": 4818,
      "Ġdemi": 4819,
      "Ġtersebar": 4820,
      "oo": 4821,
      "Ġhadir": 4822,
      "ugerah": 4823,
      "Ġimp": 4824,
      "Ġsatelit": 4825,
      "Secara": 4826,
      "elur": 4827,
      "Ġsy": 4828,
      "Ġfaktor": 4829,
      "erjakan": 4830,
      "du": 4831,
      "ĠMod": 4832,
      "Ġakses": 4833,
      "sekarang": 4834,
      "Ġlunak": 4835,
      "ES": 4836,
      "Ġpilihan": 4837,
      "Ġdidukung": 4838,
      "Ġpakaian": 4839,
      "adar": 4840,
      "Ġmenghancurkan": 4841,
      "ĠTentara": 4842,
      "damaian": 4843,
      "Ġgelombang": 4844,
      "ford": 4845,
      "ĠMem": 4846,
      "Ġdima": 4847,
      "ĠDel": 4848,
      "dows": 4849,
      "apal": 4850,
      "ĠKl": 4851,
      "zin": 4852,
      "ĠLee": 4853,
      "Ġpegunungan": 4854,
      "ĠPutri": 4855,
      "empa": 4856,
      "Ġturut": 4857,
      "ontak": 4858,
      "itkan": 4859,
      "Ġsepuluh": 4860,
      "Ġtem": 4861,
      "her": 4862,
      "ĠSurat": 4863,
      "Ġ1988": 4864,
      "Ġkeberadaan": 4865,
      "Ġsaud": 4866,
      "Ġjarang": 4867,
      "lih": 4868,
      "juk": 4869,
      "Ġpesisir": 4870,
      "unisip": 4871,
      "Ġmenimbulkan": 4872,
      "Ġdusun": 4873,
      "Ġdinyatakan": 4874,
      "Ġdana": 4875,
      "yper": 4876,
      "ĠBos": 4877,
      "ĠMaka": 4878,
      "Ġmayoritas": 4879,
      "Ġperairan": 4880,
      "Ġmau": 4881,
      "Ġperwira": 4882,
      "Ġmakam": 4883,
      "atiannya": 4884,
      "ungkapkan": 4885,
      "Ġmengangkat": 4886,
      "enam": 4887,
      "Ġdigambarkan": 4888,
      "Ġnominasi": 4889,
      "ĠBol": 4890,
      "epon": 4891,
      "Ġditangkap": 4892,
      "antinya": 4893,
      "ĠDasar": 4894,
      "Ġras": 4895,
      "embap": 4896,
      "ucing": 4897,
      "Ġtempur": 4898,
      "alatan": 4899,
      "Ġpersi": 4900,
      "anjing": 4901,
      "Ġpelayanan": 4902,
      "ĠAmeri": 4903,
      "Dari": 4904,
      "elap": 4905,
      "Ġmencegah": 4906,
      "Ġmengakui": 4907,
      "udus": 4908,
      "Ġrel": 4909,
      "okrasi": 4910,
      "Ġmelindungi": 4911,
      "zh": 4912,
      "zz": 4913,
      "amah": 4914,
      "Ġantena": 4915,
      "70": 4916,
      "ER": 4917,
      "air": 4918,
      "asaran": 4919,
      "ebunan": 4920,
      "mis": 4921,
      "Ġkilometer": 4922,
      "Ġmenjalani": 4923,
      "ĠIran": 4924,
      "ago": 4925,
      "Ġmekan": 4926,
      "Ġpelaks": 4927,
      "Ġprajurit": 4928,
      "ĠStadion": 4929,
      "benar": 4930,
      "Ġdikeluarkan": 4931,
      "romosi": 4932,
      "ĠLama": 4933,
      "rian": 4934,
      "ĠSistem": 4935,
      "indungan": 4936,
      "encanakan": 4937,
      "ĠUndang": 4938,
      "be": 4939,
      "entral": 4940,
      "mati": 4941,
      "lad": 4942,
      "PA": 4943,
      "entingan": 4944,
      "Ġditunjuk": 4945,
      "Ġapakah": 4946,
      "jemahan": 4947,
      "Ġmenghubungkan": 4948,
      "Ġkualitas": 4949,
      "Ġlembap": 4950,
      "ĠDana": 4951,
      "etoph": 4952,
      "ayasan": 4953,
      "edak": 4954,
      "Ġganda": 4955,
      "Ġcampuran": 4956,
      "cal": 4957,
      "MI": 4958,
      "sinya": 4959,
      "amad": 4960,
      "ebat": 4961,
      "Ġé": 4962,
      "Ġduduk": 4963,
      "Ġkan": 4964,
      "Ġberpendapat": 4965,
      "leg": 4966,
      "PI": 4967,
      "ulunya": 4968,
      "Ġdimasuk": 4969,
      "van": 4970,
      "Ġalami": 4971,
      "ĠHenry": 4972,
      "guna": 4973,
      "ĠGroup": 4974,
      "Ġdibu": 4975,
      "vel": 4976,
      "Ġkampanye": 4977,
      "lagu": 4978,
      "Ġkeker": 4979,
      "Ġkebang": 4980,
      "Ġrangka": 4981,
      "Ġkaya": 4982,
      "otong": 4983,
      "linya": 4984,
      "ingkan": 4985,
      "Ġ1986": 4986,
      "ĠBog": 4987,
      "aji": 4988,
      "Psych": 4989,
      "antren": 4990,
      "arkas": 4991,
      "Ġmengunjungi": 4992,
      "uto": 4993,
      "ĠLan": 4994,
      "Ġtet": 4995,
      "ings": 4996,
      "Ġmundur": 4997,
      "atorium": 4998,
      "Ġrasi": 4999,
      "ĠYu": 5000,
      "Ġdinamakan": 5001,
      "ĠUE": 5002,
      "wati": 5003,
      "yaran": 5004,
      "tujui": 5005,
      "hanes": 5006,
      "unuhan": 5007,
      "ĠRah": 5008,
      "ĠUtama": 5009,
      "ĠSuku": 5010,
      "Ġsarana": 5011,
      "Kebanyakan": 5012,
      "Ġdulu": 5013,
      "Ġseluas": 5014,
      "ĠRp": 5015,
      "ĠChampi": 5016,
      "ĠAnt": 5017,
      "Ġpenya": 5018,
      "age": 5019,
      "raja": 5020,
      "fikan": 5021,
      "Ġklasik": 5022,
      "Ġrum": 5023,
      "Ġup": 5024,
      "elakaan": 5025,
      "Ġwafat": 5026,
      "Ġbangsawan": 5027,
      "Ġsam": 5028,
      "Ġinves": 5029,
      "ĠWe": 5030,
      "Ġkejadian": 5031,
      "Ġkomponen": 5032,
      "ance": 5033,
      "ematika": 5034,
      "Ġpenye": 5035,
      "andu": 5036,
      "ĠTeluk": 5037,
      "Ġmik": 5038,
      "rok": 5039,
      "Ġpesan": 5040,
      "Ã¨": 5041,
      "ĠInjil": 5042,
      "andai": 5043,
      "Ġmenjual": 5044,
      "Ġne": 5045,
      "ĠTu": 5046,
      "Ġdiperkenalkan": 5047,
      "Ġpil": 5048,
      "ĠCan": 5049,
      "65": 5050,
      "Ġsektor": 5051,
      "Ġ500": 5052,
      "Ġetnis": 5053,
      "Ġmenyanyi": 5054,
      "Ġdimainkan": 5055,
      "ĠDistrik": 5056,
      "ĠTokyo": 5057,
      "Ġdipercaya": 5058,
      "akaran": 5059,
      "pem": 5060,
      "akatan": 5061,
      "Ġlatar": 5062,
      "Ġberpartisipasi": 5063,
      "ĠGal": 5064,
      "asama": 5065,
      "ĠBombyli": 5066,
      "Ġdisa": 5067,
      "ĠSm": 5068,
      "etus": 5069,
      "arto": 5070,
      "Ġinilah": 5071,
      "tabil": 5072,
      "Ġ45": 5073,
      "Ġpelangg": 5074,
      "Ġdisiarkan": 5075,
      "evel": 5076,
      "amin": 5077,
      "ĠCi": 5078,
      "otria": 5079,
      "ĠSetiap": 5080,
      "Ġkami": 5081,
      "itz": 5082,
      "ĠAnak": 5083,
      "Ġsekitarnya": 5084,
      "ĠGor": 5085,
      "ĠFri": 5086,
      "ĠDu": 5087,
      "eksiko": 5088,
      "arapkan": 5089,
      "onj": 5090,
      "ĠAgama": 5091,
      "eria": 5092,
      "ulusan": 5093,
      "lude": 5094,
      "ĠKelurahan": 5095,
      "Ġglobal": 5096,
      "unisipalitas": 5097,
      "erintahkan": 5098,
      "antas": 5099,
      "III": 5100,
      "enian": 5101,
      "urah": 5102,
      "Ġbenteng": 5103,
      "ĠMichael": 5104,
      "Ġè": 5105,
      "Ġakadem": 5106,
      "ĠSosial": 5107,
      "Psychotria": 5108,
      "Mar": 5109,
      "dy": 5110,
      "ĠTar": 5111,
      "Ġkelima": 5112,
      "row": 5113,
      "Ġpelajaran": 5114,
      "90": 5115,
      "ĠBl": 5116,
      "Ġmemerintahkan": 5117,
      "cus": 5118,
      "endak": 5119,
      "romosikan": 5120,
      "hasil": 5121,
      "elih": 5122,
      "ario": 5123,
      "edali": 5124,
      "uas": 5125,
      "ĠAnda": 5126,
      "ĠMusim": 5127,
      "ĠSwiss": 5128,
      "bumi": 5129,
      "for": 5130,
      "Ġkesa": 5131,
      "buru": 5132,
      "Ġdiakui": 5133,
      "ito": 5134,
      "Ġunik": 5135,
      "Ba": 5136,
      "weg": 5137,
      "indari": 5138,
      "Ġdataran": 5139,
      "Ġperguruan": 5140,
      "Ġco": 5141,
      "ĠLap": 5142,
      "Ġmor": 5143,
      "Ġdidasarkan": 5144,
      "ĠDaya": 5145,
      "Ġ1985": 5146,
      "ĠGrand": 5147,
      "Ġadministratif": 5148,
      "Ġdel": 5149,
      "safat": 5150,
      "Ġbet": 5151,
      "ike": 5152,
      "oll": 5153,
      "ĠKas": 5154,
      "ĠFrank": 5155,
      "Ġkuning": 5156,
      "nifikan": 5157,
      "eluarga": 5158,
      "Ġkepemimpinan": 5159,
      "Bangsa": 5160,
      "spirasi": 5161,
      "Ġberagam": 5162,
      "Ġnektar": 5163,
      "untut": 5164,
      "ĠKab": 5165,
      "irik": 5166,
      "Ġpengalaman": 5167,
      "ĠTaiwan": 5168,
      "Ġlintas": 5169,
      "anjutan": 5170,
      "Mas": 5171,
      "ĠCirebon": 5172,
      "Ġmenghabiskan": 5173,
      "Ġrat": 5174,
      "ĠBant": 5175,
      "33": 5176,
      "tha": 5177,
      "Ġdimaksud": 5178,
      "Bahasa": 5179,
      "arno": 5180,
      "Ġtoko": 5181,
      "Ġditempatkan": 5182,
      "kl": 5183,
      "waktu": 5184,
      "Ġtepatnya": 5185,
      "ĠArt": 5186,
      "Ġpenyelenggara": 5187,
      "Ġsepenuhnya": 5188,
      "dirinya": 5189,
      "oran": 5190,
      "DI": 5191,
      "Ġmaskapai": 5192,
      "ĠMeksiko": 5193,
      "ĠVic": 5194,
      "Ġbesi": 5195,
      "Ġ1987": 5196,
      "Ġdira": 5197,
      "ĠHak": 5198,
      "ĠFo": 5199,
      "indung": 5200,
      "ĠNur": 5201,
      "Ġkalau": 5202,
      "Ġsudut": 5203,
      "kata": 5204,
      "Ġ90": 5205,
      "egaraan": 5206,
      "Ġvol": 5207,
      "Ġmenyelamatkan": 5208,
      "ĠAss": 5209,
      "ĠBh": 5210,
      "bai": 5211,
      "Ġterin": 5212,
      "Ġ1984": 5213,
      "dai": 5214,
      "Ġdimasukkan": 5215,
      "aminya": 5216,
      "Nya": 5217,
      "Ġtransportasi": 5218,
      "Bup": 5219,
      "unci": 5220,
      "jemahkan": 5221,
      "Ġ185": 5222,
      "Ġvokal": 5223,
      "hta": 5224,
      "Ġdarat": 5225,
      "uhur": 5226,
      "Selama": 5227,
      "include": 5228,
      "ulih": 5229,
      "Ġaku": 5230,
      "ĠKristus": 5231,
      "aliknya": 5232,
      "Ġbeserta": 5233,
      "Ġdalamnya": 5234,
      "ĠNg": 5235,
      "Ġsemen": 5236,
      "Ġsemuanya": 5237,
      "ĠTiga": 5238,
      "ogen": 5239,
      "Ġparlemen": 5240,
      "ĠUts": 5241,
      "Ġterjad": 5242,
      "Ġkarbon": 5243,
      "eck": 5244,
      "atar": 5245,
      "ependen": 5246,
      "adu": 5247,
      "osok": 5248,
      "angani": 5249,
      "evi": 5250,
      "Ka": 5251,
      "ekutif": 5252,
      "Ġir": 5253,
      "oi": 5254,
      "indahan": 5255,
      "ĠTerdapat": 5256,
      "ĠKomisi": 5257,
      "Ġsisa": 5258,
      "Ġkuda": 5259,
      "ĠAyah": 5260,
      "ĠMedan": 5261,
      "Ġpenyer": 5262,
      "ĠSup": 5263,
      "omi": 5264,
      "Ġpolen": 5265,
      "ĠHel": 5266,
      "Ġmengumpulkan": 5267,
      "Ġkepentingan": 5268,
      "Ġlarva": 5269,
      "ĠYayasan": 5270,
      "Ġ2020": 5271,
      "Ġmembu": 5272,
      "Ġpedagang": 5273,
      "Ġperalatan": 5274,
      "pl": 5275,
      "onf": 5276,
      "As": 5277,
      "Ġboleh": 5278,
      "olisi": 5279,
      "Ġsituasi": 5280,
      "Ġkesep": 5281,
      "inginan": 5282,
      "Ġperwakilan": 5283,
      "Ġkuliah": 5284,
      "ĠPasi": 5285,
      "Ġlapisan": 5286,
      "Ġdiciptakan": 5287,
      "Ġmuseum": 5288,
      "orit": 5289,
      "ĠBombyliidae": 5290,
      "Ġmengklaim": 5291,
      "ĠNational": 5292,
      "46": 5293,
      "ĠTeknik": 5294,
      "Ġinduk": 5295,
      "Ġtab": 5296,
      "Ġmencatat": 5297,
      "robi": 5298,
      "Ġcender": 5299,
      "Ġpasti": 5300,
      "Ak": 5301,
      "ĠJumlah": 5302,
      "Ġkeuntungan": 5303,
      "embar": 5304,
      "omotif": 5305,
      "ĠChampions": 5306,
      "ĠKelas": 5307,
      "Ġrute": 5308,
      "esmi": 5309,
      "ĠDemokrat": 5310,
      "ĠMalang": 5311,
      "ĠBahkan": 5312,
      "Ġsuci": 5313,
      "Ġterbit": 5314,
      "Ġmelainkan": 5315,
      "damp": 5316,
      "ĠAtas": 5317,
      "Ġmenikahi": 5318,
      "ĠBatu": 5319,
      "Ġbertelur": 5320,
      "lyinclude": 5321,
      "Ġdiperoleh": 5322,
      "Ġsingkat": 5323,
      "ĠSanto": 5324,
      "Ġmenceritakan": 5325,
      "ilaku": 5326,
      "jahatan": 5327,
      "ĠSemua": 5328,
      "caraba": 5329,
      "angkalan": 5330,
      "lasifikasi": 5331,
      "ĠAbu": 5332,
      "ĠBra": 5333,
      "Ġremaja": 5334,
      "Ġbiru": 5335,
      "ĠLet": 5336,
      "Ġmenentang": 5337,
      "ĠBerdasarkan": 5338,
      "Ġefektif": 5339,
      "gerakan": 5340,
      "Ġaman": 5341,
      "ĠRoy": 5342,
      "Ġaslinya": 5343,
      "Ġpembunuhan": 5344,
      "ĠBab": 5345,
      "Ġseksu": 5346,
      "Ġkaryanya": 5347,
      "entrasi": 5348,
      "vis": 5349,
      "ĠKeputusan": 5350,
      "ĠAkademi": 5351,
      "36": 5352,
      "Ġraya": 5353,
      "ĠHasil": 5354,
      "Ġfiksi": 5355,
      "Ġcok": 5356,
      "ĠÐ": 5357,
      "arai": 5358,
      "ocok": 5359,
      "ãģ": 5360,
      "Ġpermintaan": 5361,
      "ahami": 5362,
      "ĠNi": 5363,
      "ĠSil": 5364,
      "38": 5365,
      "Ġtiap": 5366,
      "ormal": 5367,
      "agama": 5368,
      "Ġmelahirkan": 5369,
      "Ġekor": 5370,
      "Ġsatunya": 5371,
      "Ġtepi": 5372,
      "Ġmenandatangani": 5373,
      "Ġlantai": 5374,
      "erusalem": 5375,
      "doks": 5376,
      "Ġpuisi": 5377,
      "Ġmanajemen": 5378,
      "Ġmengal": 5379,
      "ĠWest": 5380,
      "otlandia": 5381,
      "board": 5382,
      "Ġ1982": 5383,
      "Mic": 5384,
      "Ġartikel": 5385,
      "Ġkedalam": 5386,
      "ĠJon": 5387,
      "Ġmenetapkan": 5388,
      "ux": 5389,
      "port": 5390,
      "Ã¤": 5391,
      "Ġlukisan": 5392,
      "Ġlawan": 5393,
      "Ġmotor": 5394,
      "ĠOrganisasi": 5395,
      "lang": 5396,
      "Ġdilahirkan": 5397,
      "ĠCap": 5398,
      "Ġrock": 5399,
      "ĠKumbang": 5400,
      "Ġâ": 5401,
      "Ġsembilan": 5402,
      "gunaan": 5403,
      "ĠRaden": 5404,
      "Ġsignifikan": 5405,
      "endalikan": 5406,
      "ĠKali": 5407,
      "ĠNag": 5408,
      "Ġdipl": 5409,
      "Ġdivisi": 5410,
      "ĠAkan": 5411,
      "Ġlel": 5412,
      "tesis": 5413,
      "ĠArg": 5414,
      "ĠKarya": 5415,
      "irm": 5416,
      "esis": 5417,
      "Po": 5418,
      "Sem": 5419,
      "ĠWh": 5420,
      "Ġanaknya": 5421,
      "arget": 5422,
      "enaran": 5423,
      "Ġkecelakaan": 5424,
      "Ġcenderung": 5425,
      "Ġmena": 5426,
      "ĠAhmad": 5427,
      ".)": 5428,
      "aton": 5429,
      "ĠKaw": 5430,
      "Ġputranya": 5431,
      "ĠTri": 5432,
      "ĠSl": 5433,
      "ĠWindows": 5434,
      "ĠMajelis": 5435,
      "Ġputaran": 5436,
      "mpan": 5437,
      "ĠIstana": 5438,
      "Ġkuil": 5439,
      "ĠMu": 5440,
      "Ġangin": 5441,
      "abit": 5442,
      "Ġhukuman": 5443,
      "tidaknya": 5444,
      "Ġton": 5445,
      "ĠScaraba": 5446,
      "ĠLos": 5447,
      "arki": 5448,
      "akti": 5449,
      "Sebuah": 5450,
      "erikatan": 5451,
      "Ġtahunan": 5452,
      "ĠPic": 5453,
      "Ġdibunuh": 5454,
      "Ġpemuda": 5455,
      "Ġarsitektur": 5456,
      "ure": 5457,
      "stant": 5458,
      "ĠContoh": 5459,
      "omunikasi": 5460,
      "Para": 5461,
      "ĠThomas": 5462,
      "Coleoptera": 5463,
      "Ġpensi": 5464,
      "ancam": 5465,
      "ejar": 5466,
      "restidae": 5467,
      "Ġprinsip": 5468,
      "Ġdinamai": 5469,
      "Ġpam": 5470,
      "adai": 5471,
      "ĠEng": 5472,
      "Buprestidae": 5473,
      "ĠMycetoph": 5474,
      "Ġtuan": 5475,
      "ĠRadi": 5476,
      "nes": 5477,
      "Ġkematiannya": 5478,
      "Sebelum": 5479,
      "Ġx": 5480,
      "uad": 5481,
      "Ġdaratan": 5482,
      "Ġdinding": 5483,
      "ĠKhan": 5484,
      "Ġberpengaruh": 5485,
      "ehi": 5486,
      "RT": 5487,
      "ĠPemerintahan": 5488,
      "okok": 5489,
      "bukti": 5490,
      "Ġarti": 5491,
      "Ġtergantung": 5492,
      "Ġdibawah": 5493,
      "ider": 5494,
      "ĠSamud": 5495,
      "Ġterjadinya": 5496,
      "Ġmenekan": 5497,
      "Ġtata": 5498,
      "gasan": 5499,
      "ĠFlor": 5500,
      "ĠFIFA": 5501,
      "Ġpatung": 5502,
      "ĠPembangunan": 5503,
      "ĠAkhirnya": 5504,
      "Ġsambil": 5505,
      "obi": 5506,
      "umpul": 5507,
      "mewa": 5508,
      "walnya": 5509,
      "sin": 5510,
      "Ġpsik": 5511,
      "Ġmeri": 5512,
      "ope": 5513,
      "IS": 5514,
      "Ġth": 5515,
      "Ġpola": 5516,
      "Ġtamu": 5517,
      "angguan": 5518,
      "Ġmolekul": 5519,
      "Kumbang": 5520,
      "ert": 5521,
      "ĠGenus": 5522,
      "ĠMong": 5523,
      "ĠSkotlandia": 5524,
      "ĠDPRD": 5525,
      "St": 5526,
      "gaja": 5527,
      "Ġlamela": 5528,
      "BA": 5529,
      "ĠBill": 5530,
      "ĠLampung": 5531,
      "hiri": 5532,
      "urangan": 5533,
      "adapan": 5534,
      "Ġciri": 5535,
      "Dend": 5536,
      "enek": 5537,
      "Ġperaturan": 5538,
      "ebaskan": 5539,
      "Ġì": 5540,
      "ĠScarabaeidae": 5541,
      "Ġdipindahkan": 5542,
      "Ġtik": 5543,
      "ĠSong": 5544,
      "Ġditampilkan": 5545,
      "ĠSub": 5546,
      "ĠDon": 5547,
      "enangkan": 5548,
      "ãĥ": 5549,
      "esor": 5550,
      "Ġmenetap": 5551,
      "PT": 5552,
      "ecio": 5553,
      "ĠRam": 5554,
      "ise": 5555,
      "Ġjembatan": 5556,
      "Ġsiap": 5557,
      "Ġinti": 5558,
      "Ġtaw": 5559,
      "Ġseja": 5560,
      "Ġdiber": 5561,
      "epaskan": 5562,
      "bukaan": 5563,
      "Ġdisingkat": 5564,
      "Ġkapasitas": 5565,
      "Ġmengan": 5566,
      "ambi": 5567,
      "Ġsuaminya": 5568,
      "Ġbendera": 5569,
      "hluk": 5570,
      "ĠSol": 5571,
      "ĠMic": 5572,
      "ĠVI": 5573,
      "Ġtulang": 5574,
      "Ġjenderal": 5575,
      "Ġanimasi": 5576,
      "gawai": 5577,
      "ĠFre": 5578,
      "ternatif": 5579,
      "ĠCal": 5580,
      "toran": 5581,
      "Å«": 5582,
      "lav": 5583,
      "teran": 5584,
      "anggu": 5585,
      "ahas": 5586,
      "Ġ1983": 5587,
      "ted": 5588,
      "49": 5589,
      "Ġmenangkap": 5590,
      "ĠAlam": 5591,
      "Cyper": 5592,
      "Ġsuka": 5593,
      "ujian": 5594,
      "ĠRecord": 5595,
      "Ġ1979": 5596,
      "ĠSouth": 5597,
      "ĠAth": 5598,
      "awatan": 5599,
      "ormati": 5600,
      "angkit": 5601,
      "Ġperkebunan": 5602,
      "Ġpart": 5603,
      "Ġaturan": 5604,
      "KB": 5605,
      "Ġberkuasa": 5606,
      "inis": 5607,
      "Ġpernyataan": 5608,
      "Im": 5609,
      "ancangan": 5610,
      "usantara": 5611,
      "ĠMy": 5612,
      "Ġsatuan": 5613,
      "Ġdikarenakan": 5614,
      "tip": 5615,
      "gabungkan": 5616,
      "ebaran": 5617,
      "ĠGir": 5618,
      "ĠSeh": 5619,
      "ĠYe": 5620,
      "Ġnuklir": 5621,
      "Ġtemb": 5622,
      "Ġbank": 5623,
      "tro": 5624,
      "ĠGra": 5625,
      "ĠMenengah": 5626,
      "Ġsemacam": 5627,
      "iang": 5628,
      "usulkan": 5629,
      "embunyi": 5630,
      "Ġmembaca": 5631,
      "ĠPeny": 5632,
      "Ġpoin": 5633,
      "agamaan": 5634,
      "Ġbertujuan": 5635,
      "Ġmemperkenalkan": 5636,
      "Ġmengacu": 5637,
      "osen": 5638,
      "Ġpengikut": 5639,
      "asasti": 5640,
      "Ġperjuangan": 5641,
      "Asp": 5642,
      "Ġmenak": 5643,
      "Ġayat": 5644,
      "Ġmemuat": 5645,
      "&#": 5646,
      "Ġdiganti": 5647,
      "alifikasi": 5648,
      "Ġditentukan": 5649,
      "ĠKeuskupan": 5650,
      "ĠMedia": 5651,
      "unus": 5652,
      "CA": 5653,
      "Kep": 5654,
      "ĠBelgia": 5655,
      "ĠDenmark": 5656,
      "Ġdes": 5657,
      "Ġsil": 5658,
      "Ġmendek": 5659,
      "ĠFi": 5660,
      "Ġsuper": 5661,
      "SD": 5662,
      "ĠEkonomi": 5663,
      "Ġmengungkapkan": 5664,
      "Ġmunisipalitas": 5665,
      "estina": 5666,
      "Ġaspek": 5667,
      "ĠRichard": 5668,
      "MA": 5669,
      "mos": 5670,
      "Ġuskup": 5671,
      "Ġtelur": 5672,
      "Ġrekan": 5673,
      "Ġ1981": 5674,
      "Ġpasi": 5675,
      "Ġangkasa": 5676,
      "Ġ1978": 5677,
      "erian": 5678,
      "elilingi": 5679,
      "araf": 5680,
      "Ġarmada": 5681,
      "ĠPend": 5682,
      "Ġadministrasi": 5683,
      "esmikan": 5684,
      "Ġliga": 5685,
      "cel": 5686,
      "ĠEli": 5687,
      "ĠKantor": 5688,
      "ĠVan": 5689,
      "wit": 5690,
      "Ġmendi": 5691,
      "elek": 5692,
      "ĠYohanes": 5693,
      "Ġlepas": 5694,
      "Ġpendapatan": 5695,
      "Ġkucing": 5696,
      "Ġpenjara": 5697,
      "Ġpunya": 5698,
      "Ġpinggi": 5699,
      "Ġteater": 5700,
      "raina": 5701,
      "Ġmenghindari": 5702,
      "Senecio": 5703,
      "32": 5704,
      "ĠSemen": 5705,
      "embalikan": 5706,
      "ephri": 5707,
      "Ġimam": 5708,
      "Ġsejenis": 5709,
      "Ġmenyadari": 5710,
      "odal": 5711,
      "Ġdanau": 5712,
      "ĠYerusalem": 5713,
      "Ġtampaknya": 5714,
      "zah": 5715,
      "Ġdewan": 5716,
      "ĠØ": 5717,
      "ano": 5718,
      "angun": 5719,
      "Meskipun": 5720,
      "ade": 5721,
      "iden": 5722,
      "ancang": 5723,
      "ekade": 5724,
      "ĠPerserikatan": 5725,
      "Ġformula": 5726,
      "beda": 5727,
      "Ġbertindak": 5728,
      "Ġkekaisaran": 5729,
      "ĠUp": 5730,
      "robium": 5731,
      "ĠPortugis": 5732,
      "wajib": 5733,
      "Ġbayi": 5734,
      "Ġmengund": 5735,
      "Dendrobium": 5736,
      "Ġrumput": 5737,
      "Ġdirek": 5738,
      "67": 5739,
      "karya": 5740,
      "Ġjantung": 5741,
      "Ġdisk": 5742,
      "ephritidae": 5743,
      "oul": 5744,
      "Ġkertas": 5745,
      "Ġlangit": 5746,
      "ÅĤ": 5747,
      "tujuan": 5748,
      "ĠTephritidae": 5749,
      "Ġagak": 5750,
      "ĠBersama": 5751,
      "Ġur": 5752,
      "ĠIndo": 5753,
      "zo": 5754,
      "Ġelektronik": 5755,
      "log": 5756,
      "olf": 5757,
      "500": 5758,
      "Ġsir": 5759,
      "uck": 5760,
      "Ġpelatihan": 5761,
      "Ġmenyebar": 5762,
      "ĠHi": 5763,
      "jing": 5764,
      "Ġpengadilan": 5765,
      "Ġkejahatan": 5766,
      "Ġ1965": 5767,
      "ikh": 5768,
      "ekuensi": 5769,
      "alin": 5770,
      "Ġilmuwan": 5771,
      "entina": 5772,
      "OS": 5773,
      "Ġdinasti": 5774,
      "Ġbandara": 5775,
      "Ġmengalir": 5776,
      "une": 5777,
      "ĠSeni": 5778,
      "barkan": 5779,
      "ele": 5780,
      "ĠLalu": 5781,
      "ĠMerah": 5782,
      "Ġ1940": 5783,
      "turun": 5784,
      "Ġ1930": 5785,
      "Ġmakhluk": 5786,
      "Ġus": 5787,
      "ĠBah": 5788,
      "%.": 5789,
      "ĠKeh": 5790,
      "Ġpac": 5791,
      "ĠBor": 5792,
      "ĠJer": 5793,
      "ĠMasyarakat": 5794,
      "Ġbalik": 5795,
      "Ġlabel": 5796,
      "ĠBoy": 5797,
      "44": 5798,
      "ophagus": 5799,
      "ungkan": 5800,
      "oner": 5801,
      "ĠMoh": 5802,
      "ĠKongres": 5803,
      "baru": 5804,
      "Ġruangan": 5805,
      "Ġ1942": 5806,
      "Ġrok": 5807,
      "39": 5808,
      "68": 5809,
      "Ġstadion": 5810,
      "igur": 5811,
      "Ġtelepon": 5812,
      "ambu": 5813,
      "Ġmenempatkan": 5814,
      "Ġsim": 5815,
      "seperti": 5816,
      "Ġtakhta": 5817,
      "Ġperlindungan": 5818,
      "ĠHy": 5819,
      "ĠAnggota": 5820,
      "hak": 5821,
      "ĠPakistan": 5822,
      "Ġdampak": 5823,
      "La": 5824,
      "jarkan": 5825,
      "Ġmedali": 5826,
      "arnya": 5827,
      "Ġsensus": 5828,
      "Ġindependen": 5829,
      "Ġungg": 5830,
      "thophagus": 5831,
      "Ġdll": 5832,
      "Ġanjing": 5833,
      "Ġkering": 5834,
      "Ġsarjana": 5835,
      "Ġ180": 5836,
      "ĠBogor": 5837,
      "sara": 5838,
      "Ġdiduga": 5839,
      "idaceae": 5840,
      "Undang": 5841,
      "75": 5842,
      "Ġseniman": 5843,
      "Ġmengakhiri": 5844,
      "dominasi": 5845,
      "ĠIrak": 5846,
      "wisata": 5847,
      "etakan": 5848,
      "hadi": 5849,
      "tansi": 5850,
      "Ġver": 5851,
      "Ġberganti": 5852,
      "Ġletak": 5853,
      "Beg": 5854,
      "Ġsegi": 5855,
      "Ġketidak": 5856,
      "Ġmenambahkan": 5857,
      "Ġmelaporkan": 5858,
      "assar": 5859,
      "Ġil": 5860,
      "Ġsuk": 5861,
      "ĠRevolusi": 5862,
      "ĠBlack": 5863,
      "ritik": 5864,
      "31": 5865,
      "Ġprotein": 5866,
      "ĠManch": 5867,
      "ĠPantai": 5868,
      "Ġpenerbit": 5869,
      "Ġbalapan": 5870,
      "Ġlolos": 5871,
      "On": 5872,
      "sor": 5873,
      "Ġsetahun": 5874,
      "ĠIndustri": 5875,
      "ĠGrup": 5876,
      "Ġdekade": 5877,
      "buktikan": 5878,
      "onda": 5879,
      "ĠUtsmani": 5880,
      "Ġseksual": 5881,
      "Mer": 5882,
      "odo": 5883,
      "ĠSelanjutnya": 5884,
      "gales": 5885,
      "Ġperilaku": 5886,
      "Ġ00": 5887,
      "Aspara": 5888,
      "arung": 5889,
      "ĠCarl": 5890,
      "Ġ1975": 5891,
      "Ġmengaw": 5892,
      "Ġrangkaian": 5893,
      "Ġha": 5894,
      "ĠParlemen": 5895,
      "ĠFin": 5896,
      "chus": 5897,
      "ĠAmor": 5898,
      "Ġdidapat": 5899,
      "Ġ300": 5900,
      "Ġkeagamaan": 5901,
      "awal": 5902,
      "Ġsinetron": 5903,
      "Ġdu": 5904,
      "tag": 5905,
      "Asparagales": 5906,
      ")\"": 5907,
      "roversi": 5908,
      "Ġmeluncurkan": 5909,
      "Karena": 5910,
      "Ġvirus": 5911,
      "Ġpajak": 5912,
      "Ġperingatan": 5913,
      "Ġprom": 5914,
      "ĠKek": 5915,
      "Ġgelap": 5916,
      "Ġmendengar": 5917,
      "ĠPop": 5918,
      "put": 5919,
      "lakukan": 5920,
      "Ġdist": 5921,
      "Ġmaksi": 5922,
      "ĠInstitut": 5923,
      "cher": 5924,
      "Ġberlokasi": 5925,
      "Ġsejarawan": 5926,
      "Te": 5927,
      "Ġmu": 5928,
      "ĠKuno": 5929,
      "ett": 5930,
      "olabor": 5931,
      "ial": 5932,
      "oe": 5933,
      "peng": 5934,
      "Ġmemanfaatkan": 5935,
      "ĠNabi": 5936,
      "85": 5937,
      "Ma": 5938,
      "Ġrilis": 5939,
      "ulidae": 5940,
      "entitas": 5941,
      "uke": 5942,
      "Ġpembalap": 5943,
      "olia": 5944,
      "pert": 5945,
      "ĠPasifik": 5946,
      "Ġlangkah": 5947,
      "ĠAngeles": 5948,
      "Ġitulah": 5949,
      "ektif": 5950,
      "ĠOperasi": 5951,
      "ars": 5952,
      "ĠBuku": 5953,
      "Ġalternatif": 5954,
      "ukiman": 5955,
      "Ġkritikus": 5956,
      "Ġmenderita": 5957,
      "Ġmini": 5958,
      "Ġapapun": 5959,
      "Ġkoleksi": 5960,
      "ĠUkraina": 5961,
      "Ġmenyerahkan": 5962,
      "ĠNusa": 5963,
      "ĠGedung": 5964,
      "Ġlanda": 5965,
      "ack": 5966,
      "ĠPalestina": 5967,
      "ahat": 5968,
      "ede": 5969,
      "idur": 5970,
      "Ġ1967": 5971,
      "Ġdipengaruhi": 5972,
      "wegia": 5973,
      "Ġikatan": 5974,
      "ĠMartin": 5975,
      "ganegaraan": 5976,
      "hani": 5977,
      "ĠSebelumnya": 5978,
      "ĠSoc": 5979,
      "ĠTeknologi": 5980,
      "Ġ1976": 5981,
      "Ġumur": 5982,
      "Ġ32": 5983,
      "Pert": 5984,
      "elamatan": 5985,
      "ĠPersi": 5986,
      "todoks": 5987,
      "Ġstabil": 5988,
      "sten": 5989,
      "Ġlulusan": 5990,
      "agar": 5991,
      "ĠVol": 5992,
      "ĠTapi": 5993,
      "Ġkolonial": 5994,
      "ropis": 5995,
      "Ġselamat": 5996,
      "Ġ1974": 5997,
      "inia": 5998,
      "Ã¡n": 5999,
      "Ġdikalahkan": 6000,
      "umbu": 6001,
      "Ġditambah": 6002,
      "elajah": 6003,
      "ĠTipulidae": 6004,
      "ĠPBB": 6005,
      "dokteran": 6006,
      "ring": 6007,
      "seph": 6008,
      "Begonia": 6009,
      "Ġsiapa": 6010,
      "Ġmengarah": 6011,
      "Ġpengganti": 6012,
      "Ġkerj": 6013,
      "Ġpari": 6014,
      "ĠDay": 6015,
      "anth": 6016,
      "atri": 6017,
      "ĠLembaga": 6018,
      "Ġastr": 6019,
      "Ġzat": 6020,
      "unty": 6021,
      "omy": 6022,
      "OC": 6023,
      "Ġpersegi": 6024,
      "eskrip": 6025,
      "ĠBanten": 6026,
      "emia": 6027,
      "intasi": 6028,
      "Ġskala": 6029,
      "Ġketu": 6030,
      "lege": 6031,
      "iarkan": 6032,
      "Ġundang": 6033,
      "andra": 6034,
      "Ġpenggemar": 6035,
      "ĠChrist": 6036,
      "ĠVictor": 6037,
      "Ġterbanyak": 6038,
      "usir": 6039,
      "55": 6040,
      "ĠUEFA": 6041,
      "testan": 6042,
      "Ġnasi": 6043,
      "Ġberlanjut": 6044,
      "ĠBerlin": 6045,
      "ĠDirektur": 6046,
      "34": 6047,
      "kom": 6048,
      "pres": 6049,
      "atik": 6050,
      "inggalan": 6051,
      "ght": 6052,
      "Ġgangguan": 6053,
      "Ġmatematika": 6054,
      "Tim": 6055,
      "Ġfilsafat": 6056,
      "ĠTop": 6057,
      "Ġ1973": 6058,
      "ĠKudus": 6059,
      "andal": 6060,
      "ĠWali": 6061,
      "entuan": 6062,
      "Ġgagasan": 6063,
      "/&": 6064,
      "ĠBulan": 6065,
      "Ġnyata": 6066,
      "ĠInter": 6067,
      "ason": 6068,
      "Ġ#": 6069,
      "Ġsapi": 6070,
      "Ġiklan": 6071,
      "Ġdilaporkan": 6072,
      "eptunus": 6073,
      "Ac": 6074,
      "Ġgolongan": 6075,
      "num": 6076,
      "Ġ1969": 6077,
      "Ġrevolusi": 6078,
      "ĠMatahari": 6079,
      "tugas": 6080,
      "Ġsikap": 6081,
      "adilan": 6082,
      "Ġgubernur": 6083,
      "Ġtayang": 6084,
      "Ġmengundurkan": 6085,
      "ĠAnton": 6086,
      "ropol": 6087,
      "Ġpeneliti": 6088,
      "Si": 6089,
      "ĠKir": 6090,
      "ãĤ": 6091,
      "Ġkri": 6092,
      "lic": 6093,
      "Sal": 6094,
      "asakan": 6095,
      "Ġmenyelenggarakan": 6096,
      "Ġidentitas": 6097,
      "ilidae": 6098,
      "ĠRob": 6099,
      "Ġpengusaha": 6100,
      "ĠPad": 6101,
      "Ġrahasia": 6102,
      "yphi": 6103,
      "Ġbukanlah": 6104,
      "ĠIS": 6105,
      "ĠDom": 6106,
      "Ġ1968": 6107,
      "Th": 6108,
      "ĠKampung": 6109,
      "entar": 6110,
      "bulan": 6111,
      "ĠKeamanan": 6112,
      "iko": 6113,
      "Ġhip": 6114,
      "ĠHab": 6115,
      "66": 6116,
      "alo": 6117,
      "Ġpelatih": 6118,
      "ĠPaulus": 6119,
      "enom": 6120,
      "ĠPutra": 6121,
      "Ġdidi": 6122,
      "dahulu": 6123,
      "Ġsection": 6124,
      "Ġmenara": 6125,
      "ĠSoek": 6126,
      "yphiidae": 6127,
      "ĠAkibat": 6128,
      "ĠLinyphiidae": 6129,
      "Ġpolitikus": 6130,
      "ĠMycetophilidae": 6131,
      "Ġkepadanya": 6132,
      "ĠTuj": 6133,
      "ĠMaluku": 6134,
      "cang": 6135,
      "wijaya": 6136,
      "Ġberpindah": 6137,
      "Ġperayaan": 6138,
      "Ġkomune": 6139,
      "Ġhiburan": 6140,
      "Ġisi": 6141,
      "Ġminim": 6142,
      "nah": 6143,
      "ĠPS": 6144,
      "ĠRiau": 6145,
      "ĠFir": 6146,
      "els": 6147,
      "Ġarus": 6148,
      "ĠTs": 6149,
      "Ġinternet": 6150,
      "ukkan": 6151,
      "Î±": 6152,
      "Ġ1948": 6153,
      "ografis": 6154,
      "Ġ1963": 6155,
      "wo": 6156,
      "ĠâĢĿ.": 6157,
      "gaskan": 6158,
      "ON": 6159,
      "ĠDewa": 6160,
      "lywood": 6161,
      "Ġpagi": 6162,
      "ĠDanau": 6163,
      "icu": 6164,
      "ĠLuar": 6165,
      "Ġsetidaknya": 6166,
      "Ġhabit": 6167,
      "aksasa": 6168,
      "Ġkampus": 6169,
      "Ġrekor": 6170,
      "Ġhotel": 6171,
      "Ġsebaga": 6172,
      "Ùİ": 6173,
      "Ġkekerasan": 6174,
      "now": 6175,
      "isk": 6176,
      "ĠWa": 6177,
      "ĠIstilah": 6178,
      "ĠKomite": 6179,
      "masa": 6180,
      "ĠKarang": 6181,
      "Ġserangkaian": 6182,
      "akaman": 6183,
      "Ġgigi": 6184,
      "ekatan": 6185,
      "ii": 6186,
      "ere": 6187,
      "Ġment": 6188,
      "refektur": 6189,
      "Ġtidur": 6190,
      "ĠRock": 6191,
      "ĠLaw": 6192,
      "ĠPerk": 6193,
      "cam": 6194,
      "ankan": 6195,
      "ĠBag": 6196,
      "Kon": 6197,
      "ovasi": 6198,
      "Ġmeriam": 6199,
      "Ġfokus": 6200,
      "rick": 6201,
      "uhkan": 6202,
      "Eric": 6203,
      "ois": 6204,
      "Ġ1977": 6205,
      "ĠNazi": 6206,
      "ĠSuriah": 6207,
      "gagal": 6208,
      "Ġmedan": 6209,
      "ĠCompany": 6210,
      "Ang": 6211,
      "Ġmengirimkan": 6212,
      "cht": 6213,
      "Ġ1972": 6214,
      "ĠEv": 6215,
      "Ġkartu": 6216,
      "VD": 6217,
      "Ð°": 6218,
      "Ġmengajukan": 6219,
      "nas": 6220,
      "aktif": 6221,
      "ĠNorwegia": 6222,
      "baiki": 6223,
      "anggar": 6224,
      "ĠJl": 6225,
      "ĠTimor": 6226,
      "erm": 6227,
      "mais": 6228,
      "Ġmusisi": 6229,
      "caman": 6230,
      "Uni": 6231,
      "ĠCollege": 6232,
      "Ġjurusan": 6233,
      "als": 6234,
      "kon": 6235,
      "Ġ1949": 6236,
      "Ġkaca": 6237,
      "Ġä": 6238,
      "Ġpeman": 6239,
      "ĠPes": 6240,
      "ĠRus": 6241,
      "Ġvolume": 6242,
      "elaki": 6243,
      "Ġ1971": 6244,
      "Ġditutup": 6245,
      "ĠPin": 6246,
      "Ġanalisis": 6247,
      "Ġiklim": 6248,
      "Ġsengaja": 6249,
      "apus": 6250,
      "Ġpembuat": 6251,
      "Ġmeski": 6252,
      "Ġà": 6253,
      "Ġfisika": 6254,
      "Ġdiharapkan": 6255,
      "Ġpensiun": 6256,
      "Ġsetuju": 6257,
      "Ġwajah": 6258,
      "AL": 6259,
      "omatis": 6260,
      "emuka": 6261,
      "Ġpemilu": 6262,
      "ashington": 6263,
      "ĠSekretaris": 6264,
      "Ġulama": 6265,
      "Ġdialek": 6266,
      "ĠProtestan": 6267,
      "Ġformat": 6268,
      "alisasi": 6269,
      "Ġmengor": 6270,
      "Ġanda": 6271,
      "Le": 6272,
      "42": 6273,
      "entangan": 6274,
      "aras": 6275,
      "ĠCenter": 6276,
      "Ġmenghentikan": 6277,
      "wangi": 6278,
      "ullah": 6279,
      "Ġsiaran": 6280,
      "fera": 6281,
      "Ġperak": 6282,
      "ikul": 6283,
      "onjol": 6284,
      "Ġ1946": 6285,
      "Ġkamar": 6286,
      "ĠKamp": 6287,
      "ĠLouis": 6288,
      "Ġteb": 6289,
      "oft": 6290,
      "angkut": 6291,
      "ĠMax": 6292,
      "Ġtersisa": 6293,
      "ates": 6294,
      "Ġbelah": 6295,
      "Gen": 6296,
      "asihat": 6297,
      "AD": 6298,
      "ĠKejuaraan": 6299,
      "Ġ1966": 6300,
      "ĠMasa": 6301,
      "ulitan": 6302,
      "Kec": 6303,
      "Ġpadi": 6304,
      "edral": 6305,
      "atukan": 6306,
      "Ġ1962": 6307,
      "inci": 6308,
      "Ġdiatur": 6309,
      "ĠRed": 6310,
      "ĠSej": 6311,
      "Ġlambang": 6312,
      "edy": 6313,
      "abad": 6314,
      "ĠKata": 6315,
      "41": 6316,
      "ĠSah": 6317,
      "gra": 6318,
      "juh": 6319,
      "akta": 6320,
      "ĠCamp": 6321,
      "Ġmenambah": 6322,
      "Ġkontroversi": 6323,
      "Ġhadiah": 6324,
      "Ġmikro": 6325,
      "Ph": 6326,
      "wancara": 6327,
      "abeth": 6328,
      "efinisikan": 6329,
      "99": 6330,
      "jahan": 6331,
      "Ġcuc": 6332,
      "ĠWah": 6333,
      "erbia": 6334,
      "Ġkekalahan": 6335,
      "ĠPasar": 6336,
      "ĠNusantara": 6337,
      "Ġterpaksa": 6338,
      "daftar": 6339,
      "ĠBon": 6340,
      "bungan": 6341,
      "ĠBak": 6342,
      "Ġprop": 6343,
      "ĠAdam": 6344,
      "jaan": 6345,
      "Ġbakteri": 6346,
      "Ġpasal": 6347,
      "ĠKelompok": 6348,
      "Ġ1964": 6349,
      "vo": 6350,
      "Ġdibutuhkan": 6351,
      "ĠMiliter": 6352,
      "Ġlayak": 6353,
      "ĠMont": 6354,
      "hu": 6355,
      "kapal": 6356,
      "Ġbukit": 6357,
      "ejala": 6358,
      "Ġkomandan": 6359,
      "Ġalk": 6360,
      "akamkan": 6361,
      "ĠDani": 6362,
      "ticidae": 6363,
      "ĠMakassar": 6364,
      "ĠEdward": 6365,
      "Ġnegatif": 6366,
      "ĠSalticidae": 6367,
      "ĠLove": 6368,
      "ĠHotel": 6369,
      "Ġfot": 6370,
      "Ġhalnya": 6371,
      "Ġlomba": 6372,
      "Ġizin": 6373,
      "kah": 6374,
      "Ġkendali": 6375,
      "ĠDewi": 6376,
      "Ġbulu": 6377,
      "ĠNob": 6378,
      "Ġgempa": 6379,
      "ĠKesehatan": 6380,
      "ikal": 6381,
      "Ġpromosi": 6382,
      "ĠNet": 6383,
      "ĠKy": 6384,
      "juga": 6385,
      "Ġterkena": 6386,
      "ĠNap": 6387,
      "Ġmembayar": 6388,
      "Ġpew": 6389,
      "sion": 6390,
      "Ġroda": 6391,
      "Ġbeliau": 6392,
      "Ġmengisi": 6393,
      "Ġdisimpan": 6394,
      "Ġbergantung": 6395,
      "Ġindah": 6396,
      "kira": 6397,
      "Ġwali": 6398,
      "PK": 6399,
      "bol": 6400,
      "Ġpelajar": 6401,
      "ĠMataram": 6402,
      "ult": 6403,
      "Ġdipanggil": 6404,
      "pedisi": 6405,
      "Ġbertambah": 6406,
      "Ġminuman": 6407,
      "Ġgugur": 6408,
      "inga": 6409,
      "Ġpembawa": 6410,
      "Ġsahabat": 6411,
      "ges": 6412,
      "ĠRaj": 6413,
      "FC": 6414,
      "ecil": 6415,
      "ĠUN": 6416,
      "anker": 6417,
      "Ġditandai": 6418,
      "Ġayam": 6419,
      "esarkan": 6420,
      "Ġsemangat": 6421,
      "Namun": 6422,
      "Ġditujukan": 6423,
      "ĠSekutu": 6424,
      "wanya": 6425,
      "att": 6426,
      "Ġdioperasikan": 6427,
      "erajat": 6428,
      "Ġpembukaan": 6429,
      "ĠPhilip": 6430,
      "tures": 6431,
      "ĠLab": 6432,
      "chen": 6433,
      "Ġmembintangi": 6434,
      "je": 6435,
      "madi": 6436,
      "rey": 6437,
      "Ġrefer": 6438,
      "rin": 6439,
      "etri": 6440,
      "ico": 6441,
      "Ġterkemuka": 6442,
      "Ġterjun": 6443,
      "ĠPortugal": 6444,
      "Ġterbaru": 6445,
      "Ap": 6446,
      "rit": 6447,
      "Ġ150": 6448,
      "ook": 6449,
      "ĠBintang": 6450,
      "Ġbom": 6451,
      "Ġmemerlukan": 6452,
      "ĠAnti": 6453,
      "imat": 6454,
      "ĠSya": 6455,
      "Ġberv": 6456,
      "Ġkontrol": 6457,
      "elasan": 6458,
      "Ġdija": 6459,
      "ambaran": 6460,
      "ebihan": 6461,
      "Ġmemperkuat": 6462,
      "Ġmenuntut": 6463,
      "Ġsebagainya": 6464,
      "Ġelemen": 6465,
      "hip": 6466,
      "Ġpenger": 6467,
      "lia": 6468,
      "iset": 6469,
      "ustru": 6470,
      "ague": 6471,
      "if": 6472,
      "De": 6473,
      "Ġdiresmikan": 6474,
      "itungan": 6475,
      "ĠMuda": 6476,
      "perangan": 6477,
      "ĠSerbia": 6478,
      "kaw": 6479,
      "Ġtahta": 6480,
      "Ġdilanjutkan": 6481,
      "ilitas": 6482,
      "Sp": 6483,
      "etu": 6484,
      "Ġreli": 6485,
      "Ġstrategis": 6486,
      "Ġamat": 6487,
      "ĠPurw": 6488,
      "rica": 6489,
      "ĠChe": 6490,
      "ĠWashington": 6491,
      "ĠComm": 6492,
      "Ġrambut": 6493,
      "ĠKonstant": 6494,
      "ĠTour": 6495,
      "ĠKing": 6496,
      "ĠHas": 6497,
      "ĠVi": 6498,
      "Ġdisusun": 6499,
      "Ġbersen": 6500,
      "Ġnenek": 6501,
      "Ġaksara": 6502,
      "ridge": 6503,
      "ĠArgentina": 6504,
      "ĠKebudayaan": 6505,
      "Ġmakna": 6506,
      "Ġtertarik": 6507,
      "top": 6508,
      "ĠMeski": 6509,
      "Ġdimakamkan": 6510,
      "ilir": 6511,
      "faat": 6512,
      "Ġrusak": 6513,
      "Ġancaman": 6514,
      "Ġditambahkan": 6515,
      "ĠHall": 6516,
      "Ġcocok": 6517,
      "Ġion": 6518,
      "ugerahi": 6519,
      "Ġkeuskupan": 6520,
      "Ġpegawai": 6521,
      "irkan": 6522,
      "Aster": 6523,
      "ĠOrtodoks": 6524,
      "Ġdipert": 6525,
      "Ġ1920": 6526,
      "Ġsyarat": 6527,
      "romy": 6528,
      "ĠSumber": 6529,
      "app": 6530,
      "Ġmenyerah": 6531,
      "gung": 6532,
      "etakkan": 6533,
      "Ġsubs": 6534,
      "yana": 6535,
      "Ùħ": 6536,
      "duc": 6537,
      "ĠRT": 6538,
      "bis": 6539,
      "Ġluka": 6540,
      "Ġ1947": 6541,
      "Ġkelapa": 6542,
      "Ġpengunjung": 6543,
      "Ġgame": 6544,
      "ĠSet": 6545,
      "Ġwas": 6546,
      "Ġlelaki": 6547,
      "oka": 6548,
      "Ġend": 6549,
      "Ġbinatang": 6550,
      "ĠOp": 6551,
      "rys": 6552,
      "udak": 6553,
      "Ġwilayahnya": 6554,
      "ĠImam": 6555,
      "emuda": 6556,
      "ĠGerakan": 6557,
      "Ġpul": 6558,
      "Ġmenyimpan": 6559,
      "Ġ1961": 6560,
      "dium": 6561,
      "Ġsaudaranya": 6562,
      "Ġtun": 6563,
      "Ġseekor": 6564,
      "antau": 6565,
      "Ġlirik": 6566,
      "erankan": 6567,
      "Ġharapan": 6568,
      "Ġvari": 6569,
      "Ġpadat": 6570,
      "64": 6571,
      "ahap": 6572,
      "ogo": 6573,
      "wara": 6574,
      "maisuri": 6575,
      "95": 6576,
      "besar": 6577,
      "Ġmula": 6578,
      "Ġfestival": 6579,
      "upu": 6580,
      "Ġpenyelenggaraan": 6581,
      "Ġdiyakini": 6582,
      "Ġmengenal": 6583,
      "Ġdirektur": 6584,
      "lukkan": 6585,
      "Ġpemikiran": 6586,
      "ĠJin": 6587,
      "Ġdiadopsi": 6588,
      "ĠMasehi": 6589,
      "Ġberdirinya": 6590,
      "ĠGun": 6591,
      "ĠUtsmaniyah": 6592,
      "CO": 6593,
      "Ġkebi": 6594,
      "angku": 6595,
      "odifikasi": 6596,
      "diam": 6597,
      "ĠBus": 6598,
      "Ġgabungan": 6599,
      "Ġpenyebab": 6600,
      "ĠSK": 6601,
      "Ġlembab": 6602,
      "Ġpelaksanaan": 6603,
      "Ġburuh": 6604,
      "Ġpengak": 6605,
      "Ġmi": 6606,
      "Ġalum": 6607,
      "embakan": 6608,
      "menia": 6609,
      "eluk": 6610,
      "Ġkunci": 6611,
      "onc": 6612,
      "Ġmeneg": 6613,
      "Berdasarkan": 6614,
      "Ġmengenakan": 6615,
      "wu": 6616,
      "ĠMr": 6617,
      "ĠCorpor": 6618,
      "Ġkese": 6619,
      "Man": 6620,
      "Ġberas": 6621,
      "ĠAcara": 6622,
      "Ġkesulitan": 6623,
      "Ġberjarak": 6624,
      "Ġnormal": 6625,
      "):": 6626,
      "sili": 6627,
      "Ġmemaksa": 6628,
      "ĠHu": 6629,
      "ilangkan": 6630,
      "Ġkedudukan": 6631,
      "Ġtank": 6632,
      "untuk": 6633,
      "olisian": 6634,
      "Ġkre": 6635,
      "Ġberangkat": 6636,
      "Ġjustru": 6637,
      "Ġadegan": 6638,
      "Ġharian": 6639,
      "ĠST": 6640,
      "ĠNas": 6641,
      "Ġmenyamp": 6642,
      "ÙĬ": 6643,
      "ĠForm": 6644,
      "Ġbervariasi": 6645,
      "Ġterbukti": 6646,
      "ĠGuru": 6647,
      "dat": 6648,
      "Ġlubang": 6649,
      "ĠDisney": 6650,
      "deb": 6651,
      "ĠBri": 6652,
      "adaptasi": 6653,
      "erto": 6654,
      "ahir": 6655,
      "jalan": 6656,
      "ĠCek": 6657,
      "Ġpengelola": 6658,
      "zer": 6659,
      "ĠLuk": 6660,
      "ĠBata": 6661,
      "gantian": 6662,
      "treet": 6663,
      "siko": 6664,
      "ahit": 6665,
      "ĠVir": 6666,
      "Ġdipen": 6667,
      "78": 6668,
      "etas": 6669,
      "Ġmelintasi": 6670,
      "dengan": 6671,
      "usuf": 6672,
      "Ġbilangan": 6673,
      "olaborasi": 6674,
      "ĠLes": 6675,
      "egat": 6676,
      "km": 6677,
      "ambo": 6678,
      "empur": 6679,
      "oksida": 6680,
      "ĠJam": 6681,
      "endam": 6682,
      "Ġpasir": 6683,
      "ĠKapal": 6684,
      "Ġeksp": 6685,
      "Ġplas": 6686,
      "ĠHarry": 6687,
      "Ġgula": 6688,
      "ecuali": 6689,
      "ĠOk": 6690,
      "Ġmarah": 6691,
      "ĠWill": 6692,
      "ĠDam": 6693,
      "ĠGirl": 6694,
      "Ġdikelola": 6695,
      "Ġeksekutif": 6696,
      "Ġberturut": 6697,
      "EN": 6698,
      "Ġdek": 6699,
      "Ġsupaya": 6700,
      "enting": 6701,
      "Ġmempengaruhi": 6702,
      "ulukan": 6703,
      "Ġkebebasan": 6704,
      "mana": 6705,
      "aro": 6706,
      "58": 6707,
      "Ġbasis": 6708,
      "Ġkomik": 6709,
      "zoa": 6710,
      "ahaman": 6711,
      "Ġkerap": 6712,
      "ogle": 6713,
      "rut": 6714,
      "Ġterlebih": 6715,
      "Ġdagang": 6716,
      "Ġjurnal": 6717,
      "Ġbersaudara": 6718,
      "ĠCD": 6719,
      "Ġpembela": 6720,
      "ĠBest": 6721,
      "ĠLeb": 6722,
      "Ġbenua": 6723,
      "ĠJoseph": 6724,
      "Ġkejuaraan": 6725,
      "ancur": 6726,
      "Ġtenggara": 6727,
      "Ġdiman": 6728,
      "Ġmenangani": 6729,
      "anyaan": 6730,
      "ĠFranc": 6731,
      "ĠSaint": 6732,
      "Ġmemasukkan": 6733,
      "Ġpangg": 6734,
      "ĠJean": 6735,
      "Ġbaja": 6736,
      "amping": 6737,
      "ĠBrit": 6738,
      "Ġpendirian": 6739,
      "ĠWI": 6740,
      "Ġkesepakatan": 6741,
      "off": 6742,
      "Ġbencana": 6743,
      "ĠBapak": 6744,
      "Ġraksasa": 6745,
      "ube": 6746,
      "Ġpenemuan": 6747,
      "ĠRay": 6748,
      "under": 6749,
      "obaan": 6750,
      "Ġotak": 6751,
      "Ġlemah": 6752,
      "ĠBandara": 6753,
      "US": 6754,
      "Ġsinyal": 6755,
      "Ġberagama": 6756,
      "Ġkonstitusi": 6757,
      "62": 6758,
      "Myr": 6759,
      "jin": 6760,
      "oshi": 6761,
      "Ġali": 6762,
      "Ġdias": 6763,
      "ĠHadi": 6764,
      "enggelam": 6765,
      "ĠDur": 6766,
      "ĠWales": 6767,
      "Ġritual": 6768,
      "ĠRecords": 6769,
      "En": 6770,
      "kamah": 6771,
      "Ġperannya": 6772,
      "Ġ1958": 6773,
      "43": 6774,
      "Ġmemberit": 6775,
      "ius": 6776,
      "Ġditerjemahkan": 6777,
      "Ġtertulis": 6778,
      "Ġjuni": 6779,
      "ĠKeluarga": 6780,
      "Ġguna": 6781,
      "tiba": 6782,
      "Ġdiplomat": 6783,
      "Ġpemerintahannya": 6784,
      "Ġmedis": 6785,
      "Terdapat": 6786,
      "ebarkan": 6787,
      "ĠPot": 6788,
      "Ġkualifikasi": 6789,
      "arch": 6790,
      "antri": 6791,
      "purna": 6792,
      "Ġotomatis": 6793,
      "Î¿": 6794,
      "Ġev": 6795,
      "urunan": 6796,
      "ĠFrancis": 6797,
      "Ġmenjadikannya": 6798,
      "Ġkanker": 6799,
      "sendiri": 6800,
      "ĠJu": 6801,
      "Ġkesalahan": 6802,
      "Ġmenyukai": 6803,
      "ream": 6804,
      "atalkan": 6805,
      "Ġdibantu": 6806,
      "ontrol": 6807,
      "ĠPu": 6808,
      "olar": 6809,
      "2010": 6810,
      "Ġpergerakan": 6811,
      "Ã§": 6812,
      "Ġsekelompok": 6813,
      "aharian": 6814,
      "Ġatap": 6815,
      "Ġpasien": 6816,
      "Ġkesenian": 6817,
      "Ġgaram": 6818,
      "Ġkedatangan": 6819,
      "Ġdipandang": 6820,
      "ĠAmerican": 6821,
      "Ġmalah": 6822,
      "Ġ1959": 6823,
      "latif": 6824,
      "Ġkeenam": 6825,
      "olehkan": 6826,
      "ĠKomunis": 6827,
      "Ġkeinginan": 6828,
      "Ġtangk": 6829,
      "ĠDrs": 6830,
      "ĠSehingga": 6831,
      "ĠDok": 6832,
      "Ġkumpulan": 6833,
      "ĠStr": 6834,
      "uksesan": 6835,
      "Ġditugaskan": 6836,
      "alau": 6837,
      "Pr": 6838,
      "Ġstrategi": 6839,
      "Ġbersek": 6840,
      "Ker": 6841,
      "tempat": 6842,
      "ĠMisalnya": 6843,
      "Ġpenjaga": 6844,
      "kawinan": 6845,
      "mata": 6846,
      "emuk": 6847,
      "kat": 6848,
      "ĠFred": 6849,
      "Ð¾": 6850,
      "diksi": 6851,
      "unjungan": 6852,
      "Ġkamera": 6853,
      "Orch": 6854,
      "Ġ38": 6855,
      "à¸": 6856,
      "ĠBiz": 6857,
      "Ġterkadang": 6858,
      "TP": 6859,
      "ĠJadi": 6860,
      "ister": 6861,
      "ĠGus": 6862,
      "ĠHingga": 6863,
      "Ġjawa": 6864,
      "ĠSelandia": 6865,
      "elli": 6866,
      "ĠAleks": 6867,
      "oskop": 6868,
      "77": 6869,
      "agan": 6870,
      "ĠAyahnya": 6871,
      "Ġmenu": 6872,
      "Ġdire": 6873,
      "Ġterjual": 6874,
      "Ġmenyampaikan": 6875,
      "artawan": 6876,
      "elitian": 6877,
      "Ġpal": 6878,
      "Ġmelambangkan": 6879,
      "Ġ1944": 6880,
      "Ġtran": 6881,
      "ĠKun": 6882,
      "Ġhalus": 6883,
      "Ġpendekatan": 6884,
      "gasi": 6885,
      "ĠTingkat": 6886,
      "2012": 6887,
      "Orchidaceae": 6888,
      "Ġrisiko": 6889,
      "Ġsusu": 6890,
      "aritas": 6891,
      "Ġbiara": 6892,
      "hasilan": 6893,
      "Ġadap": 6894,
      "Ġmempromosikan": 6895,
      "Ġperek": 6896,
      "angkabau": 6897,
      "Ġibadah": 6898,
      "iptaan": 6899,
      "ĠRadio": 6900,
      "ĠSeorang": 6901,
      "Ġdianugerahi": 6902,
      "PM": 6903,
      "ajuan": 6904,
      "Ġzona": 6905,
      "ĠCinta": 6906,
      "ations": 6907,
      "ĠKara": 6908,
      "Ġmenunjuk": 6909,
      "Ġsuami": 6910,
      "estik": 6911,
      "Ġ75": 6912,
      "ĠAssoci": 6913,
      "Ġpapan": 6914,
      "Ġmaterial": 6915,
      "rosoft": 6916,
      "Ġular": 6917,
      "Ġarke": 6918,
      "ĠPla": 6919,
      "ĠUl": 6920,
      "Ġni": 6921,
      "Miconia": 6922,
      "Ġtarget": 6923,
      "perim": 6924,
      "ĠBukit": 6925,
      "Ġseiring": 6926,
      "anjir": 6927,
      "Ġmulti": 6928,
      "ĠRef": 6929,
      "obot": 6930,
      "ĠKos": 6931,
      "opter": 6932,
      "Ġdiser": 6933,
      "Ġpengakuan": 6934,
      "Ġhist": 6935,
      "ĠHit": 6936,
      "PD": 6937,
      "Ġurusan": 6938,
      "patan": 6939,
      "Ġdirencanakan": 6940,
      "Ġkira": 6941,
      "ancarkan": 6942,
      "Eug": 6943,
      "eo": 6944,
      "Ġmemec": 6945,
      "ewar": 6946,
      "ĠMir": 6947,
      "Ġroti": 6948,
      "ĠPari": 6949,
      "ĠYa": 6950,
      "tad": 6951,
      "ĠPenduduk": 6952,
      "ĠHanya": 6953,
      "Ġditempuh": 6954,
      "yakinan": 6955,
      "61": 6956,
      "IV": 6957,
      "ĠPalembang": 6958,
      "Tidak": 6959,
      "oku": 6960,
      "ĠBei": 6961,
      "ats": 6962,
      "%,": 6963,
      "ĠItu": 6964,
      "ull": 6965,
      "ering": 6966,
      "lai": 6967,
      "ĠTib": 6968,
      "elm": 6969,
      "UN": 6970,
      "onstr": 6971,
      "Ġbas": 6972,
      "Ġoff": 6973,
      "egoro": 6974,
      "udal": 6975,
      "ĠBek": 6976,
      "Ġbersenjata": 6977,
      "ĠSak": 6978,
      "Ġhendak": 6979,
      "versal": 6980,
      "2009": 6981,
      "kes": 6982,
      "Ġpid": 6983,
      "Ġdipasang": 6984,
      "Ġnit": 6985,
      "Ġagen": 6986,
      "iraan": 6987,
      "sky": 6988,
      "inet": 6989,
      "adangan": 6990,
      "Ġprestasi": 6991,
      "essi": 6992,
      "col": 6993,
      "uala": 6994,
      "Ġorganik": 6995,
      "ĠNorth": 6996,
      "Ġditerapkan": 6997,
      "Musi": 6998,
      "Ġpersa": 6999,
      "Å¡": 7000,
      "Ġperawatan": 7001,
      "MS": 7002,
      "Ġpembagian": 7003,
      "RL": 7004,
      "Ġbunuh": 7005,
      "Ġpenderita": 7006,
      "Ġpelunc": 7007,
      "ĠCorporation": 7008,
      "Ġaset": 7009,
      "ĠMinangkabau": 7010,
      "tir": 7011,
      "Ġdilantik": 7012,
      "Ġberse": 7013,
      "ĠWat": 7014,
      "ym": 7015,
      "2008": 7016,
      "Ġinstr": 7017,
      "ĠMusik": 7018,
      "eliti": 7019,
      "Ġdebutnya": 7020,
      "Ġpenyi": 7021,
      "Ø§ÙĦ": 7022,
      "ĠSama": 7023,
      "Ġspek": 7024,
      "ĠGreen": 7025,
      "kel": 7026,
      "ihir": 7027,
      "erson": 7028,
      "ville": 7029,
      "ĠBis": 7030,
      "umpai": 7031,
      "Ġlegenda": 7032,
      "Ġparah": 7033,
      "ĠSurakarta": 7034,
      "Ġaktiv": 7035,
      "ĠAsh": 7036,
      "Ġkonstruksi": 7037,
      "idah": 7038,
      "panjang": 7039,
      "Ġle": 7040,
      "ĠAv": 7041,
      "ĠReg": 7042,
      "Ġdigelar": 7043,
      "á»": 7044,
      "Ġpor": 7045,
      "Ġkandang": 7046,
      "Ġdikuasai": 7047,
      "hatikan": 7048,
      "siden": 7049,
      "ĠPutih": 7050,
      "Salah": 7051,
      "Ġpangeran": 7052,
      "Ġdepartemen": 7053,
      "pr": 7054,
      "Ġmemerankan": 7055,
      "Ġkepadatan": 7056,
      "uluki": 7057,
      "dih": 7058,
      "Ġsolo": 7059,
      "ĠSolo": 7060,
      "Ġberkurang": 7061,
      "Ġperdamaian": 7062,
      "ĠHill": 7063,
      "ĠSas": 7064,
      "ĠStor": 7065,
      "Ġkete": 7066,
      "ĠUU": 7067,
      "ello": 7068,
      "iner": 7069,
      "ĠRat": 7070,
      "ĠSus": 7071,
      "Ġanime": 7072,
      "Ġ400": 7073,
      "Ġpangkat": 7074,
      "Ġinvasi": 7075,
      "misi": 7076,
      "enya": 7077,
      "69": 7078,
      "Ġpre": 7079,
      "Ġmulut": 7080,
      "imi": 7081,
      "daerah": 7082,
      "sari": 7083,
      "tem": 7084,
      "aket": 7085,
      "antikan": 7086,
      "ĠBern": 7087,
      "omen": 7088,
      "Ġpenghasil": 7089,
      "Ġsetara": 7090,
      "Ġterjemahan": 7091,
      "angkatan": 7092,
      "ĠArmenia": 7093,
      "AF": 7094,
      "hai": 7095,
      "udang": 7096,
      "enario": 7097,
      "ĠShe": 7098,
      "ĠDik": 7099,
      "waan": 7100,
      "Ġwith": 7101,
      "lihatkan": 7102,
      "ÙĨ": 7103,
      "ĠAy": 7104,
      "ors": 7105,
      "Ġleluhur": 7106,
      "Ġ1941": 7107,
      "//": 7108,
      "lavia": 7109,
      "Ġdiv": 7110,
      "Ġpencarian": 7111,
      "ĠMinggu": 7112,
      "Ġspir": 7113,
      "enomena": 7114,
      "Ġprasasti": 7115,
      "xi": 7116,
      "onan": 7117,
      "Ġ1957": 7118,
      "sesi": 7119,
      "Ġkepulauan": 7120,
      "Ġformal": 7121,
      "ĠInternet": 7122,
      "del": 7123,
      "Ġstaf": 7124,
      "Ġpasukannya": 7125,
      "ederasi": 7126,
      "Ġmelepaskan": 7127,
      "ree": 7128,
      "iano": 7129,
      "inter": 7130,
      "alog": 7131,
      "Ġperlawanan": 7132,
      "88": 7133,
      "batas": 7134,
      "Ġmaj": 7135,
      "ĠSanta": 7136,
      "ompetisi": 7137,
      "ĠAll": 7138,
      "ision": 7139,
      "Ġbiji": 7140,
      "Ġpur": 7141,
      "ky": 7142,
      "Ġterdaftar": 7143,
      "Ġkabel": 7144,
      "Ġtimbul": 7145,
      "Ġgeografis": 7146,
      "ĠPerwakilan": 7147,
      "AI": 7148,
      "ĠNik": 7149,
      "dikasikan": 7150,
      "Ġpesta": 7151,
      "ensif": 7152,
      "ordin": 7153,
      "Ġmengingat": 7154,
      "Ġkaryawan": 7155,
      "Ġ1956": 7156,
      "alkan": 7157,
      "Ġpekan": 7158,
      "opa": 7159,
      "dal": 7160,
      "otik": 7161,
      "Ġmiskin": 7162,
      "Ġmahkota": 7163,
      "andungan": 7164,
      "ulasan": 7165,
      "ĠPl": 7166,
      "sey": 7167,
      "Ġlatihan": 7168,
      "ĠKonstitusi": 7169,
      "Ġdiw": 7170,
      "aph": 7171,
      "Ġkain": 7172,
      "Ġpenerus": 7173,
      "Ġdimaksudkan": 7174,
      "Ġmenyanyikan": 7175,
      "Ġkelak": 7176,
      "pit": 7177,
      "ĠÅ": 7178,
      "ominasikan": 7179,
      "Ġparuh": 7180,
      "trans": 7181,
      "antum": 7182,
      "Eugenia": 7183,
      "ĠBet": 7184,
      "ariat": 7185,
      "back": 7186,
      "orak": 7187,
      "incin": 7188,
      "elik": 7189,
      "Ġsenapan": 7190,
      "amer": 7191,
      "Ġmembela": 7192,
      "Ġinfeksi": 7193,
      "jan": 7194,
      "Ġdisajikan": 7195,
      "ĠApp": 7196,
      "field": 7197,
      "ingi": 7198,
      "yanyikan": 7199,
      "Ġserius": 7200,
      "ĠPertahanan": 7201,
      "omer": 7202,
      "Ġprodusen": 7203,
      "tengah": 7204,
      "eno": 7205,
      "Ġpasca": 7206,
      "KP": 7207,
      "upsi": 7208,
      "Ġmenandai": 7209,
      "ĠAbdullah": 7210,
      "Ġ55": 7211,
      "ĠSoekarno": 7212,
      "ĠCla": 7213,
      "Ġcandi": 7214,
      "Ġkasih": 7215,
      "adaban": 7216,
      "ĠTab": 7217,
      "Ġhancur": 7218,
      "ĠJuga": 7219,
      "Ġvon": 7220,
      "ĠLim": 7221,
      "Ġkin": 7222,
      "Ġul": 7223,
      "2013": 7224,
      "oides": 7225,
      "Ġtarian": 7226,
      "Ġefisi": 7227,
      "63": 7228,
      "AP": 7229,
      "upai": 7230,
      "Ġsinar": 7231,
      "Ġ33": 7232,
      "nia": 7233,
      "Ġex": 7234,
      "Ġeng": 7235,
      "ukim": 7236,
      "Ġpenyimp": 7237,
      "Ġdilarang": 7238,
      "Ġsosok": 7239,
      "angkal": 7240,
      "Ġotoritas": 7241,
      "ĠSakit": 7242,
      "Ġpendudukan": 7243,
      "utasi": 7244,
      "Ġberpikir": 7245,
      "ĠBola": 7246,
      "rof": 7247,
      "ĠWis": 7248,
      "Ġwajib": 7249,
      "ĠHigh": 7250,
      "Ġbudak": 7251,
      "ĠKro": 7252,
      "ĠRasul": 7253,
      "Ġdieks": 7254,
      "Ġpengobatan": 7255,
      "cap": 7256,
      "asangan": 7257,
      "ball": 7258,
      "low": 7259,
      "Ġmasakan": 7260,
      "ambat": 7261,
      "unting": 7262,
      "ampur": 7263,
      "Ġbakat": 7264,
      "ĠKont": 7265,
      "impunan": 7266,
      "arusnya": 7267,
      "Ġtri": 7268,
      "itori": 7269,
      "Ġmengganti": 7270,
      "Ġmendekati": 7271,
      "Ġkod": 7272,
      "Ġpene": 7273,
      "Ġteknis": 7274,
      "SMA": 7275,
      "asang": 7276,
      "eteksi": 7277,
      "intis": 7278,
      "ĠMedi": 7279,
      "Ġreformasi": 7280,
      "ĠFar": 7281,
      "ĠNar": 7282,
      "iller": 7283,
      "ĠBlu": 7284,
      "intai": 7285,
      "wahan": 7286,
      "Ġagung": 7287,
      "Ġliar": 7288,
      "ĠLat": 7289,
      "inder": 7290,
      "zan": 7291,
      "vin": 7292,
      "Ġtropis": 7293,
      "wana": 7294,
      "ĠRh": 7295,
      "ĠPeraturan": 7296,
      "Ġtol": 7297,
      "ĠPeri": 7298,
      "Ġpersetujuan": 7299,
      "bangan": 7300,
      "isual": 7301,
      "ĠLuc": 7302,
      "ĠHat": 7303,
      "Ġliter": 7304,
      "ĠVersi": 7305,
      "ĠBudaya": 7306,
      "://": 7307,
      "xia": 7308,
      "ĠPlay": 7309,
      "umpur": 7310,
      "arakan": 7311,
      "arankan": 7312,
      "Ġpemberontak": 7313,
      "Daftar": 7314,
      "die": 7315,
      "ĠDVD": 7316,
      "Ġmengeks": 7317,
      "ĠKereta": 7318,
      "Ġpartikel": 7319,
      "ĠMik": 7320,
      "ilasi": 7321,
      "Ġ1955": 7322,
      "Ġperahu": 7323,
      "Ġbalap": 7324,
      "lines": 7325,
      "Ġcairan": 7326,
      "Ġdomestik": 7327,
      "ium": 7328,
      "Ġbagus": 7329,
      "Ġmemahami": 7330,
      "ĠIk": 7331,
      "ragon": 7332,
      "Ġpahlawan": 7333,
      "ray": 7334,
      "ĠBatavia": 7335,
      "ĠRoyal": 7336,
      "arif": 7337,
      "Ġberbagi": 7338,
      "Ġgerbang": 7339,
      "Ã³n": 7340,
      "ropolitan": 7341,
      "ĠNat": 7342,
      "siapkan": 7343,
      "Pa": 7344,
      "adiri": 7345,
      "Ġmembahas": 7346,
      "Ġdasarnya": 7347,
      "igran": 7348,
      "Ġmarga": 7349,
      "utkan": 7350,
      "Ġmenerapkan": 7351,
      "Ġtuanya": 7352,
      "Ġpenurunan": 7353,
      "Ġpemukiman": 7354,
      "edonia": 7355,
      "Ġmemastikan": 7356,
      "ski": 7357,
      "2011": 7358,
      "antang": 7359,
      "ucapkan": 7360,
      "Ġherb": 7361,
      "Ġ1943": 7362,
      "ublikasikan": 7363,
      "Ġdamai": 7364,
      "ĠMetro": 7365,
      "mir": 7366,
      "Ġkonsentrasi": 7367,
      "ĠPegunungan": 7368,
      "his": 7369,
      "yai": 7370,
      "ĠId": 7371,
      "Ġdengannya": 7372,
      "Ġmelebih": 7373,
      "Ġ.": 7374,
      "Ġbanyaknya": 7375,
      "Ġpeperangan": 7376,
      "ewarganegaraan": 7377,
      "ambangan": 7378,
      "emaat": 7379,
      "Ġinternal": 7380,
      "ĠTum": 7381,
      "ĠKari": 7382,
      "araja": 7383,
      "tanian": 7384,
      "Ä«": 7385,
      "semb": 7386,
      "Ġmarkas": 7387,
      "isensi": 7388,
      "alisi": 7389,
      "ĠPil": 7390,
      "ova": 7391,
      "Ð¸": 7392,
      "Ġkehormatan": 7393,
      "Kecamatan": 7394,
      "ĠRama": 7395,
      "ĠShow": 7396,
      "Ġkonteks": 7397,
      "gagalan": 7398,
      "SS": 7399,
      "Ġrupa": 7400,
      "Ġmemenangi": 7401,
      "Ġkekayaan": 7402,
      "ĠFa": 7403,
      "esaan": 7404,
      "Ġberte": 7405,
      "Ġpemakaman": 7406,
      "Ġ36": 7407,
      "Ġdinominasikan": 7408,
      "rasah": 7409,
      "Ġpilot": 7410,
      "otanya": 7411,
      "Ġrumahnya": 7412,
      "dney": 7413,
      "empor": 7414,
      "antium": 7415,
      "ĠAug": 7416,
      "Ġmengoperasikan": 7417,
      "Ġsawah": 7418,
      "ĠDat": 7419,
      "ĠChristi": 7420,
      "ĠMicrosoft": 7421,
      "madiyah": 7422,
      "Ġsepeda": 7423,
      "ĠMada": 7424,
      "ingat": 7425,
      "Ġmanga": 7426,
      "ture": 7427,
      "Ġditinggal": 7428,
      "Ġmembagi": 7429,
      "Ġmurni": 7430,
      "ĠManusia": 7431,
      "ekaran": 7432,
      "ipula": 7433,
      "Ġmanajer": 7434,
      "100": 7435,
      "oor": 7436,
      "ĠStreet": 7437,
      "Ġregional": 7438,
      "Ġkebun": 7439,
      "Ġmenggabungkan": 7440,
      "Ġmenjawab": 7441,
      "inginkan": 7442,
      "ĠPam": 7443,
      "ĠLor": 7444,
      "ĠClub": 7445,
      "umahan": 7446,
      "Ġgitar": 7447,
      "the": 7448,
      "Ġberkisar": 7449,
      "Ġkabin": 7450,
      "ĠKarl": 7451,
      "Ġtud": 7452,
      "onya": 7453,
      "Ġberkat": 7454,
      "ĠPengadilan": 7455,
      "Poales": 7456,
      "onfirm": 7457,
      "Ġ120": 7458,
      "Ġsenang": 7459,
      "Ġmenurunkan": 7460,
      "iety": 7461,
      "umania": 7462,
      "ĠPesawat": 7463,
      "Ġny": 7464,
      "KT": 7465,
      "meng": 7466,
      "ĠSud": 7467,
      "79": 7468,
      "ahi": 7469,
      "hire": 7470,
      "Ġjunior": 7471,
      "Ġkeju": 7472,
      "Ġtahunnya": 7473,
      "ĠHasan": 7474,
      "isisi": 7475,
      "unjang": 7476,
      "ĠSci": 7477,
      "Ġmelarang": 7478,
      "ĠDayak": 7479,
      "Ġakun": 7480,
      "Ġterminal": 7481,
      "ĠVII": 7482,
      "ange": 7483,
      "Ġsempurna": 7484,
      "ujung": 7485,
      "Ġmenikmati": 7486,
      "Ġdrum": 7487,
      "Ġkomando": 7488,
      "ĠPemilihan": 7489,
      "Ġsejauh": 7490,
      "Ġdimanfaatkan": 7491,
      "sat": 7492,
      "ĠMahkamah": 7493,
      "Ġblok": 7494,
      "ektorat": 7495,
      "agia": 7496,
      "Ġmenonjol": 7497,
      "Ġinfr": 7498,
      "ĠPerp": 7499,
      "lie": 7500,
      "zabeth": 7501,
      "Ġpangan": 7502,
      "ĠSampai": 7503,
      "Ġtersendiri": 7504,
      "Ġratusan": 7505,
      "seb": 7506,
      "Ġmemanggil": 7507,
      "ĠAndr": 7508,
      "Ġfrekuensi": 7509,
      "Ġkrisis": 7510,
      "Ġdiaw": 7511,
      "ĠMek": 7512,
      "ĠKomandan": 7513,
      "ĠSimon": 7514,
      "tegr": 7515,
      "Ġfase": 7516,
      "utip": 7517,
      "Su": 7518,
      "organ": 7519,
      "kuit": 7520,
      "Ġmenghadiri": 7521,
      "ĠKetiga": 7522,
      "Sementara": 7523,
      "Ġmar": 7524,
      "Ġmengejar": 7525,
      "ĠLeague": 7526,
      "Ġmendarat": 7527,
      "redit": 7528,
      "Ġtahanan": 7529,
      "Ġmenembak": 7530,
      "ex": 7531,
      "Ġmenunggu": 7532,
      "Ġpersonel": 7533,
      "Ġberkumpul": 7534,
      "2005": 7535,
      "Ġdetik": 7536,
      "Ġmengelola": 7537,
      "regnum": 7538,
      "Ġpenulisan": 7539,
      "ĠAirlines": 7540,
      "inj": 7541,
      "umpah": 7542,
      "leksi": 7543,
      "ĠVideo": 7544,
      "ĠBea": 7545,
      "ĠSejarah": 7546,
      "Ġjari": 7547,
      "Ġ1952": 7548,
      "esuaikan": 7549,
      "Ġ34": 7550,
      "05": 7551,
      "ilikan": 7552,
      "Sekolah": 7553,
      "lon": 7554,
      "embahan": 7555,
      "ĠLiu": 7556,
      "asket": 7557,
      "ekusi": 7558,
      "Ġtakut": 7559,
      "ĠLas": 7560,
      "hadiran": 7561,
      "Ġmenyusun": 7562,
      "ataan": 7563,
      "orifera": 7564,
      "Ġberjuang": 7565,
      "ĠYeh": 7566,
      "Ġmelebihi": 7567,
      "wanan": 7568,
      "ĠEf": 7569,
      "ĠSaudi": 7570,
      "ĠJepara": 7571,
      "Ġdinyanyikan": 7572,
      "Ġperpustakaan": 7573,
      "ĠDaniel": 7574,
      "amar": 7575,
      "ĠPah": 7576,
      "unggung": 7577,
      "ikulum": 7578,
      "ĠPember": 7579,
      "Ġjen": 7580,
      "ertai": 7581,
      "ĠSamudra": 7582,
      "rem": 7583,
      "Ġpameran": 7584,
      "cur": 7585,
      "Ġë": 7586,
      "Ġ48": 7587,
      "Ġmerekam": 7588,
      "arya": 7589,
      "Ġlurus": 7590,
      "ĠFox": 7591,
      "Ġseharusnya": 7592,
      "Ġtaj": 7593,
      "ĠKid": 7594,
      "mum": 7595,
      "ĠKenn": 7596,
      "ous": 7597,
      "Mus": 7598,
      "inum": 7599,
      "Ġwawancara": 7600,
      "ĠKategori": 7601,
      "EC": 7602,
      "ĠSaw": 7603,
      "Ġpecah": 7604,
      "Ġrestoran": 7605,
      "Î½": 7606,
      "antangan": 7607,
      "Ġbandar": 7608,
      "ĠKak": 7609,
      "alk": 7610,
      "Ġinstitusi": 7611,
      "ĠSta": 7612,
      "patiens": 7613,
      "ĠIsa": 7614,
      "Ġlegis": 7615,
      "Sc": 7616,
      "binasi": 7617,
      "ambilan": 7618,
      "lium": 7619,
      "Ġdicatat": 7620,
      "Impatiens": 7621,
      "egas": 7622,
      "Ġvariasi": 7623,
      "elihara": 7624,
      "Ġkelam": 7625,
      "ĠNAS": 7626,
      "ĠMotor": 7627,
      "Ġhektar": 7628,
      "ĠOne": 7629,
      "Ġperkawinan": 7630,
      "ĠLingk": 7631,
      "Ġsewaktu": 7632,
      "olan": 7633,
      "Ġmemisahkan": 7634,
      "Ġpembu": 7635,
      "ĠShah": 7636,
      "ion": 7637,
      "Ġmag": 7638,
      "Ġby": 7639,
      "Ġcucu": 7640,
      "turunkan": 7641,
      "Ġsesama": 7642,
      "Ġ37": 7643,
      "Ġdiserahkan": 7644,
      "Ġ1939": 7645,
      "ĠGoogle": 7646,
      "Ġbetina": 7647,
      "ody": 7648,
      "ĠProses": 7649,
      "Ġanggaran": 7650,
      "Ġbersaing": 7651,
      "Ġpeninggalan": 7652,
      "ĠAdministr": 7653,
      "Stasiun": 7654,
      "ĠPres": 7655,
      "Orang": 7656,
      "Ġtuk": 7657,
      "Ġmemperluas": 7658,
      "Ġmenyam": 7659,
      "Ġinvestasi": 7660,
      "Ġtes": 7661,
      "ĠAwalnya": 7662,
      "Ġberbahaya": 7663,
      "encanaan": 7664,
      "ĠJack": 7665,
      "ĠCur": 7666,
      "macam": 7667,
      "Penduduk": 7668,
      "ĠPorifera": 7669,
      "Ġsiang": 7670,
      "Ġberalih": 7671,
      "nik": 7672,
      "esin": 7673,
      "Ġterbunuh": 7674,
      "Ġkebenaran": 7675,
      "Ġsc": 7676,
      "oyo": 7677,
      "Ġkrim": 7678,
      "Ġkunjungan": 7679,
      "elat": 7680,
      "ohol": 7681,
      "Ġpenari": 7682,
      "98": 7683,
      "lek": 7684,
      "inaan": 7685,
      "akia": 7686,
      "ĠDNA": 7687,
      "rahim": 7688,
      "untutan": 7689,
      "lot": 7690,
      "Ġpemberian": 7691,
      "apahit": 7692,
      "Ġsubregnum": 7693,
      "Ġaudi": 7694,
      "ĠOx": 7695,
      "ĠParazoa": 7696,
      "ĠInstitute": 7697,
      "amana": 7698,
      "Ġdibesarkan": 7699,
      "Ġden": 7700,
      "ET": 7701,
      "ĠPala": 7702,
      "ĠMilan": 7703,
      "ĠKhusus": 7704,
      "Ã£": 7705,
      "tions": 7706,
      "Ġmengendalikan": 7707,
      "Ġ1954": 7708,
      "92": 7709,
      "Ġmodal": 7710,
      "yekh": 7711,
      "Ġresolusi": 7712,
      "Ġsetia": 7713,
      "ĠSemenanjung": 7714,
      "Ġkesuksesan": 7715,
      "ĠSand": 7716,
      "ĠRumania": 7717,
      "ihan": 7718,
      "ĠGeorgia": 7719,
      "hannel": 7720,
      "onomian": 7721,
      "ibu": 7722,
      "2006": 7723,
      "Ġmisteri": 7724,
      "elayan": 7725,
      "Ġterhubung": 7726,
      "Ġmakin": 7727,
      "Ġkacang": 7728,
      "Ġprofesor": 7729,
      "Ġhidrogen": 7730,
      "ĠBangunan": 7731,
      "ĠPlan": 7732,
      "iaceae": 7733,
      "Ġtep": 7734,
      "2007": 7735,
      "Ġlampu": 7736,
      "amis": 7737,
      "ĠMosk": 7738,
      "utri": 7739,
      "manen": 7740,
      "Ġbersih": 7741,
      "Ġulasan": 7742,
      "Ġberfokus": 7743,
      "ĠManchester": 7744,
      "ĠTujuan": 7745,
      "endek": 7746,
      "Ġkemajuan": 7747,
      "Ġdef": 7748,
      "ĠLebih": 7749,
      "bot": 7750,
      "andanya": 7751,
      "Pers": 7752,
      "mah": 7753,
      "eder": 7754,
      "ĠSydney": 7755,
      "Ġmempering": 7756,
      "ĠShang": 7757,
      "Ġlokomotif": 7758,
      "injam": 7759,
      "ĠBiasanya": 7760,
      "Ġbon": 7761,
      "utin": 7762,
      "Ġakar": 7763,
      "Ġberpusat": 7764,
      "Ġisu": 7765,
      "ratis": 7766,
      "ĠFat": 7767,
      "ĠSmith": 7768,
      "antar": 7769,
      "Ġekstr": 7770,
      "Ġrancangan": 7771,
      "LA": 7772,
      "Ġpir": 7773,
      "Ġlembah": 7774,
      "edang": 7775,
      "Ġkerjasama": 7776,
      "Ġwartawan": 7777,
      "fin": 7778,
      "tegrasi": 7779,
      "turkan": 7780,
      "Ġmenekankan": 7781,
      "eing": 7782,
      "Ġtiang": 7783,
      "ÙĪ": 7784,
      "Ġditurunkan": 7785,
      "Ġterang": 7786,
      "ĠTempat": 7787,
      "mosfer": 7788,
      "zinkan": 7789,
      "ĠKop": 7790,
      "ĠFac": 7791,
      "Ġdosen": 7792,
      "ĠGames": 7793,
      "Ġberkewarganegaraan": 7794,
      "ĠPenc": 7795,
      "Ġwarisan": 7796,
      "onegoro": 7797,
      "ĠJi": 7798,
      "ungguhnya": 7799,
      "Ġtir": 7800,
      "Ġjabatannya": 7801,
      "BI": 7802,
      "Ġtanggung": 7803,
      "Ġcoklat": 7804,
      "ĠAthena": 7805,
      "RA": 7806,
      "ĠGab": 7807,
      "Ġtubuhnya": 7808,
      "Ġdikaitkan": 7809,
      "Ġbanjir": 7810,
      "ĠWu": 7811,
      "Äĩ": 7812,
      "Ġberencana": 7813,
      "ĠBayern": 7814,
      "Ġjulukan": 7815,
      "imer": 7816,
      "Ġlabor": 7817,
      "Ġtomb": 7818,
      "bawa": 7819,
      "Ġtertutup": 7820,
      "KA": 7821,
      "emas": 7822,
      "Ġperbaikan": 7823,
      "ĠMary": 7824,
      "Ġsebaliknya": 7825,
      "ĠKonf": 7826,
      "Ġangkutan": 7827,
      "Ġadaptasi": 7828,
      "mula": 7829,
      "aklukan": 7830,
      "ĠGad": 7831,
      "luan": 7832,
      "Ġdipegang": 7833,
      "Ġberkompetisi": 7834,
      "Ġribuan": 7835,
      "Ġdistribusi": 7836,
      "barang": 7837,
      "wn": 7838,
      "ĠPac": 7839,
      "ĠAku": 7840,
      "Ġorganisme": 7841,
      "ense": 7842,
      "Ġmenyerupai": 7843,
      "Ġkehadiran": 7844,
      "Ġjantan": 7845,
      "ĠSystem": 7846,
      "ĠTegal": 7847,
      "trin": 7848,
      "ĠOlahraga": 7849,
      "ĠSid": 7850,
      "Ġkomposisi": 7851,
      "Ġpeta": 7852,
      "Ġpikiran": 7853,
      "Ġbulat": 7854,
      "ĠMol": 7855,
      "zhou": 7856,
      "ĠSara": 7857,
      "Ġjad": 7858,
      "Ġcac": 7859,
      "Ġdijuluki": 7860,
      "ĠPictures": 7861,
      "Ġpinggiran": 7862,
      "ĠKeuangan": 7863,
      "ĠElizabeth": 7864,
      "ĠHawa": 7865,
      "Ġkonvensi": 7866,
      "Ġpeluru": 7867,
      "sburg": 7868,
      "esain": 7869,
      "sea": 7870,
      "nie": 7871,
      "bara": 7872,
      "itch": 7873,
      "ĠAbad": 7874,
      "2004": 7875,
      "ujudkan": 7876,
      ",,": 7877,
      "itanya": 7878,
      "ĠAssociation": 7879,
      "Ġsimp": 7880,
      "bankan": 7881,
      "Ġpesat": 7882,
      "ĠWang": 7883,
      "Ġmemandang": 7884,
      "asana": 7885,
      "udo": 7886,
      "ĠLaks": 7887,
      "rac": 7888,
      "pin": 7889,
      "udisi": 7890,
      "ĠLong": 7891,
      "mbangkan": 7892,
      "termasuk": 7893,
      "zar": 7894,
      "orus": 7895,
      "ĠLomb": 7896,
      "Î¹": 7897,
      "rie": 7898,
      "Ġberperang": 7899,
      "ĠSap": 7900,
      "195": 7901,
      "Ġ!\"": 7902,
      "Ġketujuh": 7903,
      "ilat": 7904,
      "ĠSociety": 7905,
      "ĠChi": 7906,
      "ĠTex": 7907,
      "Ġmineral": 7908,
      "ĠDal": 7909,
      "ulia": 7910,
      "ĠPertanian": 7911,
      "med": 7912,
      "Ġkeselamatan": 7913,
      "Ġmenghormati": 7914,
      "Ġmanis": 7915,
      "ordinasi": 7916,
      "Ġkeyakinan": 7917,
      "ĠEpisode": 7918,
      "ĠAkibatnya": 7919,
      "Ġakting": 7920,
      "oper": 7921,
      "ĠAlexander": 7922,
      "isahan": 7923,
      "ĠPos": 7924,
      "mail": 7925,
      "Ġmengajak": 7926,
      "Ġmengizinkan": 7927,
      "Ġmembuktikan": 7928,
      "ĠFinlandia": 7929,
      "ambing": 7930,
      "yangnya": 7931,
      "ĠApi": 7932,
      "Ġkritis": 7933,
      "ĠInc": 7934,
      "Ġklor": 7935,
      "ĠBung": 7936,
      "Ġditolak": 7937,
      "anic": 7938,
      "ĠPanglima": 7939,
      "Li": 7940,
      "Ġberhak": 7941,
      "ĠBut": 7942,
      "eduk": 7943,
      "ĠMuhammadiyah": 7944,
      "VI": 7945,
      "ĠBin": 7946,
      "Ġmemperbaiki": 7947,
      "uaca": 7948,
      "ross": 7949,
      "Ġharta": 7950,
      "Ġfakta": 7951,
      "87": 7952,
      "ĠLima": 7953,
      "ĠHot": 7954,
      "asaannya": 7955,
      "Ġpendeta": 7956,
      "Ġmitologi": 7957,
      "tt": 7958,
      "acun": 7959,
      "ĠMars": 7960,
      "Ġsekutu": 7961,
      "Ġasisten": 7962,
      "Ġvarian": 7963,
      "Ġmala": 7964,
      "Ġdijelaskan": 7965,
      "Ġuap": 7966,
      "sisi": 7967,
      "ĠMajapahit": 7968,
      "Ġklan": 7969,
      "ĠKm": 7970,
      "Ġmenempuh": 7971,
      "ĠAtl": 7972,
      "Ã¼r": 7973,
      "usif": 7974,
      "bas": 7975,
      "rum": 7976,
      "Ġmenyang": 7977,
      "Ã¢": 7978,
      "rain": 7979,
      "Ġresi": 7980,
      "Ġpertanyaan": 7981,
      "ĠSekitar": 7982,
      "ĠQue": 7983,
      "Ġmenjelang": 7984,
      "plin": 7985,
      "ĠBalai": 7986,
      "ĠCas": 7987,
      "Ġkomunis": 7988,
      "Amerika": 7989,
      "abu": 7990,
      "satu": 7991,
      "ĠRoh": 7992,
      "endra": 7993,
      "Ġsadar": 7994,
      "ĠTerl": 7995,
      "ology": 7996,
      "ammad": 7997,
      "Ġakademik": 7998,
      "yung": 7999,
      "erahan": 8000,
      "Ġkg": 8001,
      "ĠYak": 8002,
      "Ġspesifik": 8003,
      "ĠFried": 8004,
      "pertimbangkan": 8005,
      "ĠBrun": 8006,
      "tok": 8007,
      "Ġevolusi": 8008,
      "Ġmenutup": 8009,
      "Ġwujud": 8010,
      "Ġkebakaran": 8011,
      "ĠSepak": 8012,
      "final": 8013,
      "buku": 8014,
      "Re": 8015,
      "ardi": 8016,
      "impi": 8017,
      "Ġsesudah": 8018,
      "amadya": 8019,
      "ĠKus": 8020,
      "Ġmenyebutnya": 8021,
      "teraan": 8022,
      "igasi": 8023,
      "Ġ1953": 8024,
      "Ġpenyair": 8025,
      "ditor": 8026,
      "ĠMobil": 8027,
      "work": 8028,
      "Ġsemula": 8029,
      "net": 8030,
      "Ġmenahan": 8031,
      "Ġmemindahkan": 8032,
      "Ġpanggilan": 8033,
      "tul": 8034,
      "Ġmenegaskan": 8035,
      "ĠBob": 8036,
      "Ġdipro": 8037,
      "97": 8038,
      "Ġje": 8039,
      "sem": 8040,
      "ĠAL": 8041,
      "ĠSqu": 8042,
      "bour": 8043,
      "ĠSul": 8044,
      "Sel": 8045,
      "Ġpandang": 8046,
      "ĠKawasan": 8047,
      "Salvia": 8048,
      "rand": 8049,
      "Mela": 8050,
      "erat": 8051,
      "ĠKuala": 8052,
      "Ġdisediakan": 8053,
      "onim": 8054,
      "ĠWIB": 8055,
      "Ġberguna": 8056,
      "ĠNan": 8057,
      "DA": 8058,
      "amba": 8059,
      "Ġwisatawan": 8060,
      "Ġbersejarah": 8061,
      "embus": 8062,
      "ĠSha": 8063,
      "Ġmengembalikan": 8064,
      "udin": 8065,
      "Banyak": 8066,
      "ĠAraneidae": 8067,
      "Ġpelanggan": 8068,
      "caan": 8069,
      "Ġmengatasi": 8070,
      "ĠBoeing": 8071,
      "titas": 8072,
      "Ġatlet": 8073,
      "Ġjahat": 8074,
      "ĠOff": 8075,
      "Ġharinya": 8076,
      "mem": 8077,
      "tokoh": 8078,
      "ĠDong": 8079,
      "ĠSastra": 8080,
      "Ġmerusak": 8081,
      "Ġminum": 8082,
      "empah": 8083,
      "jadwal": 8084,
      "Ġtetangga": 8085,
      "onik": 8086,
      "sial": 8087,
      "ustin": 8088,
      "Indonesia": 8089,
      "Ġlaboratorium": 8090,
      "ĠStaf": 8091,
      "ST": 8092,
      "Ġkegagalan": 8093,
      "suf": 8094,
      "Ġkuan": 8095,
      "ĠOri": 8096,
      "Ġaktivis": 8097,
      "ĠWanita": 8098,
      "Ġtarik": 8099,
      "Ġpelindung": 8100,
      "ĠSis": 8101,
      "Ġbawang": 8102,
      "ĠTimes": 8103,
      "Ġkandungan": 8104,
      "ters": 8105,
      "ĠLuth": 8106,
      "Ġbioskop": 8107,
      "onald": 8108,
      "Ġmenjalin": 8109,
      "ĠBizantium": 8110,
      "icago": 8111,
      "Ġmembawakan": 8112,
      "Ġkotak": 8113,
      "Ġroket": 8114,
      "Ġlandasan": 8115,
      "ĠPek": 8116,
      "ĠBir": 8117,
      "Ġmemicu": 8118,
      "ĠSelat": 8119,
      "ĠWangsa": 8120,
      "ĠZaman": 8121,
      "Ðµ": 8122,
      "Ġdiminta": 8123,
      "Ġ1951": 8124,
      "Ġbir": 8125,
      "ambut": 8126,
      "adaran": 8127,
      "Ġkekurangan": 8128,
      "Kom": 8129,
      "Ġtentu": 8130,
      "ĠTelevisi": 8131,
      "str": 8132,
      "Ġpokok": 8133,
      "ĠInt": 8134,
      "Ġkakek": 8135,
      "ĠIndra": 8136,
      "Ġkesatuan": 8137,
      "ĠBila": 8138,
      "Ġmenyetujui": 8139,
      "band": 8140,
      "ĠIT": 8141,
      "Ġterluka": 8142,
      "Ġderajat": 8143,
      "ĠDhar": 8144,
      "ier": 8145,
      "ĠSurya": 8146,
      "Ġatmosfer": 8147,
      "ĠDKI": 8148,
      "ĠIX": 8149,
      "ĠTern": 8150,
      "ĠRen": 8151,
      "ĠCip": 8152,
      "ungkap": 8153,
      "Ġekspedisi": 8154,
      "bolehkan": 8155,
      "Ġmeta": 8156,
      "Ġdisetujui": 8157,
      "ĠSitus": 8158,
      "ĠCounty": 8159,
      "Ġoksida": 8160,
      "ĠHir": 8161,
      "Ġkarakteristik": 8162,
      "Ġusul": 8163,
      "Ġgejala": 8164,
      "ĠHus": 8165,
      "Ġpembelajaran": 8166,
      "ĠWir": 8167,
      "Ã±": 8168,
      "Ġhabis": 8169,
      "Ġpip": 8170,
      "atis": 8171,
      "ĠYusuf": 8172,
      "inn": 8173,
      "elai": 8174,
      "gam": 8175,
      "Res": 8176,
      "astruktur": 8177,
      "istal": 8178,
      "Ġmeraya": 8179,
      "anjangan": 8180,
      "Ġhom": 8181,
      "Ġkalender": 8182,
      "ukun": 8183,
      "Ġpenutup": 8184,
      "ĠQing": 8185,
      "ĠBritish": 8186,
      "Ne": 8187,
      "anon": 8188,
      "itual": 8189,
      "ego": 8190,
      "Ġbaris": 8191,
      "Ġtergabung": 8192,
      "amannya": 8193,
      "risten": 8194,
      "ahabatan": 8195,
      "gaiman": 8196,
      "Ġpercobaan": 8197,
      "Ġpersamaan": 8198,
      "Ġpenerima": 8199,
      "Allium": 8200,
      "Ġmoral": 8201,
      "mond": 8202,
      "ĠFu": 8203,
      "Ġkeperluan": 8204,
      "ĠModel": 8205,
      "Ġtuduhan": 8206,
      "Ø±": 8207,
      "Ġmengusulkan": 8208,
      "Ġfenomena": 8209,
      "Ġgua": 8210,
      "Ġuji": 8211,
      "arth": 8212,
      "ĠMusa": 8213,
      "Ġpermanen": 8214,
      "isihan": 8215,
      "Ġmeneruskan": 8216,
      "ĠPasal": 8217,
      "omenda": 8218,
      "ĠPerguruan": 8219,
      "Ġpenyebaran": 8220,
      "identifikasi": 8221,
      "ĠSom": 8222,
      "ĠTata": 8223,
      "arjo": 8224,
      "eff": 8225,
      "Ġberda": 8226,
      "dentifikasi": 8227,
      "Ġlambat": 8228,
      "Ġ(;)": 8229,
      "ekuatan": 8230,
      "El": 8231,
      "NS": 8232,
      "ĠMaya": 8233,
      "fur": 8234,
      "ĠTas": 8235,
      "ĠFormula": 8236,
      "ĠSon": 8237,
      "unsur": 8238,
      "Ġmengu": 8239,
      "Ġteh": 8240,
      "Ġrapat": 8241,
      "Ġkombinasi": 8242,
      "Ġlingkaran": 8243,
      "ĠPondok": 8244,
      "Ġmembedakan": 8245,
      "ĠIbnu": 8246,
      "ily": 8247,
      "Ġlib": 8248,
      "tapan": 8249,
      "ĠPanjang": 8250,
      "ĠCha": 8251,
      "Cyperaceae": 8252,
      "edar": 8253,
      "Ġkalimat": 8254,
      "Ġmaksud": 8255,
      "ĠBeng": 8256,
      "Ad": 8257,
      "ĠBengk": 8258,
      "ĠTech": 8259,
      "yyah": 8260,
      "Ġmemengaruhi": 8261,
      "ĠSMAN": 8262,
      "con": 8263,
      "ĠMid": 8264,
      "ogon": 8265,
      "ĠSerial": 8266,
      "ĠBre": 8267,
      "Ag": 8268,
      "lihat": 8269,
      "ĠBeijing": 8270,
      "ĠKul": 8271,
      "minal": 8272,
      "ĠRegi": 8273,
      "Ġpemekaran": 8274,
      "Ãº": 8275,
      "tulis": 8276,
      "Ġdijumpai": 8277,
      "Ġerat": 8278,
      "uro": 8279,
      "Ġdihuni": 8280,
      "ormat": 8281,
      "desa": 8282,
      "akm": 8283,
      "ĠCandi": 8284,
      "ĠØ§ÙĦ": 8285,
      "angnya": 8286,
      "dipaten": 8287,
      "ĠJim": 8288,
      "Ġkonferensi": 8289,
      "Ġsemenjak": 8290,
      "Ġnabi": 8291,
      "Ġgratis": 8292,
      "Ġkepemilikan": 8293,
      "Ġmuatan": 8294,
      "ĠSimp": 8295,
      "Ġpena": 8296,
      "Ġabu": 8297,
      "yakinkan": 8298,
      "Ġonline": 8299,
      "Ġlarutan": 8300,
      "erti": 8301,
      "Ġpang": 8302,
      "senjata": 8303,
      "inop": 8304,
      "astil": 8305,
      "ederal": 8306,
      "Ġperasaan": 8307,
      "ampilannya": 8308,
      "Ġdosa": 8309,
      "ĠGod": 8310,
      "ĠKomando": 8311,
      "urnalis": 8312,
      "Ġkandi": 8313,
      "ĠSC": 8314,
      "ĠBentuk": 8315,
      "bek": 8316,
      "EO": 8317,
      "ribusikan": 8318,
      "Ġmekanisme": 8319,
      "Ġdefinisi": 8320,
      "Ġjuri": 8321,
      "So": 8322,
      "ĠSari": 8323,
      "ĠSant": 8324,
      "oreng": 8325,
      "Ġdemokrasi": 8326,
      "ĠKapten": 8327,
      "Ġdoa": 8328,
      "Ġpejuang": 8329,
      "Ġsol": 8330,
      "utuan": 8331,
      "Ġdijalankan": 8332,
      "enazah": 8333,
      "89": 8334,
      "OM": 8335,
      "Ġresep": 8336,
      "emporer": 8337,
      "New": 8338,
      "Ġdulunya": 8339,
      "ĠPertengahan": 8340,
      "Ġdikelilingi": 8341,
      "odes": 8342,
      "Raja": 8343,
      "dasar": 8344,
      "ĠMun": 8345,
      "chel": 8346,
      "ĠKum": 8347,
      "ĠMadrid": 8348,
      "ĠVirg": 8349,
      "otan": 8350,
      "awang": 8351,
      "Ġpesantren": 8352,
      "ĠSay": 8353,
      "ĠSip": 8354,
      "Ġsemesta": 8355,
      "Ġdicapai": 8356,
      "jahteraan": 8357,
      "obatkan": 8358,
      "Ġstr": 8359,
      "ĠNam": 8360,
      "Ġmulanya": 8361,
      "Ġdipergunakan": 8362,
      "tipe": 8363,
      "ĠSunan": 8364,
      "Ġjadwal": 8365,
      "lement": 8366,
      "ĠPus": 8367,
      "Ġratu": 8368,
      "ĠPD": 8369,
      "Ġmemperlihatkan": 8370,
      "86": 8371,
      "suku": 8372,
      "esak": 8373,
      "ĠCast": 8374,
      "ĠPerh": 8375,
      "Ġbabi": 8376,
      "Ġawak": 8377,
      "disingkat": 8378,
      "PU": 8379,
      "Ġperadaban": 8380,
      "ĠDev": 8381,
      "Ġpariwisata": 8382,
      "ware": 8383,
      "Ġskenario": 8384,
      "gy": 8385,
      "ĠShin": 8386,
      "Ġtembok": 8387,
      "buhkan": 8388,
      "ĠIbrahim": 8389,
      "Ġpeluncuran": 8390,
      "Ġpengarang": 8391,
      "ĠManaj": 8392,
      "rol": 8393,
      "Ġberanggota": 8394,
      "anton": 8395,
      "adat": 8396,
      "garia": 8397,
      "abila": 8398,
      "Ġmeja": 8399,
      "ĠTol": 8400,
      "ivora": 8401,
      "Ġregion": 8402,
      "Ġmurah": 8403,
      "aring": 8404,
      "orf": 8405,
      "ĠPener": 8406,
      "vei": 8407,
      "Ġkej": 8408,
      "ĠYud": 8409,
      "raft": 8410,
      "Ġdimenangkan": 8411,
      "ĠPelabuhan": 8412,
      "Ġberkel": 8413,
      "ĠAla": 8414,
      "urasi": 8415,
      "olasi": 8416,
      "Jika": 8417,
      "Ġbal": 8418,
      "Ġpetugas": 8419,
      "kand": 8420,
      "saat": 8421,
      "Pemb": 8422,
      "Ġkerabat": 8423,
      "Ġkolam": 8424,
      "ĠSisi": 8425,
      "enalan": 8426,
      "Ġpemro": 8427,
      "ĠVictoria": 8428,
      "ĠTanggal": 8429,
      "Ġrasio": 8430,
      "Ġdiisi": 8431,
      "ĠHaji": 8432,
      "Ġcuaca": 8433,
      "Ġkandidat": 8434,
      "argai": 8435,
      "ĠAdapun": 8436,
      "ĠWay": 8437,
      "Ġ65": 8438,
      "ĠHad": 8439,
      "entik": 8440,
      "Ġgerak": 8441,
      "2001": 8442,
      "BM": 8443,
      "ladi": 8444,
      "stensi": 8445,
      "UM": 8446,
      "ĠFe": 8447,
      "Ġmengajarkan": 8448,
      "ally": 8449,
      "osisinya": 8450,
      "jaman": 8451,
      "ĠEst": 8452,
      "ĠGolden": 8453,
      "Ġdirekam": 8454,
      "Ġ42": 8455,
      "ulatan": 8456,
      "ĠPesantren": 8457,
      "IA": 8458,
      "tualangan": 8459,
      "onsumsi": 8460,
      "Ġonlyinclude": 8461,
      "set": 8462,
      "Ġkasar": 8463,
      "Ġkutu": 8464,
      "Ġmenginginkan": 8465,
      "iriman": 8466,
      "Ġdisertai": 8467,
      "Ġmendatang": 8468,
      "jaga": 8469,
      "kol": 8470,
      "ĠNav": 8471,
      "ugi": 8472,
      "Ġq": 8473,
      "alisme": 8474,
      "Ġlevel": 8475,
      "ĠSMK": 8476,
      "ĠTah": 8477,
      "ĠSE": 8478,
      "Ġletaknya": 8479,
      "alifah": 8480,
      "76": 8481,
      "Ġkebiasaan": 8482,
      "Fab": 8483,
      "Ġmengadopsi": 8484,
      "Ġplatform": 8485,
      "Ġherbivora": 8486,
      "sembahkan": 8487,
      "ject": 8488,
      "ÏĦ": 8489,
      "Ġcadangan": 8490,
      "ĠRS": 8491,
      "egr": 8492,
      "emahan": 8493,
      "ĠNot": 8494,
      "gaimanapun": 8495,
      "ĠNews": 8496,
      "ime": 8497,
      "ualitas": 8498,
      "wilayah": 8499,
      "Ġkeg": 8500,
      "Ġanggur": 8501,
      "Ġkontak": 8502,
      "Ã£o": 8503,
      "Ġberharap": 8504,
      "bun": 8505,
      "Ġriset": 8506,
      "ĠTangerang": 8507,
      "tek": 8508,
      "ĠPenelitian": 8509,
      "Ġhakim": 8510,
      "omyza": 8511,
      "Ġmenampung": 8512,
      "ĠTon": 8513,
      "Ġ1938": 8514,
      "Ġkotanya": 8515,
      "get": 8516,
      "ns": 8517,
      "ĠKet": 8518,
      "Qur": 8519,
      "ĠSoeh": 8520,
      "Ġsulung": 8521,
      "wajiban": 8522,
      "zu": 8523,
      "Ġlemak": 8524,
      "ĠKebanyakan": 8525,
      "ancar": 8526,
      "71": 8527,
      "Ãł": 8528,
      "Ġpunggung": 8529,
      "Ġmembentang": 8530,
      "opia": 8531,
      "ĠVOC": 8532,
      "sumber": 8533,
      "Ġpermasa": 8534,
      "akmuran": 8535,
      "jun": 8536,
      "gaya": 8537,
      "Ġkeda": 8538,
      "ĠNatal": 8539,
      "enanya": 8540,
      "Ġperbuatan": 8541,
      "onfirmasi": 8542,
      "arungan": 8543,
      "ĠHitam": 8544,
      "ĠAgromy": 8545,
      "pol": 8546,
      "ajah": 8547,
      "Ġdipisahkan": 8548,
      "ĠMos": 8549,
      "Ġpaus": 8550,
      "Erica": 8551,
      "cak": 8552,
      "Ġsaraf": 8553,
      "Ġbatuan": 8554,
      "Ġbambu": 8555,
      "ĠKA": 8556,
      "osil": 8557,
      "ĠChris": 8558,
      "eknik": 8559,
      "ĠPersatuan": 8560,
      "onlyinclude": 8561,
      "Tan": 8562,
      "Ġdimakan": 8563,
      "Ġbukunya": 8564,
      "Ġ1933": 8565,
      "fo": 8566,
      "Ġnantinya": 8567,
      "Ġcantik": 8568,
      "2014": 8569,
      "Ġpakar": 8570,
      "Ġkandung": 8571,
      "ĠCr": 8572,
      "ĠFil": 8573,
      "ĠServ": 8574,
      "Ġpemahaman": 8575,
      "Ġdihancurkan": 8576,
      "ÑĢ": 8577,
      "tisi": 8578,
      "ĠBerikut": 8579,
      "Ġmengundang": 8580,
      "ĠGil": 8581,
      "uber": 8582,
      "Ġpengelolaan": 8583,
      "gh": 8584,
      "nilai": 8585,
      "Ġmenghilangkan": 8586,
      "adal": 8587,
      "ĠLand": 8588,
      "Ġberdua": 8589,
      "Neptunus": 8590,
      "Ġtahan": 8591,
      "Ġberulang": 8592,
      "Ġdisana": 8593,
      "Ġmenaklukkan": 8594,
      "edera": 8595,
      "96": 8596,
      "Ġmunculnya": 8597,
      "ĠProyek": 8598,
      "ĠMakedonia": 8599,
      "Ġinstrumen": 8600,
      "Ġberanggotakan": 8601,
      "Ġdiserang": 8602,
      "bung": 8603,
      "gereja": 8604,
      "Ġpersiapan": 8605,
      "ÏĤ": 8606,
      "inar": 8607,
      "Ġinsiden": 8608,
      "Ġyg": 8609,
      "ĠPekan": 8610,
      "zon": 8611,
      "Ġmenemui": 8612,
      "ĠLam": 8613,
      "eriksaan": 8614,
      "Ġadiknya": 8615,
      "gon": 8616,
      "ĠNobel": 8617,
      "Ġterinspirasi": 8618,
      "amboja": 8619,
      "ĠBala": 8620,
      "Ġrudal": 8621,
      "angkutan": 8622,
      "Ġberdarah": 8623,
      "ĠFederasi": 8624,
      "inyur": 8625,
      "Ġkadar": 8626,
      "Ġmengidentifikasi": 8627,
      "aster": 8628,
      "Ġfakultas": 8629,
      "Ġhanyalah": 8630,
      "mann": 8631,
      "ĠAsosiasi": 8632,
      "Ġreligi": 8633,
      "01": 8634,
      "Ġdimensi": 8635,
      "Ġditinggalkan": 8636,
      "Ġdominan": 8637,
      "ebas": 8638,
      "yaratan": 8639,
      "Ġterakhirnya": 8640,
      "ĠSaya": 8641,
      "iao": 8642,
      "ĠSeoul": 8643,
      "Ġum": 8644,
      "organisasi": 8645,
      "ĠWes": 8646,
      "atius": 8647,
      "Ġkonten": 8648,
      "abaceae": 8649,
      "Jumlah": 8650,
      "Lagu": 8651,
      "ensus": 8652,
      "Ġkosong": 8653,
      "Sep": 8654,
      "vatif": 8655,
      "Ġpelukis": 8656,
      "Ġpenganut": 8657,
      "itor": 8658,
      "endang": 8659,
      "Hal": 8660,
      "Kel": 8661,
      "Ġfederal": 8662,
      "Ġpenyimpanan": 8663,
      "ding": 8664,
      "Ġ).": 8665,
      "ĠSyekh": 8666,
      "ĠMuk": 8667,
      "ĠChir": 8668,
      "ĠGib": 8669,
      "zy": 8670,
      "Ġseng": 8671,
      "Ġpertarungan": 8672,
      "ĠTexas": 8673,
      "72": 8674,
      "Ġkembar": 8675,
      "Ġmerdeka": 8676,
      "Ġtuntutan": 8677,
      "elle": 8678,
      "ĠTamil": 8679,
      "ĠJe": 8680,
      "Ericales": 8681,
      "ĠGP": 8682,
      "ĠYoung": 8683,
      "Ġkong": 8684,
      "2003": 8685,
      "Ġtenggelam": 8686,
      "ĠSig": 8687,
      "diaan": 8688,
      "ĠAst": 8689,
      "Ġditandatangani": 8690,
      "Ġterdekat": 8691,
      "mel": 8692,
      "ĠPort": 8693,
      "Ġmengisahkan": 8694,
      "Ġenzim": 8695,
      "Ġoperasional": 8696,
      "ĠHulu": 8697,
      "Ġ1918": 8698,
      "ublic": 8699,
      "ripsi": 8700,
      "zen": 8701,
      "Ġhidangan": 8702,
      "Jo": 8703,
      "Ġsiklus": 8704,
      "imbangan": 8705,
      "Ġlegislatif": 8706,
      "Ġmerayakan": 8707,
      "ĠPL": 8708,
      "zidae": 8709,
      "Ġbeg": 8710,
      "ĠBoh": 8711,
      "Ġberkas": 8712,
      "Ġroh": 8713,
      "Ġtajam": 8714,
      "Ġdiha": 8715,
      "Ġpap": 8716,
      "ebak": 8717,
      "Ġcincin": 8718,
      "ĠHor": 8719,
      "artikan": 8720,
      "ĠChicago": 8721,
      "ĠEmpat": 8722,
      "mbang": 8723,
      "ĠJose": 8724,
      "ĠHouse": 8725,
      "Ġberlayar": 8726,
      "Ġ),": 8727,
      "ĠDor": 8728,
      "ĠRena": 8729,
      "Ab": 8730,
      "GM": 8731,
      "Ġbupati": 8732,
      "inir": 8733,
      "bach": 8734,
      "Ġadi": 8735,
      "ĠPerb": 8736,
      "Ġgenre": 8737,
      "Ġperekonomian": 8738,
      "cy": 8739,
      "Ġkarang": 8740,
      "Ġpengendali": 8741,
      "ĠBulgaria": 8742,
      "Ġkud": 8743,
      "ĠSala": 8744,
      "antis": 8745,
      "stribusikan": 8746,
      "Ġrezim": 8747,
      "Ġinteraksi": 8748,
      "Istilah": 8749,
      "81": 8750,
      "well": 8751,
      "lamasi": 8752,
      "Ġbermula": 8753,
      "ĠPart": 8754,
      "Ġmengancam": 8755,
      "Ġaudisi": 8756,
      "Ġmenyumbang": 8757,
      "74": 8758,
      "Ġund": 8759,
      "Ġlazim": 8760,
      "ecah": 8761,
      "ĠSik": 8762,
      "ism": 8763,
      "abet": 8764,
      "edah": 8765,
      "Ġnelayan": 8766,
      "ĠSamp": 8767,
      "andakan": 8768,
      "ukuh": 8769,
      "Tipula": 8770,
      "ucapan": 8771,
      "Ð½": 8772,
      "ĠDaud": 8773,
      "ĠMadura": 8774,
      "ĠChan": 8775,
      "Ġkeman": 8776,
      "Ġpelaku": 8777,
      "Ġvokalis": 8778,
      "Ġmeyakinkan": 8779,
      "Ġdibanding": 8780,
      "Ġpenjelasan": 8781,
      "ĠHollywood": 8782,
      "Ġmenyak": 8783,
      "ĠLang": 8784,
      "onsel": 8785,
      "ohonan": 8786,
      "Ġwadah": 8787,
      "Ġpermasalahan": 8788,
      "Ġsay": 8789,
      "Ġpribumi": 8790,
      "buan": 8791,
      "los": 8792,
      "ibi": 8793,
      "Ġdinilai": 8794,
      "2000": 8795,
      "Ġnada": 8796,
      "ĠFad": 8797,
      "Ġpetern": 8798,
      "misalnya": 8799,
      "Ġbung": 8800,
      "ampaikan": 8801,
      "Ġdibebaskan": 8802,
      "tive": 8803,
      "Ġklaim": 8804,
      "Ġrantai": 8805,
      "pulau": 8806,
      "Ġcom": 8807,
      "Sebagian": 8808,
      "Ġ1935": 8809,
      "ĠKecil": 8810,
      "Ġbot": 8811,
      "ĠJambi": 8812,
      "Ġseks": 8813,
      "ĠMcC": 8814,
      "ĠHitler": 8815,
      "perk": 8816,
      "Sejarah": 8817,
      "ĠSeluruh": 8818,
      "Ġrap": 8819,
      "Ġlakukan": 8820,
      "onto": 8821,
      "ĠMassa": 8822,
      "Fabaceae": 8823,
      "cer": 8824,
      "Ġkedokteran": 8825,
      "Ġmengam": 8826,
      "Ġteologi": 8827,
      "Ġpedesaan": 8828,
      "ĠPrefektur": 8829,
      "ols": 8830,
      "ĠKerja": 8831,
      "eher": 8832,
      "Ġkontemporer": 8833,
      "eskripsikan": 8834,
      "Ġtebal": 8835,
      "NC": 8836,
      "Ġeksi": 8837,
      "Ġternak": 8838,
      "Ġmenyebarkan": 8839,
      "evin": 8840,
      "Ġdipaksa": 8841,
      "ĠDinas": 8842,
      "Ġsasaran": 8843,
      "ĠFederal": 8844,
      "Ġiman": 8845,
      "Ġbudi": 8846,
      "onakan": 8847,
      "ĠSai": 8848,
      "ĠHein": 8849,
      "och": 8850,
      "Ġpangkalan": 8851,
      "ĠBanyu": 8852,
      "etro": 8853,
      "Ġdicetak": 8854,
      "Ġgugus": 8855,
      "esel": 8856,
      "untungkan": 8857,
      "ĠKabinet": 8858,
      "benda": 8859,
      "Ġmuka": 8860,
      "ahana": 8861,
      "Ġcur": 8862,
      "Ġkesadaran": 8863,
      "ĠShi": 8864,
      "ĠKeduanya": 8865,
      "asukan": 8866,
      "iger": 8867,
      "ĠKroasia": 8868,
      "Pol": 8869,
      "orks": 8870,
      "Ġflu": 8871,
      "Ġtek": 8872,
      "ĠDj": 8873,
      "Ġketat": 8874,
      "Ġpenambahan": 8875,
      "iku": 8876,
      "Ġpemegang": 8877,
      "ĠProduc": 8878,
      "track": 8879,
      "ĠMongol": 8880,
      "Ġsit": 8881,
      "ĠCel": 8882,
      "ĠAlbert": 8883,
      "Ġjagung": 8884,
      "Ġkeberhasilan": 8885,
      "ĠJembatan": 8886,
      "ĠJurusan": 8887,
      "enny": 8888,
      "Ġsesungguhnya": 8889,
      "Ġarsitek": 8890,
      "ĠKuba": 8891,
      "Ġmac": 8892,
      "Ġmelancarkan": 8893,
      "Ġ1937": 8894,
      "Ġ250": 8895,
      "Universitas": 8896,
      "Ġdidominasi": 8897,
      "Ġsesi": 8898,
      "tet": 8899,
      "Ġlen": 8900,
      "Fabales": 8901,
      "Ġvisual": 8902,
      "Ġpendar": 8903,
      "DS": 8904,
      "anag": 8905,
      "Ġkepri": 8906,
      "kson": 8907,
      "ophia": 8908,
      "Ġproperti": 8909,
      "Ġhistoris": 8910,
      "Ġkron": 8911,
      "ĠAC": 8912,
      "Ġcetak": 8913,
      "ics": 8914,
      "2002": 8915,
      "FI": 8916,
      "des": 8917,
      "ĠMadi": 8918,
      "edudukan": 8919,
      "Ġmassal": 8920,
      "Kemudian": 8921,
      "cc": 8922,
      "Ġeksperim": 8923,
      "ĠMayor": 8924,
      "Ġdokumenter": 8925,
      "May": 8926,
      "Ġnet": 8927,
      "trum": 8928,
      "olahan": 8929,
      "Ġkajian": 8930,
      "Ġ39": 8931,
      "encan": 8932,
      "Ġtor": 8933,
      "ĠBig": 8934,
      "ĠEast": 8935,
      "Ġbertarung": 8936,
      "Ġhelik": 8937,
      "Ġpon": 8938,
      "Ġlapis": 8939,
      "ĠReal": 8940,
      "Ġtiket": 8941,
      "ĠSec": 8942,
      "ĠLeon": 8943,
      "kelompok": 8944,
      "Ġladang": 8945,
      "ĠBug": 8946,
      "ĠResi": 8947,
      "ĠYan": 8948,
      "Ġberdamp": 8949,
      "wen": 8950,
      "ĠWon": 8951,
      "Ġmempersiapkan": 8952,
      "ĠJohann": 8953,
      "isika": 8954,
      "ilaian": 8955,
      "Ġemosi": 8956,
      "atap": 8957,
      "Ġtantangan": 8958,
      "Ġ44": 8959,
      "ĠBatak": 8960,
      "ach": 8961,
      "ady": 8962,
      "atuhkan": 8963,
      "PB": 8964,
      "likan": 8965,
      "won": 8966,
      "ĠStan": 8967,
      "Ġhor": 8968,
      "ble": 8969,
      "ĠSS": 8970,
      "egasi": 8971,
      "Ġcedera": 8972,
      "Ġ1936": 8973,
      "Ġá": 8974,
      "Ġmembant": 8975,
      "Ġbaku": 8976,
      "Ġpemandangan": 8977,
      "Ġdiselesaikan": 8978,
      "ĠBidang": 8979,
      "Ġhebat": 8980,
      "cia": 8981,
      "Ġpedang": 8982,
      "Pulau": 8983,
      "inja": 8984,
      "ulik": 8985,
      "Ġbiologi": 8986,
      "Ġrespon": 8987,
      "ĠTari": 8988,
      "Ġpengas": 8989,
      "ĠChar": 8990,
      "Ġmandiri": 8991,
      "Ġtembakan": 8992,
      "uting": 8993,
      "fiah": 8994,
      "Ġbertahun": 8995,
      "ĠSuatu": 8996,
      "Ġmuslim": 8997,
      "ĠKart": 8998,
      "ĠFA": 8999,
      "ĠFl": 9000,
      "Ġpermukiman": 9001,
      "ista": 9002,
      "Ġberani": 9003,
      "Ġrutin": 9004,
      "Ġdisampaikan": 9005,
      "ĠYuan": 9006,
      "ĠWeb": 9007,
      "ĠTir": 9008,
      "ĠPermainan": 9009,
      "Ġdihentikan": 9010,
      "Ġberupaya": 9011,
      "epung": 9012,
      "atistik": 9013,
      "ĠMalaya": 9014,
      "inah": 9015,
      "Ġdibeli": 9016,
      "sedur": 9017,
      "Ġistimewa": 9018,
      "ahlian": 9019,
      "ĠÄ": 9020,
      "Ġ1000": 9021,
      "ĠNick": 9022,
      "Ġra": 9023,
      "ĠAgromyzidae": 9024,
      "Gereja": 9025,
      "ugos": 9026,
      "ĠSekarang": 9027,
      "ĠSoeharto": 9028,
      "My": 9029,
      "kas": 9030,
      "Ġbunyi": 9031,
      "ĠSib": 9032,
      "Ġpengisi": 9033,
      "Ġkonsumen": 9034,
      "Ġtipis": 9035,
      "ĠToy": 9036,
      "ĠHai": 9037,
      "ĠPand": 9038,
      "Ġreferensi": 9039,
      "migrasi": 9040,
      "gabungan": 9041,
      "Dan": 9042,
      "Dua": 9043,
      "tuanya": 9044,
      "Ġanggotanya": 9045,
      "jung": 9046,
      "ingkatkan": 9047,
      "Ġcontohnya": 9048,
      "Ġpaket": 9049,
      "ĠNamanya": 9050,
      "Ġmemberitahu": 9051,
      "ĠLen": 9052,
      "onge": 9053,
      "Ġperlahan": 9054,
      "Ġpelanggaran": 9055,
      "Ġmenyaksikan": 9056,
      "Ġ×": 9057,
      "Ġok": 9058,
      "Ġkontribusi": 9059,
      "ĠâĢĿ,": 9060,
      "ĠKamboja": 9061,
      "ĠZhou": 9062,
      "irah": 9063,
      "ĠAnna": 9064,
      "73": 9065,
      "ĠDah": 9066,
      "hard": 9067,
      "Ġputrinya": 9068,
      "Ġdiplomatik": 9069,
      "Ġkedi": 9070,
      "avorit": 9071,
      "Chrys": 9072,
      "ĠDig": 9073,
      "ginya": 9074,
      "ĠSony": 9075,
      "akna": 9076,
      "ĠKonferensi": 9077,
      "rumah": 9078,
      "angkau": 9079,
      "Ïģ": 9080,
      "Ġ*": 9081,
      "Ġpengeb": 9082,
      "Ġmahal": 9083,
      "ĠAntara": 9084,
      "ĠMahasiswa": 9085,
      "Ġjer": 9086,
      "ĠRW": 9087,
      "Ġbersatu": 9088,
      "sun": 9089,
      "Ġperhitungan": 9090,
      "ĠPerpustakaan": 9091,
      "uay": 9092,
      "badian": 9093,
      "Ġromb": 9094,
      "ĠMelalui": 9095,
      "dua": 9096,
      "Ġkesi": 9097,
      "ited": 9098,
      "ĠDim": 9099,
      "Ġotot": 9100,
      "rahat": 9101,
      "82": 9102,
      "Ġmode": 9103,
      "ĠDC": 9104,
      "Ġï": 9105,
      "usnya": 9106,
      "gunya": 9107,
      "gel": 9108,
      "Ġkelamin": 9109,
      "jadwalkan": 9110,
      "ĠSton": 9111,
      "Ġdidefinisikan": 9112,
      "Ġkamu": 9113,
      "ĠTal": 9114,
      "lish": 9115,
      "Ġah": 9116,
      "Ġmenyarankan": 9117,
      "itri": 9118,
      "eme": 9119,
      "imaan": 9120,
      "Ġfilsuf": 9121,
      "Ġujian": 9122,
      "umbia": 9123,
      "ĠSyah": 9124,
      "ĠAlas": 9125,
      "ĠBatang": 9126,
      "Ġlemp": 9127,
      "ĠZhang": 9128,
      "buruk": 9129,
      "yian": 9130,
      "ĠWood": 9131,
      "Ġkeponakan": 9132,
      "Ser": 9133,
      "akau": 9134,
      "ĠXII": 9135,
      "Ex": 9136,
      "Ġdibatasi": 9137,
      "Ġpersahabatan": 9138,
      "Ġmotif": 9139,
      "dit": 9140,
      "ĠTay": 9141,
      "lian": 9142,
      "met": 9143,
      "Ġaneh": 9144,
      "Ger": 9145,
      "etail": 9146,
      "gro": 9147,
      "Ġare": 9148,
      "ĠBudi": 9149,
      "Ġgarapan": 9150,
      "Ġmenyusul": 9151,
      "ĠVik": 9152,
      "empurn": 9153,
      "Ġpetunjuk": 9154,
      "orth": 9155,
      "ehan": 9156,
      "entasikan": 9157,
      "alyon": 9158,
      "Ġjend": 9159,
      "Ġmelakukannya": 9160,
      "KS": 9161,
      "Ġdiatas": 9162,
      "ĠKini": 9163,
      "Ġbakal": 9164,
      "ularitas": 9165,
      "Mah": 9166,
      "ĠChannel": 9167,
      "ovi": 9168,
      "ĠCarol": 9169,
      "Ġnom": 9170,
      "anam": 9171,
      "ĠGala": 9172,
      "ution": 9173,
      "ĠStu": 9174,
      "elin": 9175,
      "Ġrup": 9176,
      "Ġgun": 9177,
      "ather": 9178,
      "Ġtabel": 9179,
      "ĠToba": 9180,
      "Ġpengawasan": 9181,
      "olok": 9182,
      "kus": 9183,
      "pus": 9184,
      "Ġperut": 9185,
      "iawan": 9186,
      "Ġpinjaman": 9187,
      "Ġkedalaman": 9188,
      "tales": 9189,
      "Ġdialam": 9190,
      "upuk": 9191,
      "dola": 9192,
      "ĠSalib": 9193,
      "ĠFriedrich": 9194,
      "Sistem": 9195,
      "yono": 9196,
      "Ġinfrastruktur": 9197,
      "ĠGon": 9198,
      "onso": 9199,
      "Ġlisensi": 9200,
      "Ġmembebaskan": 9201,
      "Ġdijadwalkan": 9202,
      "ĠRud": 9203,
      "Ġmengganggu": 9204,
      "ĠPolisi": 9205,
      "Ġdarurat": 9206,
      "84": 9207,
      "ette": 9208,
      "Ġmengusir": 9209,
      "Ġpenangk": 9210,
      "Ġ1928": 9211,
      "Ġkabinet": 9212,
      "Eks": 9213,
      "lock": 9214,
      "Ġpengambilan": 9215,
      "owongan": 9216,
      "elly": 9217,
      "Ġkoran": 9218,
      "ĠPeristiwa": 9219,
      "âĢľ": 9220,
      "ĠÃĹ": 9221,
      "Bel": 9222,
      "Ġsekuel": 9223,
      "ĠRoad": 9224,
      "ĠInformasi": 9225,
      "apur": 9226,
      "Ġpotongan": 9227,
      "Ġseniornya": 9228,
      "uban": 9229,
      "Ġditahan": 9230,
      "elidikan": 9231,
      "ken": 9232,
      "ografer": 9233,
      "Myrtales": 9234,
      "Ġsuasana": 9235,
      "ĠWilliams": 9236,
      "Ġtent": 9237,
      "ĠJr": 9238,
      "emukakan": 9239,
      "Ġformasi": 9240,
      "IC": 9241,
      "yle": 9242,
      "Ġgalak": 9243,
      "ww": 9244,
      "ĠPertandingan": 9245,
      "Ġmaksimum": 9246,
      "Ġradar": 9247,
      "okerto": 9248,
      "engkapan": 9249,
      "osaurus": 9250,
      "ĠUsaha": 9251,
      "ausan": 9252,
      "utur": 9253,
      "ĠRog": 9254,
      "ĠBatalyon": 9255,
      "besaran": 9256,
      "Dr": 9257,
      "ĠYam": 9258,
      "ĠChang": 9259,
      "AC": 9260,
      "gih": 9261,
      "hol": 9262,
      "esm": 9263,
      "ĠBagi": 9264,
      "Ġtransfer": 9265,
      "onaris": 9266,
      "Ġreguler": 9267,
      "ĠHon": 9268,
      "intasan": 9269,
      "ĠPrusia": 9270,
      "masin": 9271,
      "estarikan": 9272,
      "Ġradiasi": 9273,
      "ĠHindi": 9274,
      "ĠChampionship": 9275,
      "Ġklasifikasi": 9276,
      "Ġmembatasi": 9277,
      "ĠAdv": 9278,
      "tol": 9279,
      "yasa": 9280,
      "eto": 9281,
      "Ġbaju": 9282,
      "Ġekspor": 9283,
      "Ġsubjek": 9284,
      "Ġoperator": 9285,
      "Ġkebangk": 9286,
      "ĠSaudara": 9287,
      "Ġdihukum": 9288,
      "hen": 9289,
      "Ġperumahan": 9290,
      "ĠWan": 9291,
      "Ġsisanya": 9292,
      "Ġjuru": 9293,
      "ĠHubungan": 9294,
      "Ġditarik": 9295,
      "emon": 9296,
      "tivasi": 9297,
      "Onthophagus": 9298,
      "ĠBekasi": 9299,
      "83": 9300,
      "Ġjurnalis": 9301,
      "ĠLok": 9302,
      "alaya": 9303,
      "Ġ1929": 9304,
      "--": 9305,
      "IT": 9306,
      "sih": 9307,
      "ĠKisah": 9308,
      "otaan": 9309,
      "ecahan": 9310,
      "Bob": 9311,
      "Ġdibawakan": 9312,
      "Ġminat": 9313,
      "ĠOnthophagus": 9314,
      "led": 9315,
[...]
