{
  "version": "1.0",
  "truncation": null,
  "padding": null,
  "added_tokens": [
    {
      "id": 0,
      "content": "<|pad|>",
      "single_word": false,
      "lstrip": false,
      "rstrip": false,
      "normalized": false,
      "special": true
    },
    {
      "id": 1,
      "content": "<|eos|>",
      "single_word": false,
      "lstrip": false,
      "rstrip": false,
      "normalized": false,
      "special": true
    },
    {
      "id": 2,
      "content": "<|user|>",
      "single_word": false,
      "lstrip": false,
      "rstrip": false,
      "normalized": false,
      "special": true
    },
    {
      "id": 3,
      "content": "<|assistant|>",
      "single_word": false,
      "lstrip": false,
      "rstrip": false,
      "normalized": false,
      "special": true
    }
  ],
  "normalizer": null,
  "pre_tokenizer": {
    "type": "ByteLevel",
    "add_prefix_space": false,
    "trim_offsets": true,
    "use_regex": true
  },
  "post_processor": null,
  "decoder": {
    "type": "ByteLevel",
    "add_prefix_space": true,
    "trim_offsets": true,
    "use_regex": true
  },
  "model": {
    "type": "BPE",
    "dropout": null,
    "unk_token": null,
    "continuing_subword_prefix": null,
    "end_of_word_suffix": null,
    "fuse_unk": false,
    "byte_fallback": false,
    "ignore_merges": false,
    "vocab": {
      "<|pad|>": 0,
      "<|eos|>": 1,
      "<|user|>": 2,
      "<|assistant|>": 3,
      "!": 4,
      "\"": 5,
      "#": 6,
      "$": 7,
      "%": 8,
      "&": 9,
      "'": 10,
      "(": 11,
      ")": 12,
      "*": 13,
      "+": 14,
      ",": 15,
      "-": 16,
      ".": 17,
      "/": 18,
      "0": 19,
      "1": 20,
      "2": 21,
      "3": 22,
      "4": 23,
      "5": 24,
      "6": 25,
      "7": 26,
      "8": 27,
      "9": 28,
      ":": 29,
      ";": 30,
      "<": 31,
      "=": 32,
      ">": 33,
      "?": 34,
      "@": 35,
      "A": 36,
      "B": 37,
      "C": 38,
      "D": 39,
      "E": 40,
      "F": 41,
      "G": 42,
      "H": 43,
      "I": 44,
      "J": 45,
      "K": 46,
      "L": 47,
      "M": 48,
      "N": 49,
      "O": 50,
      "P": 51,
      "Q": 52,
      "R": 53,
      "S": 54,
      "T": 55,
      "U": 56,
      "V": 57,
      "W": 58,
      "X": 59,
      "Y": 60,
      "Z": 61,
      "[": 62,
      "]": 63,
      "_": 64,
      "`": 65,
      "a": 66,
      "b": 67,
      "c": 68,
      "d": 69,
      "e": 70,
      "f": 71,
      "g": 72,
      "h": 73,
      "i": 74,
      "j": 75,
      "k": 76,
      "l": 77,
      "m": 78,
      "n": 79,
      "o": 80,
      "p": 81,
      "q": 82,
      "r": 83,
      "s": 84,
      "t": 85,
      "u": 86,
      "v": 87,
      "w": 88,
      "x": 89,
      "y": 90,
      "z": 91,
      "|": 92,
      "~": 93,
      "¡": 94,
      "¢": 95,
      "£": 96,
      "¤": 97,
      "¥": 98,
      "¦": 99,
      "§": 100,
      "¨": 101,
      "©": 102,
      "ª": 103,
      "«": 104,
      "®": 105,
      "¯": 106,
      "°": 107,
      "±": 108,
      "²": 109,
      "³": 110,
      "´": 111,
      "µ": 112,
      "¶": 113,
      "¸": 114,
      "¹": 115,
      "º": 116,
      "»": 117,
      "½": 118,
      "¾": 119,
      "¿": 120,
      "Â": 121,
      "Ã": 122,
      "Ð": 123,
      "á": 124,
      "â": 125,
      "ä": 126,
      "å": 127,
      "æ": 128,
      "ç": 129,
      "è": 130,
      "ï": 131,
      "ð": 132,
      "Ċ": 133,
      "Ġ": 134,
      "Ģ": 135,
      "ģ": 136,
      "Ĥ": 137,
      "ĥ": 138,
      "ħ": 139,
      "Ĩ": 140,
      "ĩ": 141,
      "Ī": 142,
      "ī": 143,
      "Ĭ": 144,
      "ĭ": 145,
      "Į": 146,
      "į": 147,
      "İ": 148,
      "ı": 149,
      "Ĳ": 150,
      "ĳ": 151,
      "Ĵ": 152,
      "ĵ": 153,
      "Ķ": 154,
      "ķ": 155,
      "ĸ": 156,
      "Ĺ": 157,
      "ĺ": 158,
      "Ļ": 159,
      "ļ": 160,
      "Ľ": 161,
      "ľ": 162,
      "Ŀ": 163,
      "ŀ": 164,
      "Ł": 165,
      "ł": 166,
      "Ń": 167,
      "an": 168,
      "er": 169,
      "en": 170,
      "Ġd": 171,
      "ar": 172,
      "Ġm": 173,
      "Ġp": 174,
      "at": 175,
      "si": 176,
      "in": 177,
      "ang": 178,
      "Ġk": 179,
      "al": 180,
      "Ġt": 181,
      "ak": 182,
      "am": 183,
      "Ġs": 184,
      "Ġb": 185,
      "un": 186,
      "ah": 187,
      "em": 188,
      "el": 189,
      "as": 190,
      "kan": 191,
      "on": 192,
      "Ġmen": 193,
      "Ġdi": 194,
      "tu": 195,
      "ad": 196,
      "asi": 197,
      "Ġy": 198,
      "or": 199,
      "Ġyang": 200,
      "ĠP": 201,
      "it": 202,
      "ap": 203,
      "ik": 204,
      "es": 205,
      "ya": 206,
      "is": 207,
      "Ġl": 208,
      "ĠB": 209,
      "ek": 210,
      "ĠS": 211,
      "Ġdan": 212,
      "ing": 213,
      "ga": 214,
      "us": 215,
      "Ġper": 216,
      "eb": 217,
      "eng": 218,
      "et": 219,
      "il": 220,
      "ĠK": 221,
      "Ġber": 222,
      "Ġter": 223,
      "ut": 224,
      "**": 225,
      "ur": 226,
      "ĠI": 227,
      "ĠM": 228,
      "Ġin": 229,
      "ari": 230,
      "ai": 231,
      "ent": 232,
      "uk": 233,
      "ĠA": 234,
      "Ġh": 235,
      "om": 236,
      "um": 237,
      "tuk": 238,
      "ĠD": 239,
      "ĠT": 240,
      "Ġun": 241,
      "ro": 242,
      "Ġ(": 243,
      "ta": 244,
      "Ġmem": 245,
      "Ġr": 246,
      "Ġj": 247,
      "ti": 248,
      "Ġuntuk": 249,
      "ĠJ": 250,
      "ul": 251,
      "Ġke": 252,
      "ara": 253,
      "ung": 254,
      "ol": 255,
      "id": 256,
      "akan": 257,
      "ĠIn": 258,
      "ir": 259,
      "ata": 260,
      "ed": 261,
      "esi": 262,
      "--": 263,
      "Ġmeng": 264,
      "im": 265,
      "ada": 266,
      "gi": 267,
      "âĢ": 268,
      "alam": 269,
      "engan": 270,
      "nya": 271,
      "Ġ2": 272,
      "ama": 273,
      "Ġdari": 274,
      "ĠR": 275,
      "Ġdengan": 276,
      "ami": 277,
      "ab": 278,
      "emb": 279,
      "ep": 280,
      "tr": 281,
      "Ġc": 282,
      "Ġpro": 283,
      "ih": 284,
      "Ġini": 285,
      "aw": 286,
      "Ġn": 287,
      "ia": 288,
      "don": 289,
      "eg": 290,
      "uat": 291,
      "esia": 292,
      "ĠâĢ": 293,
      "Ġpen": 294,
      "donesia": 295,
      "angan": 296,
      "and": 297,
      "Ġdalam": 298,
      "Ġ1": 299,
      "ĠIndonesia": 300,
      "uh": 301,
      "aan": 302,
      "ĠC": 303,
      "ay": 304,
      "ud": 305,
      "amp": 306,
      "up": 307,
      "adi": 308,
      "aga": 309,
      "eh": 310,
      "per": 311,
      "ĠL": 312,
      "ok": 313,
      "ukan": 314,
      "Ġmel": 315,
      "ant": 316,
      "ĠN": 317,
      "Ġf": 318,
      "Ġmenj": 319,
      "idak": 320,
      "ec": 321,
      "ĠH": 322,
      "Ġg": 323,
      "02": 324,
      "Ġpeng": 325,
      "atan": 326,
      "ati": 327,
      "aya": 328,
      "aj": 329,
      "akar": 330,
      "00": 331,
      "Ġsi": 332,
      "Ġkami": 333,
      "eri": 334,
      "Ġseb": 335,
      "Ġtidak": 336,
      "Ġ|": 337,
      "isi": 338,
      "ub": 339,
      "ĠâĢĶ": 340,
      "duk": 341,
      "Ġmemb": 342,
      "akarta": 343,
      "Ġpers": 344,
      "ac": 345,
      "ag": 346,
      "usah": 347,
      "itas": 348,
      "ĠE": 349,
      "end": 350,
      "Ġ\"": 351,
      "ĠU": 352,
      "angk": 353,
      "uga": 354,
      "Ġpada": 355,
      "onal": 356,
      "ot": 357,
      "aran": 358,
      "Ġ202": 359,
      "agi": 360,
      "ĠG": 361,
      "Ġw": 362,
      "atau": 363,
      "Ġatau": 364,
      "angg": 365,
      "Ġkon": 366,
      "ja": 367,
      "Ġters": 368,
      "ebut": 369,
      "ebih": 370,
      "entang": 371,
      "Ġjuga": 372,
      "por": 373,
      "Ġi": 374,
      "alu": 375,
      "AN": 376,
      ":**": 377,
      "anan": 378,
      "alah": 379,
      "Ġmas": 380,
      "Ġsel": 381,
      "orm": 382,
      "Ġtentang": 383,
      "Ġsek": 384,
      "ita": 385,
      "Ġlebih": 386,
      "agai": 387,
      "ĠJakarta": 388,
      "st": 389,
      "gr": 390,
      "osi": 391,
      "Ġmer": 392,
      "ingk": 393,
      "ib": 394,
      "od": 395,
      "elah": 396,
      "ran": 397,
      "ip": 398,
      "tif": 399,
      "Ġpem": 400,
      "Ġmeny": 401,
      "Ġpel": 402,
      "Ġpemb": 403,
      "Ġtersebut": 404,
      "ali": 405,
      "apat": 406,
      "Ġmenjadi": 407,
      "usi": 408,
      "est": 409,
      "int": 410,
      "uan": 411,
      "ĠPer": 412,
      "api": 413,
      "ĠF": 414,
      "anj": 415,
      "Ġak": 416,
      "op": 417,
      "Ġitu": 418,
      "Ġpr": 419,
      "ter": 420,
      "tur": 421,
      "Ġ#": 422,
      "Ġakan": 423,
      "amb": 424,
      "AR": 425,
      "ain": 426,
      "Ġek": 427,
      "usahaan": 428,
      "ahan": 429,
      "Buat": 430,
      "anya": 431,
      "Ġad": 432,
      "emp": 433,
      "edia": 434,
      "gram": 435,
      "Ġbis": 436,
      "ungan": 437,
      "erja": 438,
      "Ġ3": 439,
      "Ġproduk": 440,
      "uj": 441,
      "ahun": 442,
      "Ġser": 443,
      "ĠW": 444,
      "Ġbagi": 445,
      "----": 446,
      "ic": 447,
      "Ġkom": 448,
      "asional": 449,
      "ement": 450,
      "ian": 451,
      "yar": 452,
      "ej": 453,
      "Ġkep": 454,
      "form": 455,
      "akat": 456,
      "arga": 457,
      "wa": 458,
      "Ġv": 459,
      "ses": 460,
      "Ġ2026": 461,
      "ingga": 462,
      "atu": 463,
      "aman": 464,
      "asan": 465,
      "aru": 466,
      "ua": 467,
      "ĠAn": 468,
      "yarakat": 469,
      "Ġ'": 470,
      "Ġmemper": 471,
      "Ġberb": 472,
      "Ġpas": 473,
      "ob": 474,
      "Ġtelah": 475,
      "oleh": 476,
      "istr": 477,
      "uruh": 478,
      "Ġperusahaan": 479,
      "ana": 480,
      "ikasi": 481,
      "Ġ-": 482,
      "Ġ5": 483,
      "alan": 484,
      "Ġket": 485,
      "antara": 486,
      "had": 487,
      "Ġsec": 488,
      "esar": 489,
      "au": 490,
      "aik": 491,
      "Ġmasyarakat": 492,
      "Ġmenc": 493,
      "Ġbah": 494,
      "orpor": 495,
      "Ġberk": 496,
      "Ġada": 497,
      "enc": 498,
      "Ġadalah": 499,
      "ev": 500,
      "Ġsecara": 501,
      "ilai": 502,
      "ew": 503,
      "Ġkeb": 504,
      "Ġkar": 505,
      "asil": 506,
      ",\"": 507,
      "Ġdapat": 508,
      "alui": 509,
      "rand": 510,
      "utu": 511,
      "Ġset": 512,
      "Ġmend": 513,
      "akukan": 514,
      "asa": 515,
      "ĠPr": 516,
      "nis": 517,
      "ensi": 518,
      "aat": 519,
      "ikan": 520,
      "ĠO": 521,
      "tor": 522,
      "utan": 523,
      "Ġtahun": 524,
      "ingkat": 525,
      "ri": 526,
      "elum": 527,
      "ong": 528,
      "Ġkel": 529,
      "Ġhingga": 530,
      "Ġsebagai": 531,
      "ARA": 532,
      "aikan": 533,
      "lu": 534,
      "Ġoleh": 535,
      "udah": 536,
      "ena": 537,
      "onom": 538,
      "Ġbahwa": 539,
      "TARA": 540,
      "Ġkorpor": 541,
      "Ġbukan": 542,
      "Buatkan": 543,
      "da": 544,
      "ers": 545,
      "Ġtet": 546,
      "ital": 547,
      "rans": 548,
      "istrik": 549,
      "tama": 550,
      "ĠPT": 551,
      "Ġkorporasi": 552,
      "ch": 553,
      "yak": 554,
      "awa": 555,
      "Ġmelalui": 556,
      "ow": 557,
      "Ġ[": 558,
      "Ġsem": 559,
      "atif": 560,
      "gun": 561,
      "ĠPro": 562,
      "Ġo": 563,
      "re": 564,
      "ind": 565,
      "---": 566,
      "Ġbisa": 567,
      "Ġserta": 568,
      "ĠSel": 569,
      "ilik": 570,
      "le": 571,
      "aca": 572,
      "ika": 573,
      "ig": 574,
      "ef": 575,
      "Ġkes": 576,
      "ess": 577,
      "ni": 578,
      "ov": 579,
      "erint": 580,
      "ra": 581,
      "ani": 582,
      "angs": 583,
      "Ġterb": 584,
      "ulai": 585,
      "ota": 586,
      "Ġhari": 587,
      ").": 588,
      "vest": 589,
      "ener": 590,
      "ustr": 591,
      "anc": 592,
      "ĠPL": 593,
      "ingg": 594,
      "Ġbaru": 595,
      "Ġdis": 596,
      "ilis": 597,
      "apa": 598,
      "Ġtek": 599,
      "erintah": 600,
      "Ġtan": 601,
      "unan": 602,
      "ĠRp": 603,
      "ons": 604,
      "men": 605,
      "og": 606,
      "Ġprogram": 607,
      "ĠBer": 608,
      "Ġhanya": 609,
      "Ġ4": 610,
      "ate": 611,
      "os": 612,
      "ulan": 613,
      "art": 614,
      "asih": 615,
      "ðŁ": 616,
      "stem": 617,
      "amu": 618,
      "Ġ**": 619,
      "Ġseluruh": 620,
      "Kami": 621,
      "onomi": 622,
      "Ġkem": 623,
      "itor": 624,
      "Ġkepada": 625,
      "iap": 626,
      "lah": 627,
      "Ġdib": 628,
      "ayanan": 629,
      "atakan": 630,
      "Ġneg": 631,
      "uta": 632,
      "aku": 633,
      "eka": 634,
      "tar": 635,
      "Ġtrans": 636,
      "Ġkata": 637,
      "uran": 638,
      "Ġrel": 639,
      "ual": 640,
      "Ġsej": 641,
      "arkan": 642,
      "ank": 643,
      "Ġind": 644,
      "ĠâĢľ": 645,
      "Ġan": 646,
      "pa": 647,
      "Ġmedia": 648,
      "Ġsep": 649,
      "Ġsudah": 650,
      "Ġrilis": 651,
      "Ġlistrik": 652,
      "omp": 653,
      "ANTARA": 654,
      "Ġdil": 655,
      "Ġbrand": 656,
      "unj": 657,
      "angsung": 658,
      "Ġuj": 659,
      "âĢĿ": 660,
      "hadap": 661,
      "ima": 662,
      "ĠMen": 663,
      "ĠV": 664,
      "Ġsatu": 665,
      "ĠBaca": 666,
      "erikan": 667,
      "Ġkarena": 668,
      "RI": 669,
      "arus": 670,
      "Ġterhadap": 671,
      "epat": 672,
      "uhan": 673,
      "erah": 674,
      "und": 675,
      "SI": 676,
      "Ġor": 677,
      "ine": 678,
      "uka": 679,
      "ĠPLN": 680,
      "CA": 681,
      "tikan": 682,
      "Ġkons": 683,
      "iliki": 684,
      "unc": 685,
      "ingan": 686,
      "ĠJawa": 687,
      "GA": 688,
      "Ġdig": 689,
      "olo": 690,
      "arg": 691,
      "Ġberh": 692,
      "ĠY": 693,
      "tion": 694,
      "ĠPem": 695,
      "ist": 696,
      "Ġterus": 697,
      "formasi": 698,
      "okal": 699,
      "umlah": 700,
      "Ġjuta": 701,
      "usaha": 702,
      "Ġres": 703,
      "Ġekonomi": 704,
      "Ġsiaran": 705,
      "Ġposi": 706,
      "ase": 707,
      "),": 708,
      "In": 709,
      "ĠBA": 710,
      "Ġbers": 711,
      "ampak": 712,
      "Ġpeny": 713,
      "ologi": 714,
      "ina": 715,
      "ini": 716,
      "engah": 717,
      "iri": 718,
      "utuh": 719,
      "Ġman": 720,
      "itmen": 721,
      "apai": 722,
      "Ġpend": 723,
      "Ġterj": 724,
      "ĠAS": 725,
      "Ġberbagai": 726,
      "Ġmengatakan": 727,
      "ustri": 728,
      "askan": 729,
      "ili": 730,
      "000": 731,
      "ĠDir": 732,
      "lat": 733,
      "Ġkamu": 734,
      "UGA": 735,
      "Ġat": 736,
      "ont": 737,
      "ĠJUGA": 738,
      "ĠBACA": 739,
      "mb": 740,
      "Ġmulai": 741,
      "Ġmeningkat": 742,
      "usantara": 743,
      "Ġmereka": 744,
      ",âĢĿ": 745,
      "Ġas": 746,
      "Ġmin": 747,
      "Ġdik": 748,
      "inggu": 749,
      "Ġtr": 750,
      "Ġeks": 751,
      "Ġujar": 752,
      "yata": 753,
      "Ġag": 754,
      "com": 755,
      "tasi": 756,
      "Ġseh": 757,
      "Ġker": 758,
      "Ġinvest": 759,
      "umb": 760,
      "ng": 761,
      "Ġbesar": 762,
      "Ġusaha": 763,
      "kuat": 764,
      "nologi": 765,
      "san": 766,
      "era": 767,
      "apan": 768,
      "urut": 769,
      "Ġmemiliki": 770,
      "Ġkerja": 771,
      "one": 772,
      "Ġdip": 773,
      "apor": 774,
      "Ġterk": 775,
      "empat": 776,
      "UM": 777,
      "af": 778,
      "ala": 779,
      "Ġsaat": 780,
      "Ġproses": 781,
      "Ġdigital": 782,
      "anyak": 783,
      "Ġbisnis": 784,
      "ark": 785,
      "entim": 786,
      "Ġmemberikan": 787,
      "Ġselama": 788,
      "hir": 789,
      "Ġtanpa": 790,
      "if": 791,
      "Ġnasional": 792,
      "ubl": 793,
      "tern": 794,
      "apkan": 795,
      "Ġpasar": 796,
      "Ġstr": 797,
      "inggi": 798,
      "ĠKami": 799,
      "pl": 800,
      "Ġap": 801,
      "Ġlayanan": 802,
      "Ġmemas": 803,
      "tiv": 804,
      "ech": 805,
      "angkah": 806,
      "mas": 807,
      "ern": 808,
      "ekerja": 809,
      "iaya": 810,
      "Ġsistem": 811,
      "ij": 812,
      "Ġ6": 813,
      "Ġses": 814,
      "eksi": 815,
      "ihan": 816,
      "Ġmelakukan": 817,
      "arget": 818,
      "aerah": 819,
      "isasi": 820,
      "ver": 821,
      "Ġmasih": 822,
      "Ġtim": 823,
      "dukung": 824,
      "KM": 825,
      "ekan": 826,
      "Ġ8": 827,
      "uni": 828,
      "Ġlokal": 829,
      "Ġsebelum": 830,
      "Ġkont": 831,
      "Ġpemerintah": 832,
      "uangan": 833,
      "angat": 834,
      "Ġsamp": 835,
      "emen": 836,
      "latform": 837,
      "Ġharga": 838,
      "gus": 839,
      "uang": 840,
      "unia": 841,
      "Ġharus": 842,
      "Ġlangsung": 843,
      "Ġkr": 844,
      "angka": 845,
      "entimen": 846,
      "arang": 847,
      "entu": 848,
      "Ġindustri": 849,
      "ail": 850,
      "lob": 851,
      "Ġpertama": 852,
      "lobal": 853,
      "ero": 854,
      "enting": 855,
      "embali": 856,
      "Ġoper": 857,
      "tup": 858,
      "itar": 859,
      "Ġmengh": 860,
      "upakan": 861,
      "Ġpress": 862,
      "Ġatas": 863,
      "Ġtapi": 864,
      "EN": 865,
      "eber": 866,
      "ER": 867,
      "ease": 868,
      "ode": 869,
      "âľ": 870,
      "erd": 871,
      "Ġpo": 872,
      "Ġkita": 873,
      "Ġlain": 874,
      "Ġtetapi": 875,
      "Ġdata": 876,
      "utama": 877,
      "ĠTim": 878,
      "anggan": 879,
      "anjang": 880,
      "Ġtetap": 881,
      "ektur": 882,
      "Ġsekitar": 883,
      "Ġmerupakan": 884,
      "inya": 885,
      "ĠPeng": 886,
      "ity": 887,
      "Ġperlu": 888,
      "ayaan": 889,
      "erian": 890,
      "Ġrelease": 891,
      "Ġkh": 892,
      "usus": 893,
      "Nama": 894,
      "TA": 895,
      "ait": 896,
      "Ġmod": 897,
      "anjutan": 898,
      "ve": 899,
      "Ġhal": 900,
      "oc": 901,
      "Ġener": 902,
      "Ġdaerah": 903,
      "inan": 904,
      "ĠBah": 905,
      "ampaikan": 906,
      "ĠAnda": 907,
      "mi": 908,
      "atik": 909,
      "Ġinf": 910,
      "ukkan": 911,
      "epan": 912,
      "Ġteknologi": 913,
      "KI": 914,
      "ko": 915,
      "angunan": 916,
      "Ġsed": 917,
      "umah": 918,
      "ĠTer": 919,
      "uai": 920,
      "ĠKe": 921,
      "gunakan": 922,
      "Ġkec": 923,
      "umum": 924,
      "ĠUM": 925,
      "okan": 926,
      "uc": 927,
      "ĠKom": 928,
      "Ġsekali": 929,
      "Ġorang": 930,
      "Ġpenting": 931,
      "Ġsama": 932,
      "Ġmendukung": 933,
      "Ġdia": 934,
      "ĠJuni": 935,
      "ĠCh": 936,
      "Ġsetiap": 937,
      "Ġpes": 938,
      "ingin": 939,
      "Ġpenggun": 940,
      "ingkungan": 941,
      "aut": 942,
      "ĠðŁ": 943,
      "ayah": 944,
      "Ġpersen": 945,
      "--------": 946,
      "Ġmemperkuat": 947,
      "Ġdilakukan": 948,
      "Ġmemastikan": 949,
      "angkan": 950,
      "Ġkembali": 951,
      "Ġbulan": 952,
      "adaman": 953,
      "Ġ10": 954,
      "aji": 955,
      "202": 956,
      "TI": 957,
      "awab": 958,
      "ementerian": 959,
      "Ġsetelah": 960,
      "io": 961,
      "man": 962,
      "Ġberl": 963,
      "tim": 964,
      "ide": 965,
      "li": 966,
      "Ġma": 967,
      "ikut": 968,
      "ĠKep": 969,
      "âľħ": 970,
      "Ġantara": 971,
      "erti": 972,
      "inta": 973,
      "aktu": 974,
      "Ġbaik": 975,
      "Ġberita": 976,
      "imp": 977,
      "uatan": 978,
      "Ġpelanggan": 979,
      "anjut": 980,
      "unjukkan": 981,
      "ĠUMKM": 982,
      "ard": 983,
      "ator": 984,
      "ĠSen": 985,
      "irim": 986,
      "anggal": 987,
      "ial": 988,
      "akin": 989,
      "ĠPen": 990,
      "ilayah": 991,
      "ĠIns": 992,
      "embangan": 993,
      "ation": 994,
      "ualitas": 995,
      "Ġpositif": 996,
      "ĠDirektur": 997,
      "aporan": 998,
      "UMN": 999,
      "aham": 1000,
      "ash": 1001,
      "asis": 1002,
      "Ġterd": 1003,
      "ĠIran": 1004,
      "ĠAI": 1005,
      "umen": 1006,
      "truk": 1007,
      "uda": 1008,
      "tartup": 1009,
      "ĠMenurut": 1010,
      "Ġenergi": 1011,
      "atis": 1012,
      "sia": 1013,
      "ast": 1014,
      "Ġdit": 1015,
      "ĠBank": 1016,
      "Ġjam": 1017,
      "Ġkonten": 1018,
      "Ġkhusus": 1019,
      "Jakarta": 1020,
      "ateg": 1021,
      "Ġsalah": 1022,
      "ĠIni": 1023,
      "ĠNusantara": 1024,
      "Ġoperasional": 1025,
      "Ġpet": 1026,
      "Ġperj": 1027,
      "ĠMent": 1028,
      "air": 1029,
      "Ġterjadi": 1030,
      "faat": 1031,
      "arat": 1032,
      "Ġglobal": 1033,
      "Ġ2025": 1034,
      "Ġakses": 1035,
      "Ġmeningkatkan": 1036,
      "isata": 1037,
      "ĠAd": 1038,
      "Ġanak": 1039,
      "ublik": 1040,
      "den": 1041,
      "Ġpert": 1042,
      "ihat": 1043,
      "awasan": 1044,
      "isis": 1045,
      "ntuk": 1046,
      "Ġal": 1047,
      "alanan": 1048,
      "Ġbel": 1049,
      "tumb": 1050,
      "Ġberj": 1051,
      "ĠAl": 1052,
      "ungk": 1053,
      "otensi": 1054,
      "ĠPert": 1055,
      "Ġbersama": 1056,
      "NI": 1057,
      "ĠĠ": 1058,
      "ementara": 1059,
      "Ġsemua": 1060,
      "Ġsekaligus": 1061,
      "pr": 1062,
      "Ġpara": 1063,
      "unga": 1064,
      "orong": 1065,
      "Ġlangkah": 1066,
      "ihak": 1067,
      "egera": 1068,
      "Ġwilayah": 1069,
      "inasi": 1070,
      "aksi": 1071,
      "Ġdir": 1072,
      "ĠBP": 1073,
      "ĠNeg": 1074,
      "Ġketer": 1075,
      "Ġsejumlah": 1076,
      "lusi": 1077,
      "Ġef": 1078,
      "Ġbanyak": 1079,
      "Ġlu": 1080,
      "ump": 1081,
      "ĠDan": 1082,
      "ehatan": 1083,
      "ubung": 1084,
      "tumbuhan": 1085,
      "are": 1086,
      "insi": 1087,
      "Ġdiper": 1088,
      "ĠBUMN": 1089,
      "Ġterl": 1090,
      "Ġproduksi": 1091,
      "Ġseperti": 1092,
      "tivitas": 1093,
      "Ġed": 1094,
      "angi": 1095,
      "angun": 1096,
      "Ġsangat": 1097,
      "Ġbelum": 1098,
      "Ġbert": 1099,
      "Ġmenghad": 1100,
      "alami": 1101,
      "Ġnilai": 1102,
      "Ġwaktu": 1103,
      "ht": 1104,
      "atkan": 1105,
      "Ġ15": 1106,
      "Ġbagian": 1107,
      "Ġkeber": 1108,
      "Ġmendapat": 1109,
      "Ġ+": 1110,
      "Ġdepan": 1111,
      "amanan": 1112,
      "unya": 1113,
      "ĠKementerian": 1114,
      "ĠMinggu": 1115,
      "udi": 1116,
      "ambil": 1117,
      "AL": 1118,
      "Ġdunia": 1119,
      "Ġtinggi": 1120,
      "Ġlingkungan": 1121,
      "Ġintern": 1122,
      "imb": 1123,
      "tas": 1124,
      "Ġingin": 1125,
      "ord": 1126,
      "orasi": 1127,
      "ĠInd": 1128,
      "Ġkomitmen": 1129,
      "ion": 1130,
      "Ġup": 1131,
      "Ġben": 1132,
      "ass": 1133,
      "ĠPel": 1134,
      "tagram": 1135,
      "ĠUtama": 1136,
      "Ġsektor": 1137,
      "masuk": 1138,
      "Ġsesuai": 1139,
      "aling": 1140,
      "Ġperb": 1141,
      "Ġinformasi": 1142,
      "ola": 1143,
      "oll": 1144,
      "okus": 1145,
      "anggung": 1146,
      "Ġ7": 1147,
      "una": 1148,
      "ĠMan": 1149,
      "idikan": 1150,
      "Ġ20": 1151,
      "Ġmenyampaikan": 1152,
      "ĠPresi": 1153,
      "utuhan": 1154,
      "Ġagar": 1155,
      "umber": 1156,
      "Ġdampak": 1157,
      "arm": 1158,
      "ĠSer": 1159,
      "Ġmenjaga": 1160,
      "ĠInstagram": 1161,
      "line": 1162,
      "ner": 1163,
      "erj": 1164,
      "Ġst": 1165,
      "emi": 1166,
      "ilitas": 1167,
      "idup": 1168,
      "Ġperjalanan": 1169,
      "ĠMenteri": 1170,
      "Ġutama": 1171,
      "any": 1172,
      "Ġplatform": 1173,
      "Ġmenunjukkan": 1174,
      "Ġpern": 1175,
      "Ġpertumbuhan": 1176,
      "urkan": 1177,
      "Ġmenjel": 1178,
      "Ġpasokan": 1179,
      "Pers": 1180,
      "oh": 1181,
      "wan": 1182,
      "Ġdim": 1183,
      "ĠTone": 1184,
      "Ġmenggunakan": 1185,
      "Ġkebutuhan": 1186,
      "Ġinvestasi": 1187,
      "AK": 1188,
      "mer": 1189,
      "alkan": 1190,
      "Ġtermasuk": 1191,
      "ĠDi": 1192,
      "Ġkomun": 1193,
      "NG": 1194,
      "disi": 1195,
      "Ġga": 1196,
      "Ġrumah": 1197,
      "Ġpembangunan": 1198,
      "Ġmencapai": 1199,
      "ĠSelain": 1200,
      "Ġpihak": 1201,
      "Ġkap": 1202,
      "Ġkawasan": 1203,
      "ĠKota": 1204,
      "ĠDKI": 1205,
      "olah": 1206,
      "osial": 1207,
      "istik": 1208,
      "Ġe": 1209,
      "adir": 1210,
      "etr": 1211,
      "umat": 1212,
      "alaman": 1213,
      "Ġsebesar": 1214,
      "encana": 1215,
      "2026": 1216,
      "Ġdin": 1217,
      "uku": 1218,
      "ĠDalam": 1219,
      "eberapa": 1220,
      "ĠSenin": 1221,
      "Kita": 1222,
      "he": 1223,
      "iew": 1224,
      "tis": 1225,
      "Ġkl": 1226,
      "ahu": 1227,
      "Ġlalu": 1228,
      "Ġberp": 1229,
      "ĠMedia": 1230,
      "ambah": 1231,
      "ovasi": 1232,
      "Ġnegara": 1233,
      "iga": 1234,
      "pons": 1235,
      "Ġem": 1236,
      "Ġdua": 1237,
      "aris": 1238,
      "Ġmau": 1239,
      "Ġberd": 1240,
      "Ġmengen": 1241,
      "iputan": 1242,
      "Ġresmi": 1243,
      "Ġaw": 1244,
      "Ġop": 1245,
      "antu": 1246,
      "Ġpanjang": 1247,
      "Ġpublik": 1248,
      "ĠBRI": 1249,
      "Ġberg": 1250,
      "ĠIa": 1251,
      "age": 1252,
      "ibusi": 1253,
      "Ġpelaku": 1254,
      "opi": 1255,
      "igital": 1256,
      "Ġterkait": 1257,
      "AS": 1258,
      "ink": 1259,
      "onitor": 1260,
      "adar": 1261,
      "ĠAr": 1262,
      "Ġkeuangan": 1263,
      "arah": 1264,
      "aten": 1265,
      "Ġken": 1266,
      "Ġre": 1267,
      "olab": 1268,
      "awat": 1269,
      "ajar": 1270,
      "Persero": 1271,
      "AI": 1272,
      "Ġstartup": 1273,
      "ĠPemb": 1274,
      "engg": 1275,
      "ĠAN": 1276,
      "Ġnyata": 1277,
      "portasi": 1278,
      "Ġkomp": 1279,
      "Ġberhasil": 1280,
      "Ġ,": 1281,
      "Ġsosial": 1282,
      "ĠKar": 1283,
      "ĠTahun": 1284,
      "uli": 1285,
      "olusi": 1286,
      "aja": 1287,
      "ĠEk": 1288,
      "angkit": 1289,
      "ipt": 1290,
      "ence": 1291,
      "Ġsemakin": 1292,
      "Ġmenjelaskan": 1293,
      "erm": 1294,
      "Ġpaling": 1295,
      "araan": 1296,
      "abup": 1297,
      "Ġof": 1298,
      "over": 1299,
      "Ġpengguna": 1300,
      "olaborasi": 1301,
      "abupaten": 1302,
      "gan": 1303,
      "|--------": 1304,
      "Ġa": 1305,
      "Ġair": 1306,
      "Ġse": 1307,
      "Ġhaji": 1308,
      "ulis": 1309,
      "edi": 1310,
      "erima": 1311,
      "Ġbunga": 1312,
      "ĠBand": 1313,
      "ilir": 1314,
      "aian": 1315,
      "ĠEd": 1316,
      "Ġ&": 1317,
      "adan": 1318,
      "ikat": 1319,
      "Ġlaporan": 1320,
      "ĠSeb": 1321,
      "ĠSur": 1322,
      "Ġperd": 1323,
      "Ġ12": 1324,
      "isiko": 1325,
      "ft": 1326,
      "amina": 1327,
      "elanjutan": 1328,
      "asing": 1329,
      "eta": 1330,
      "irkan": 1331,
      "Ġsedang": 1332,
      "ĠPresiden": 1333,
      "Ġ9": 1334,
      "erb": 1335,
      "Ġmit": 1336,
      "Ġsk": 1337,
      "Ġbiaya": 1338,
      "ĠBarat": 1339,
      "ĠSet": 1340,
      "urun": 1341,
      "Ġgr": 1342,
      "Ġsekadar": 1343,
      "utusan": 1344,
      "ĠPemerintah": 1345,
      "Indonesia": 1346,
      "ĠTimur": 1347,
      "ategis": 1348,
      "yek": 1349,
      "enuh": 1350,
      "engk": 1351,
      "tribusi": 1352,
      "evel": 1353,
      "Ġpetani": 1354,
      "Ġberjalan": 1355,
      "Ġaman": 1356,
      "Ġsen": 1357,
      "Ġbahan": 1358,
      "Ġins": 1359,
      "Ġjadi": 1360,
      "truktur": 1361,
      "erjaan": 1362,
      "OR": 1363,
      "Ġdaya": 1364,
      "arik": 1365,
      "angga": 1366,
      "Ġkualitas": 1367,
      "Ġperc": 1368,
      "ĠKet": 1369,
      "entar": 1370,
      "Ġhasil": 1371,
      "Ġberkelanjutan": 1372,
      "Ġkesehatan": 1373,
      "hip": 1374,
      "vinsi": 1375,
      "Ġmili": 1376,
      "sih": 1377,
      "Ġkek": 1378,
      "Ġkota": 1379,
      "akhir": 1380,
      "Ġlap": 1381,
      "ĠâĢĵ": 1382,
      "ack": 1383,
      "arket": 1384,
      "ĠPertamina": 1385,
      "Ġmengenai": 1386,
      "klusi": 1387,
      "Ġis": 1388,
      "Ġart": 1389,
      "Ġbatu": 1390,
      "esk": 1391,
      "tab": 1392,
      "Ġprof": 1393,
      "Ġpenc": 1394,
      "Ġmendorong": 1395,
      "ogistik": 1396,
      "ĠANTARA": 1397,
      "gn": 1398,
      "resi": 1399,
      "ĠAk": 1400,
      "awan": 1401,
      "Ġmembuat": 1402,
      "Ġkondisi": 1403,
      "Ġkelu": 1404,
      "Ġteknis": 1405,
      "Ġsehingga": 1406,
      "Ġstrategis": 1407,
      "ras": 1408,
      "sa": 1409,
      "Ġâ": 1410,
      "Ġpil": 1411,
      "Ġtarget": 1412,
      "Ġbekerja": 1413,
      "Ġpenuh": 1414,
      "Ġpengembangan": 1415,
      "Ġpemadaman": 1416,
      "Ġnegatif": 1417,
      "bu": 1418,
      "Ġbi": 1419,
      "Ġbeberapa": 1420,
      "asar": 1421,
      "urn": 1422,
      "ĠMak": 1423,
      "Ġked": 1424,
      "eda": 1425,
      "otal": 1426,
      "Ġ30": 1427,
      "ĠProgram": 1428,
      "yataan": 1429,
      "ijakan": 1430,
      ".\"": 1431,
      "21": 1432,
      "Ġbara": 1433,
      "Ġbud": 1434,
      "ori": 1435,
      "Ġperk": 1436,
      "ĠKabupaten": 1437,
      "Ġberas": 1438,
      "omor": 1439,
      "endiri": 1440,
      "jau": 1441,
      "ĠAng": 1442,
      "Ġtransportasi": 1443,
      "ug": 1444,
      "asarkan": 1445,
      "Ġmenga": 1446,
      "ula": 1447,
      "upun": 1448,
      "ingkatan": 1449,
      "ompet": 1450,
      "iliun": 1451,
      "Ġinvestor": 1452,
      "fikasi": 1453,
      "th": 1454,
      "erita": 1455,
      "Ġtengah": 1456,
      "amun": 1457,
      "itch": 1458,
      "ulang": 1459,
      "Ġcara": 1460,
      "ampu": 1461,
      "Tok": 1462,
      "Tanggal": 1463,
      "co": 1464,
      "atat": 1465,
      "ĠPosi": 1466,
      "ĠDia": 1467,
      "Ġ18": 1468,
      "ect": 1469,
      "iayaan": 1470,
      "nergi": 1471,
      "Ġawal": 1472,
      "rastruktur": 1473,
      "DI": 1474,
      "ES": 1475,
      "atang": 1476,
      "Ġkal": 1477,
      "Ġdih": 1478,
      "Ġdij": 1479,
      "itik": 1480,
      "ekom": 1481,
      "ilan": 1482,
      "ĠKes": 1483,
      "ungg": 1484,
      "imana": 1485,
      "egr": 1486,
      "Ġpenguatan": 1487,
      "ajemen": 1488,
      "angguan": 1489,
      "Ġkonsumen": 1490,
      "JK": 1491,
      "Ġon": 1492,
      "inkan": 1493,
      "usat": 1494,
      "ĠMel": 1495,
      "Ġrev": 1496,
      "Ġcap": 1497,
      "egaskan": 1498,
      "okasi": 1499,
      "Ġguna": 1500,
      "Ġmasa": 1501,
      "Ġmasuk": 1502,
      "Ġakhir": 1503,
      "Kont": 1504,
      "RT": 1505,
      "oper": 1506,
      "erta": 1507,
      "inerja": 1508,
      "ahanan": 1509,
      "ono": 1510,
      "eks": 1511,
      "ĠSul": 1512,
      "Ġhadir": 1513,
      "ĠRe": 1514,
      "agaimana": 1515,
      "ĠListrik": 1516,
      "oto": 1517,
      "Ġpembangkit": 1518,
      "Ġmanfaat": 1519,
      "Ġkomunitas": 1520,
      "AM": 1521,
      "Ġton": 1522,
      "Ġtingkat": 1523,
      "yawan": 1524,
      "Ġjangka": 1525,
      "Ġjawab": 1526,
      "idang": 1527,
      "abil": 1528,
      "ampai": 1529,
      "ON": 1530,
      "Ġac": 1531,
      "Ġduk": 1532,
      "Ġkali": 1533,
      "Ġsaya": 1534,
      "eli": 1535,
      "ektif": 1536,
      "Ġperi": 1537,
      "ĠAp": 1538,
      "ĠAsia": 1539,
      "omitmen": 1540,
      "ĠTel": 1541,
      "ĠTik": 1542,
      "Ġmembangun": 1543,
      "Ġ50": 1544,
      "ategi": 1545,
      "apaian": 1546,
      "Ġsebelumnya": 1547,
      "ideo": 1548,
      "Ġmaupun": 1549,
      "Ġketerangan": 1550,
      "Ġmiliar": 1551,
      "50": 1552,
      "ment": 1553,
      "oord": 1554,
      "ansi": 1555,
      "Ġpekerja": 1556,
      "atur": 1557,
      "Ġkini": 1558,
      "all": 1559,
      "Ġsaham": 1560,
      "Ġdid": 1561,
      "ĠAs": 1562,
      "ĠDigital": 1563,
      "edit": 1564,
      "Ġposisi": 1565,
      "ĠKepala": 1566,
      "assar": 1567,
      "ollow": 1568,
      "EO": 1569,
      "Kep": 1570,
      "to": 1571,
      "ĠZ": 1572,
      "Ġot": 1573,
      "Ġsp": 1574,
      "ahter": 1575,
      "ĠDengan": 1576,
      "Ġnaik": 1577,
      "Ġpeningkatan": 1578,
      "Ġ19": 1579,
      "antor": 1580,
      "uncurkan": 1581,
      "Ġpost": 1582,
      "Ġhalal": 1583,
      "10": 1584,
      "TE": 1585,
      "ger": 1586,
      "kom": 1587,
      "paran": 1588,
      "ĠQ": 1589,
      "iner": 1590,
      "Ġkur": 1591,
      "Ġsegera": 1592,
      "elas": 1593,
      "Ġmenarik": 1594,
      "Ġlanjut": 1595,
      "amaah": 1596,
      "ARTA": 1597,
      "ĠProvinsi": 1598,
      "Ġsampah": 1599,
      "Ġsampai": 1600,
      "Ġkecil": 1601,
      "umumkan": 1602,
      "AKARTA": 1603,
      "etral": 1604,
      "Ġbudaya": 1605,
      "Liputan": 1606,
      "Untuk": 1607,
      "lil": 1608,
      "ĨĴ": 1609,
      "Ġkuat": 1610,
      "alisis": 1611,
      "Ġlagi": 1612,
      "ĠSentimen": 1613,
      "etik": 1614,
      "Ġtert": 1615,
      "ĠIs": 1616,
      "ukum": 1617,
      "Ġjar": 1618,
      "andar": 1619,
      "anding": 1620,
      "Ġ100": 1621,
      "vertis": 1622,
      "ĠAdvertis": 1623,
      "Ġmenghadirkan": 1624,
      "Ġupaya": 1625,
      "ampaign": 1626,
      "ĠAdvertisement": 1627,
      "ear": 1628,
      "aks": 1629,
      "eluruh": 1630,
      "Ġmenilai": 1631,
      "Ġmention": 1632,
      "isnis": 1633,
      "ĠBuat": 1634,
      "ĠKem": 1635,
      "ĠTengah": 1636,
      "ulit": 1637,
      "Ġmengalami": 1638,
      "Ġgangguan": 1639,
      "raft": 1640,
      "ĠBahlil": 1641,
      "klusif": 1642,
      "ĠMakassar": 1643,
      "Ġperiode": 1644,
      "OM": 1645,
      "erit": 1646,
      "Ġmampu": 1647,
      "Ġpitch": 1648,
      "ell": 1649,
      "oro": 1650,
      "ĠSementara": 1651,
      "Ġberada": 1652,
      "Ġproyek": 1653,
      "Ġwisata": 1654,
      "ANG": 1655,
      "osistem": 1656,
      "ejahter": 1657,
      "Ġminyak": 1658,
      "onitoring": 1659,
      "overage": 1660,
      "ijau": 1661,
      "anti": 1662,
      "Ġmuda": 1663,
      "Ġpunya": 1664,
      "onf": 1665,
      "oritas": 1666,
      "ĠPul": 1667,
      "ikel": 1668,
      "ĠSh": 1669,
      "ĠTr": 1670,
      "Ġmembuka": 1671,
      "endasi": 1672,
      "ance": 1673,
      "Ġmitra": 1674,
      "ekomendasi": 1675,
      "20": 1676,
      "Ġkend": 1677,
      "akah": 1678,
      "Ġsolusi": 1679,
      "ĠPER": 1680,
      "apur": 1681,
      "gag": 1682,
      "omo": 1683,
      "ĠJumat": 1684,
      "ayar": 1685,
      "ayaran": 1686,
      "ayani": 1687,
      "ampung": 1688,
      "Ġpengalaman": 1689,
      "ibat": 1690,
      "Ġkebijakan": 1691,
      "asilitas": 1692,
      "Ġsejak": 1693,
      "Ġmendapatkan": 1694,
      "Ġisu": 1695,
      "AP": 1696,
      "SG": 1697,
      "our": 1698,
      "ost": 1699,
      "Ġdom": 1700,
      "Ġpl": 1701,
      "Ġyak": 1702,
      "ork": 1703,
      "ĠPH": 1704,
      "ĠPak": 1705,
      "iter": 1706,
      "ĠBadan": 1707,
      "ĠKal": 1708,
      "umi": 1709,
      "abr": 1710,
      "Ġpembiayaan": 1711,
      "Ġinfrastruktur": 1712,
      "Ġlapangan": 1713,
      "Brand": 1714,
      "Ini": 1715,
      "PR": 1716,
      "TU": 1717,
      "ban": 1718,
      "mad": 1719,
      "Ġminggu": 1720,
      "unt": 1721,
      "ĠBI": 1722,
      "Ġterp": 1723,
      "Ġmengg": 1724,
      "ubah": 1725,
      "ĠEx": 1726,
      "tifikasi": 1727,
      "ĠChina": 1728,
      "Ġberlangsung": 1729,
      "Ġkeluarga": 1730,
      "iz": 1731,
      "ood": 1732,
      "utur": 1733,
      "Ġen": 1734,
      "anta": 1735,
      "Ġdes": 1736,
      "Ġtotal": 1737,
      "Ġsendiri": 1738,
      "tud": 1739,
      "Ġperl": 1740,
      "aim": 1741,
      "Ġrisiko": 1742,
      "ĠRes": 1743,
      "ĠCEO": 1744,
      "Ġpengh": 1745,
      "Ġpendidikan": 1746,
      "Ġaset": 1747,
      "Ġcaption": 1748,
      "Kontak": 1749,
      "ĠTikTok": 1750,
      "Per": 1751,
      "cayaan": 1752,
      "ead": 1753,
      "mp": 1754,
      "aksan": 1755,
      "ĠPend": 1756,
      "ĠMas": 1757,
      "ĠData": 1758,
      "ĠTrans": 1759,
      "olar": 1760,
      "Ġmengambil": 1761,
      "Ġcepat": 1762,
      "Ġpenj": 1763,
      "antangan": 1764,
      "ĠUs": 1765,
      "angkau": 1766,
      "ĠPerusahaan": 1767,
      "Ġ500": 1768,
      "ĠProduk": 1769,
      "Ġujarnya": 1770,
      "Ġdukungan": 1771,
      "PI": 1772,
      "PT": 1773,
      "Ġim": 1774,
      "Ġpak": 1775,
      "aih": 1776,
      "ĠTek": 1777,
      "Ġjumlah": 1778,
      "Ġfollow": 1779,
      "ubungan": 1780,
      "Ġekosistem": 1781,
      "ujud": 1782,
      "ongan": 1783,
      "Ġterbaik": 1784,
      "Ġtriliun": 1785,
      "ĠBahasa": 1786,
      "Ġluar": 1787,
      "emium": 1788,
      "ĠPositif": 1789,
      "Ġjaringan": 1790,
      "RE": 1791,
      "ound": 1792,
      "yat": 1793,
      "atihan": 1794,
      "Ġkinerja": 1795,
      "Ġstab": 1796,
      "Ġmenegaskan": 1797,
      "adw": 1798,
      "ĠKam": 1799,
      "Ġtertu": 1800,
      "Ġinovasi": 1801,
      "ukup": 1802,
      "adaan": 1803,
      "Ġgener": 1804,
      "ĠEl": 1805,
      "usia": 1806,
      "Ġberkomitmen": 1807,
      "luenc": 1808,
      "Ġrespons": 1809,
      "Ġbentuk": 1810,
      "Ġyakni": 1811,
      "ens": 1812,
      "elol": 1813,
      "utip": 1814,
      "omm": 1815,
      "ĠTapi": 1816,
      "able": 1817,
      "anda": 1818,
      "Ġ14": 1819,
      "ĠNasional": 1820,
      "Ġaktivitas": 1821,
      "empatan": 1822,
      "Ġvs": 1823,
      "ĠOJK": 1824,
      "tory": 1825,
      "vestasi": 1826,
      "Ġekspor": 1827,
      "luencer": 1828,
      "):**": 1829,
      "30": 1830,
      "cepat": 1831,
      "ei": 1832,
      "Ġik": 1833,
      "Ġapa": 1834,
      "alik": 1835,
      "alur": 1836,
      "elengg": 1837,
      "ĠPR": 1838,
      "ĠSek": 1839,
      "Ġint": 1840,
      "ĠDari": 1841,
      "Ġjamaah": 1842,
      "âĢĵ": 1843,
      "ehat": 1844,
      "oter": 1845,
      "Ġweb": 1846,
      "Ġberbasis": 1847,
      "luas": 1848,
      "owo": 1849,
      "Ġtanah": 1850,
      "Ġtransparan": 1851,
      "ĠKeuangan": 1852,
      "Ġkompet": 1853,
      "Ġartikel": 1854,
      "Ġkedua": 1855,
      "ĠPulau": 1856,
      "elolaan": 1857,
      "19": 1858,
      "Pro": 1859,
      "],": 1860,
      "av": 1861,
      "han": 1862,
      "hati": 1863,
      "iah": 1864,
      "itur": 1865,
      "lis": 1866,
      "lim": 1867,
      "ou": 1868,
      "te": 1869,
      "arasi": 1870,
      "sional": 1871,
      "Ġkre": 1872,
      "Ġtahu": 1873,
      "Ġsur": 1874,
      "Ġmenit": 1875,
      "ĠSab": 1876,
      "ust": 1877,
      "Ġhidup": 1878,
      "Ġrasa": 1879,
      "iran": 1880,
      "iring": 1881,
      "ĠRI": 1882,
      "awah": 1883,
      "ampil": 1884,
      "Ġsitu": 1885,
      "ĠGr": 1886,
      "Ġefisi": 1887,
      "ubungi": 1888,
      "ĠTelkom": 1889,
      ")**": 1890,
      "Nusantara": 1891,
      "SC": 1892,
      "ce": 1893,
      "etu": 1894,
      "ject": 1895,
      "pek": 1896,
      "arap": 1897,
      "inc": 1898,
      "Ġkolaborasi": 1899,
      "Ġten": 1900,
      "Ġtangan": 1901,
      "Ġtanggung": 1902,
      "Ġsentimen": 1903,
      "Ġsumber": 1904,
      "Ġkeamanan": 1905,
      "upiah": 1906,
      "Ġfasilitas": 1907,
      "atanya": 1908,
      "ubahan": 1909,
      "Ġpeluang": 1910,
      "Ġvideo": 1911,
      "Ġpernah": 1912,
      "Ġberpotensi": 1913,
      "Ġkenaikan": 1914,
      "Tulis": 1915,
      "di": 1916,
      "ght": 1917,
      "uah": 1918,
      "Ġ0": 1919,
      "Ġar": 1920,
      "Ġev": 1921,
      "Ġmom": 1922,
      "sial": 1923,
      "Ġkatanya": 1924,
      "Ġtiga": 1925,
      "Ġbank": 1926,
      "emukan": 1927,
      "elar": 1928,
      "ĠPas": 1929,
      "ikin": 1930,
      "usta": 1931,
      "Ġterakhir": 1932,
      "urangi": 1933,
      "ĠTarget": 1934,
      "ĠHal": 1935,
      "ational": 1936,
      "Ġmembantu": 1937,
      "Ġsekolah": 1938,
      "utuhkan": 1939,
      "iptakan": 1940,
      "PK": 1941,
      "aing": 1942,
      "pro": 1943,
      "Ġ)": 1944,
      "enag": 1945,
      "Ġpan": 1946,
      "Ġkasih": 1947,
      "Ġtantangan": 1948,
      "Ġsh": 1949,
      "Ġsementara": 1950,
      "Ġsaja": 1951,
      "ĠBali": 1952,
      "Ġhukum": 1953,
      "ĠTan": 1954,
      "giatan": 1955,
      "abowo": 1956,
      "embang": 1957,
      "Ġcukup": 1958,
      "egar": 1959,
      "antan": 1960,
      "antik": 1961,
      "ajaran": 1962,
      "ĠUntuk": 1963,
      "ĠFin": 1964,
      "Ġlainnya": 1965,
      "Ġmaaf": 1966,
      "enuhi": 1967,
      "egrasi": 1968,
      "ĠPHK": 1969,
      "kon": 1970,
      "ĠX": 1971,
      "Ġangg": 1972,
      "Ġtepat": 1973,
      "Ġtempat": 1974,
      "akup": 1975,
      "ore": 1976,
      "apun": 1977,
      "ism": 1978,
      "gab": 1979,
      "eban": 1980,
      "ĠMal": 1981,
      "aid": 1982,
      "irm": 1983,
      "udian": 1984,
      "agangan": 1985,
      "Ġmasalah": 1986,
      "ice": 1987,
      "Ġvir": 1988,
      "Ġkaryawan": 1989,
      "ĠPemadaman": 1990,
      "Ġmanajemen": 1991,
      "Ġkeras": 1992,
      "ĠEditor": 1993,
      "resiasi": 1994,
      "oordinasi": 1995,
      "ustain": 1996,
      "PL": 1997,
      "eet": 1998,
      "kr": 1999,
      "likasi": 2000,
      "qu": 2001,
      "Ġand": 2002,
      "Ġdem": 2003,
      "akyat": 2004,
      "Ġbatik": 2005,
      "ĠKer": 2006,
      "ĠKel": 2007,
      "ĠMer": 2008,
      "ĠAc": 2009,
      "Ġrib": 2010,
      "idasi": 2011,
      "epatan": 2012,
      "awarkan": 2013,
      "upa": 2014,
      "intar": 2015,
      "alankan": 2016,
      "Ġmenciptakan": 2017,
      "Ġterbaru": 2018,
      "Ġstrategi": 2019,
      "versi": 2020,
      "Ġmodal": 2021,
      "Ġpeserta": 2022,
      "ashion": 2023,
      "Ġinternasional": 2024,
      "Ġex": 2025,
      "Ġgratis": 2026,
      "Ġprofesi": 2027,
      "Ġreview": 2028,
      "ĠSabtu": 2029,
      "iv": 2030,
      "no": 2031,
      "wisata": 2032,
      "Ġbe": 2033,
      "Ġmenambah": 2034,
      "Ġditer": 2035,
      "ĠSo": 2036,
      "ĠSem": 2037,
      "ĠSegera": 2038,
      "ilih": 2039,
      "ĠMar": 2040,
      "ĠMus": 2041,
      "ukti": 2042,
      "ĠDes": 2043,
      "ĠTidak": 2044,
      "Ġkeper": 2045,
      "ĠIntern": 2046,
      "antai": 2047,
      "ĠNamun": 2048,
      "Ġsiap": 2049,
      "ach": 2050,
      "Ġ2023": 2051,
      "Ġwarga": 2052,
      "Ġpremium": 2053,
      "Ġmemperluas": 2054,
      "ĠPrabowo": 2055,
      "ight": 2056,
      "ĠBerita": 2057,
      "Ġtransformasi": 2058,
      "uncuran": 2059,
      "Ġmodern": 2060,
      "ikuti": 2061,
      "Ġluas": 2062,
      "operasi": 2063,
      "abrik": 2064,
      "ASI": 2065,
      "EL": 2066,
      "IN": 2067,
      "Saya": 2068,
      "was": 2069,
      "Ġ$": 2070,
      "Ġ.": 2071,
      "Ġumum": 2072,
      "Ġdatang": 2073,
      "Ġmusi": 2074,
      "Ġpotensi": 2075,
      "sip": 2076,
      "Ġturun": 2077,
      "akerjaan": 2078,
      "aha": 2079,
      "eles": 2080,
      "tua": 2081,
      "Ġperm": 2082,
      "entasi": 2083,
      "ulihan": 2084,
      "Ġmengurangi": 2085,
      "Ġcerita": 2086,
      "ĠHarga": 2087,
      "ace": 2088,
      "Ġaktif": 2089,
      "Ġrelev": 2090,
      "impin": 2091,
      "Ġbelajar": 2092,
      "Ġmengaj": 2093,
      "Kepada": 2094,
      "Ġgenerasi": 2095,
      "enagakerjaan": 2096,
      "Em": 2097,
      "Ġdolar": 2098,
      "Ġmakan": 2099,
      "Ġmonitoring": 2100,
      "Ġped": 2101,
      "sist": 2102,
      "Ġtind": 2103,
      "Ġsup": 2104,
      "Ġseri": 2105,
      "ond": 2106,
      "ĠSp": 2107,
      "ĠKantor": 2108,
      "Ġjika": 2109,
      "Ġcr": 2110,
      "Ġ17": 2111,
      "Ġfoto": 2112,
      "Ġtersedia": 2113,
      "Ġmenyebut": 2114,
      "ambahan": 2115,
      "Ġkeputusan": 2116,
      "ĠPram": 2117,
      "ngk": 2118,
      "Ġkredit": 2119,
      "asiswa": 2120,
      "Ġterdampak": 2121,
      "Ġstandar": 2122,
      "Ġkapal": 2123,
      "Ġperdagangan": 2124,
      "SCI": 2125,
      "Ġrelevan": 2126,
      "Sub": 2127,
      "ff": 2128,
      "ie": 2129,
      "zin": 2130,
      "anaan": 2131,
      "alis": 2132,
      "alia": 2133,
      "ahap": 2134,
      "asakan": 2135,
      "esti": 2136,
      "Ġlogistik": 2137,
      "ĠSumber": 2138,
      "Ġperubahan": 2139,
      "engar": 2140,
      "Ġterc": 2141,
      "arif": 2142,
      "entif": 2143,
      "ĠAir": 2144,
      "uman": 2145,
      "ulasi": 2146,
      "Ġkeh": 2147,
      "Ġkegiatan": 2148,
      "Ġ24": 2149,
      "abaya": 2150,
      "ĠHari": 2151,
      "Ġpengelolaan": 2152,
      "endah": 2153,
      "ĠGo": 2154,
      "uju": 2155,
      "Ġketahanan": 2156,
      "iapkan": 2157,
      "Ġdibanding": 2158,
      "Ġsehat": 2159,
      "plement": 2160,
      "Ġaplikasi": 2161,
      "Ġdinilai": 2162,
      "Ġoptim": 2163,
      "engkap": 2164,
      "Ġpercaya": 2165,
      "ĠKamis": 2166,
      "irmasi": 2167,
      "Ġprofesional": 2168,
      "TO": 2169,
      "gas": 2170,
      "ly": 2171,
      "Ġant": 2172,
      "Ġlab": 2173,
      "ĠBel": 2174,
      "usan": 2175,
      "ĠMSCI": 2176,
      "ĠAda": 2177,
      "ĠAmer": 2178,
      "ĠJadi": 2179,
      "Ġmengumumkan": 2180,
      "Ġ28": 2181,
      "ember": 2182,
      "Ġch": 2183,
      "ĠEnergi": 2184,
      "ĠUm": 2185,
      "Ġizin": 2186,
      "Ġsekarang": 2187,
      "Ġtradi": 2188,
      "ĠNegatif": 2189,
      "umpang": 2190,
      "ĠDanantara": 2191,
      "Ġpernyataan": 2192,
      "Ġviral": 2193,
      "Ġkepercayaan": 2194,
      "ĠAmerika": 2195,
      "'.": 2196,
      "DM": 2197,
      "UT": 2198,
      "Yang": 2199,
      "Ġpun": 2200,
      "amah": 2201,
      "Ġbagaimana": 2202,
      "emuan": 2203,
      "ĠPada": 2204,
      "Ġlaut": 2205,
      "ariwisata": 2206,
      "ukur": 2207,
      "embaga": 2208,
      "ayakan": 2209,
      "Ġmelayani": 2210,
      "Ġfokus": 2211,
      "Ġsisi": 2212,
      "agian": 2213,
      "ĠGar": 2214,
      "ranc": 2215,
      "Ġpembayaran": 2216,
      "Ġakibat": 2217,
      "istrikan": 2218,
      "Ġorgan": 2219,
      "Ġberharap": 2220,
      "Ġeduk": 2221,
      "Ġpilihan": 2222,
      "oroti": 2223,
      "ommun": 2224,
      "ĠPramono": 2225,
      "12": 2226,
      "cr": 2227,
      "fa": 2228,
      "lanjutan": 2229,
      "ook": 2230,
      "yari": 2231,
      "Ġus": 2232,
      "Ġdek": 2233,
      "Ġbio": 2234,
      "unikasi": 2235,
      "ĠBaru": 2236,
      "ĠSt": 2237,
      "uti": 2238,
      "ĠMeng": 2239,
      "ĠDis": 2240,
      "ĠDunia": 2241,
      "Ġmemenuhi": 2242,
      "tian": 2243,
      "Ġkej": 2244,
      "old": 2245,
      "Ġmelihat": 2246,
      "Ġkonf": 2247,
      "Ġmencakup": 2248,
      "ership": 2249,
      "reen": 2250,
      "Ġ40": 2251,
      "Ġpoin": 2252,
      "ĠKetua": 2253,
      "ungkin": 2254,
      "ĠBandung": 2255,
      "eski": 2256,
      "ability": 2257,
      "Ġspesi": 2258,
      "gagement": 2259,
      "Email": 2260,
      "plementasi": 2261,
      "bk": 2262,
      "ix": 2263,
      "sel": 2264,
      "¸ı": 2265,
      "ï¸ı": 2266,
      "Ġia": 2267,
      "anian": 2268,
      "Ġme": 2269,
      "Ġmarket": 2270,
      "Ġto": 2271,
      "aker": 2272,
      "aktor": 2273,
      "ema": 2274,
      "Ġmenuju": 2275,
      "ĠSw": 2276,
      "ebab": 2277,
      "arian": 2278,
      "entitas": 2279,
      "ĠTbk": 2280,
      "Ġja": 2281,
      "Ġjelas": 2282,
      "Ġjalur": 2283,
      "âĢĻ": 2284,
      "Ġwar": 2285,
      "obil": 2286,
      "Ġkesempatan": 2287,
      "ompok": 2288,
      "ĠSerikat": 2289,
      "ĠSurabaya": 2290,
      "Ġonline": 2291,
      "ĠPERS": 2292,
      "apura": 2293,
      "Ġfollowers": 2294,
      "Ġtertulis": 2295,
      "sipasi": 2296,
      "Ap": 2297,
      "IB": 2298,
      "pansi": 2299,
      "rata": 2300,
      "uas": 2301,
      "Ġmudah": 2302,
      "aturan": 2303,
      "alisasi": 2304,
      "Ġtata": 2305,
      "aki": 2306,
      "Ġmenerima": 2307,
      "eter": 2308,
      "ĠKr": 2309,
      "ĠDon": 2310,
      "Ġmeminta": 2311,
      "Ġcont": 2312,
      "Ġcampaign": 2313,
      "awit": 2314,
      "awanc": 2315,
      "Ġmeluncurkan": 2316,
      "ajib": 2317,
      "ormat": 2318,
      "argaan": 2319,
      "Ġmencerm": 2320,
      "indungan": 2321,
      "ogy": 2322,
      "Ġotom": 2323,
      "yariah": 2324,
      "15": 2325,
      "PS": 2326,
      "Tentang": 2327,
      "aun": 2328,
      "ne": 2329,
      "Ġro": 2330,
      "atch": 2331,
      "Ġkopi": 2332,
      "emil": 2333,
      "asitas": 2334,
      "ĠPur": 2335,
      "ĠBrand": 2336,
      "ĠMRT": 2337,
      "Ġunit": 2338,
      "ungi": 2339,
      "epak": 2340,
      "epon": 2341,
      "Ġprod": 2342,
      "Ġmembawa": 2343,
      "ender": 2344,
      "ediaan": 2345,
      "oba": 2346,
      "ĠSelatan": 2347,
      "Ġminim": 2348,
      "Ġpenggunaan": 2349,
      "ĠPeny": 2350,
      "Ġmenghadapi": 2351,
      "ĠKarena": 2352,
      "ĠEks": 2353,
      "ediakan": 2354,
      "DIA": 2355,
      "ujudkan": 2356,
      "Ġefisiensi": 2357,
      "Subject": 2358,
      "awancara": 2359,
      "Batik": 2360,
      "EDIA": 2361,
      "ling": 2362,
      "ness": 2363,
      "oy": 2364,
      "oin": 2365,
      "res": 2366,
      "uf": 2367,
      "Ġur": 2368,
      "Ġempat": 2369,
      "enal": 2370,
      "Ġtak": 2371,
      "Ġtumb": 2372,
      "akil": 2373,
      "Ġbuat": 2374,
      "Ġbawah": 2375,
      "ort": 2376,
      "itm": 2377,
      "iss": 2378,
      "ĠSaham": 2379,
      "Ġdana": 2380,
      "omb": 2381,
      "ayak": 2382,
      "Ġ2024": 2383,
      "ture": 2384,
      "Ġadanya": 2385,
      "rief": 2386,
      "RING": 2387,
      "tasiun": 2388,
      "ĠKomentar": 2389,
      "iriman": 2390,
      "Ġkhususnya": 2391,
      "Ġklaim": 2392,
      "Ġperkembangan": 2393,
      "aksanaan": 2394,
      "ĠUmum": 2395,
      "TS": 2396,
      "ies": 2397,
      "ny": 2398,
      "ue": 2399,
      "Ġalam": 2400,
      "ankan": 2401,
      "Ġmungkin": 2402,
      "inj": 2403,
      "Ġkor": 2404,
      "Ġkulit": 2405,
      "aktif": 2406,
      "Ġsuku": 2407,
      "elola": 2408,
      "adang": 2409,
      "ikian": 2410,
      "iset": 2411,
      "ĠSeri": 2412,
      "usun": 2413,
      "Ġinter": 2414,
      "imantan": 2415,
      "Ġ22": 2416,
      "embangkan": 2417,
      "epend": 2418,
      "Ġnama": 2419,
      "egang": 2420,
      "Ġfor": 2421,
      "ubern": 2422,
      "ibatkan": 2423,
      "estik": 2424,
      "ARAN": 2425,
      "Ġmempercepat": 2426,
      "Ġberbeda": 2427,
      "Ġketidak": 2428,
      "Ġkelola": 2429,
      "Ġpesawat": 2430,
      "faatkan": 2431,
      "Ġefektif": 2432,
      "Ġterlalu": 2433,
      "Ġinternal": 2434,
      "Ġemail": 2435,
      "ĠâĨĴ": 2436,
      "Ġdesain": 2437,
      "ĠUsaha": 2438,
      "adwal": 2439,
      "Ġotomatis": 2440,
      "Ġtumbuh": 2441,
      "An": 2442,
      "tara": 2443,
      "arapkan": 2444,
      "Ġpekan": 2445,
      "atar": 2446,
      "aka": 2447,
      "Ġbidang": 2448,
      "ĠPap": 2449,
      "ikm": 2450,
      "ĠSM": 2451,
      "ĠSub": 2452,
      "usa": 2453,
      "Ġterutama": 2454,
      "uru": 2455,
      "ĠDarm": 2456,
      "ĠTech": 2457,
      "Ġrencana": 2458,
      "olidasi": 2459,
      "Ġpenumpang": 2460,
      "Ġmelip": 2461,
      "ĠNetral": 2462,
      "Ġfitur": 2463,
      "Ġfashion": 2464,
      "aluasi": 2465,
      "Ġpelayanan": 2466,
      "Ġpelaksanaan": 2467,
      "intas": 2468,
      "Ġsertifikasi": 2469,
      "Ġkomentar": 2470,
      "orporate": 2471,
      "Ġkelompok": 2472,
      "SIARAN": 2473,
      "erdayaan": 2474,
      "ĠIndustri": 2475,
      "Ġperbankan": 2476,
      "Ġsenilai": 2477,
      "ĠKetenagakerjaan": 2478,
      "onfirmasi": 2479,
      "ounder": 2480,
      "ubernur": 2481,
      "99": 2482,
      "Al": 2483,
      "ONI": 2484,
      "PB": 2485,
      "Seb": 2486,
      "Tech": 2487,
      "lan": 2488,
      "na": 2489,
      "tan": 2490,
      "vesti": 2491,
      "|----": 2492,
      "Ġel": 2493,
      "Ġaj": 2494,
      "Ġapi": 2495,
      "anak": 2496,
      "arta": 2497,
      "Ġpangan": 2498,
      "atas": 2499,
      "Ġkas": 2500,
      "Ġth": 2501,
      "elam": 2502,
      "Ġmenawarkan": 2503,
      "ade": 2504,
      "orang": 2505,
      "itr": 2506,
      "ĠSaid": 2507,
      "ĠAgus": 2508,
      "ĠDin": 2509,
      "Ġmemang": 2510,
      "Ġrupiah": 2511,
      "ĠâĢĭ": 2512,
      "Ġpenga": 2513,
      "anganan": 2514,
      "ĠCS": 2515,
      "ĠLink": 2516,
      "anto": 2517,
      "enda": 2518,
      "osiasi": 2519,
      "Ġpembel": 2520,
      "ĠWakil": 2521,
      "Ġberkembang": 2522,
      "Ġkelistrikan": 2523,
      "Ġkemudian": 2524,
      "Ġnegeri": 2525,
      "Ġeksklusif": 2526,
      "aporkan": 2527,
      "Ġkrisis": 2528,
      "Ġinfluencer": 2529,
      "ĠNegara": 2530,
      "Ġbenar": 2531,
      "Ġbergilir": 2532,
      "ĠSetiap": 2533,
      "ejahtera": 2534,
      "tudio": 2535,
      "Ġstabilitas": 2536,
      "ĠDarmawan": 2537,
      "vestig": 2538,
      "__": 2539,
      "ax": 2540,
      "wit": 2541,
      "Ġid": 2542,
      "Ġuang": 2543,
      "anja": 2544,
      "Ġmana": 2545,
      "elepon": 2546,
      "Ġdiri": 2547,
      "ĠSing": 2548,
      "ĠSej": 2549,
      "ill": 2550,
      "ĠKomp": 2551,
      "Ġbersih": 2552,
      "ĠAw": 2553,
      "Ġung": 2554,
      "ĠJuli": 2555,
      "Ġco": 2556,
      "Ġcoverage": 2557,
      "Ġnarasi": 2558,
      "upuk": 2559,
      "ransi": 2560,
      "Ġpemulihan": 2561,
      "Ġpeluncuran": 2562,
      "Ġprak": 2563,
      "ainkan": 2564,
      "ĠWIB": 2565,
      "igasi": 2566,
      "nif": 2567,
      "Ġdistribusi": 2568,
      "Ġkereta": 2569,
      "truksi": 2570,
      "Ġkapasitas": 2571,
      "Ġseiring": 2572,
      "ĠMelalui": 2573,
      "Ġdomestik": 2574,
      "ĠKalimantan": 2575,
      "Ġtradisional": 2576,
      "Ġmencerminkan": 2577,
      "vestigasi": 2578,
      "witter": 2579,
      "ISI": 2580,
      "Ku": 2581,
      "Kopi": 2582,
      "OV": 2583,
      "PP": 2584,
      "eed": 2585,
      "get": 2586,
      "gnif": 2587,
      "low": 2588,
      "Ġulang": 2589,
      "entuk": 2590,
      "ary": 2591,
      "Ġtib": 2592,
      "Ġstory": 2593,
      "ahami": 2594,
      "asab": 2595,
      "Ġberikut": 2596,
      "urunan": 2597,
      "ĠAb": 2598,
      "rov": 2599,
      "Ġreg": 2600,
      "Ġramah": 2601,
      "tic": 2602,
      "Ġ25": 2603,
      "Ġsignif": 2604,
      "erifikasi": 2605,
      "Ġsebuah": 2606,
      "ormal": 2607,
      "Ġmeraih": 2608,
      "Ġmenyatakan": 2609,
      "Ġpemberdayaan": 2610,
      "ĠPertama": 2611,
      "Ġketika": 2612,
      "ewat": 2613,
      "Ġanalisis": 2614,
      "Ġsepanjang": 2615,
      "arusnya": 2616,
      "Ġdikutip": 2617,
      "Ġseharusnya": 2618,
      "intaan": 2619,
      "ubungkan": 2620,
      "Ġkeberlanjutan": 2621,
      "ĠManag": 2622,
      "Ġdemikian": 2623,
      "ĠSwiss": 2624,
      "Ġtiba": 2625,
      "asabah": 2626,
      "Ber": 2627,
      "Bisnis": 2628,
      "pen": 2629,
      "weet": 2630,
      "Ġmilik": 2631,
      "Ġpusat": 2632,
      "siapan": 2633,
      "akung": 2634,
      "Ġsub": 2635,
      "elit": 2636,
      "astian": 2637,
      "Ġmenekan": 2638,
      "Ġlakukan": 2639,
      "Ġlengkap": 2640,
      "ĠBe": 2641,
      "Ġperan": 2642,
      "Ġperingkat": 2643,
      "ute": 2644,
      "ĠMin": 2645,
      "ĠAm": 2646,
      "ume": 2647,
      "Ġrendah": 2648,
      "ungsi": 2649,
      "edik": 2650,
      "Ġny": 2651,
      "Ġmenjawab": 2652,
      "aju": 2653,
      "ajin": 2654,
      "otor": 2655,
      "anggu": 2656,
      "port": 2657,
      "Ġmenyediakan": 2658,
      "ahankan": 2659,
      "icara": 2660,
      "Ġindepend": 2661,
      "Ġkonsul": 2662,
      "Ġterjangkau": 2663,
      "entum": 2664,
      "Ġberlaku": 2665,
      "ohon": 2666,
      "Ġaudi": 2667,
      "ĠBandara": 2668,
      "ĠAngk": 2669,
      "ampilkan": 2670,
      "ustainability": 2671,
      "Ġmenambahkan": 2672,
      "Ġditerima": 2673,
      "Ġedukasi": 2674,
      "Ġjauh": 2675,
      "ĠDony": 2676,
      "aunch": 2677,
      "itraan": 2678,
      "Ġsignifikan": 2679,
      "JAKARTA": 2680,
      "bo": 2681,
      "clusi": 2682,
      "gal": 2683,
      "mart": 2684,
      "uari": 2685,
      "Ġangka": 2686,
      "anfa": 2687,
      "eran": 2688,
      "arakan": 2689,
      "Ġmew": 2690,
      "Ġsaing": 2691,
      "Ġbikin": 2692,
      "ahir": 2693,
      "Ġdiranc": 2694,
      "adah": 2695,
      "adai": 2696,
      "ĠBukan": 2697,
      "ĠBatik": 2698,
      "ĠBudi": 2699,
      "Ġberoperasi": 2700,
      "ĠID": 2701,
      "ĠDib": 2702,
      "ĠTwitter": 2703,
      "ĠJalan": 2704,
      "ungkan": 2705,
      "olume": 2706,
      "angani": 2707,
      "udit": 2708,
      "Ġger": 2709,
      "ĠEn": 2710,
      "ĠUn": 2711,
      "angkat": 2712,
      "ĠGro": 2713,
      "ĠGubernur": 2714,
      "Ġselalu": 2715,
      "Ġaku": 2716,
      "opy": 2717,
      "empuan": 2718,
      "Ġberkualitas": 2719,
      "ensif": 2720,
      "ĠOk": 2721,
      "ĠSeluruh": 2722,
      "Ġtransaksi": 2723,
      "uransi": 2724,
      "Ġdipro": 2725,
      "arkasi": 2726,
      "ublikasi": 2727,
      "entuan": 2728,
      "Ġberasal": 2729,
      "ompetitor": 2730,
      "eluruhan": 2731,
      "Ġtenaga": 2732,
      "Tuliskan": 2733,
      "ĠTanah": 2734,
      "emilikan": 2735,
      "anfaatan": 2736,
      "Ġdirancang": 2737,
      "%)": 2738,
      "18": 2739,
      "AT": 2740,
      "BI": 2741,
      "Data": 2742,
      "Lokal": 2743,
      "ioritas": 2744,
      "let": 2745,
      "nama": 2746,
      "rah": 2747,
      "uz": 2748,
      "arti": 2749,
      "Ġseg": 2750,
      "Ġmenengah": 2751,
      "Ġdigunakan": 2752,
      "ĠPol": 2753,
      "Ġlima": 2754,
      "ĠBatu": 2755,
      "ĠStr": 2756,
      "etapkan": 2757,
      "ĠKeb": 2758,
      "ĠKerja": 2759,
      "ĠKre": 2760,
      "ĠKAI": 2761,
      "Ġberf": 2762,
      "ĠMand": 2763,
      "rol": 2764,
      "Ġrep": 2765,
      "ĠJangan": 2766,
      "ĠJAKARTA": 2767,
      "ulu": 2768,
      "ulkan": 2769,
      "embatan": 2770,
      "trak": 2771,
      "ampuan": 2772,
      "Ġmelainkan": 2773,
      "Ġsebanyak": 2774,
      "Ġmembuk": 2775,
      "Ġkonsist": 2776,
      "icro": 2777,
      "right": 2778,
      "ersama": 2779,
      "artn": 2780,
      "Ġasal": 2781,
      "Ġmenghubungkan": 2782,
      "astik": 2783,
      "Ġgagal": 2784,
      "Ġberdasarkan": 2785,
      "Ġkendaraan": 2786,
      "Ġpaket": 2787,
      "ĠTeknologi": 2788,
      "isme": 2789,
      "ikmati": 2790,
      "17": 2791,
      "MEN": 2792,
      "oalan": 2793,
      "Ġang": 2794,
      "erh": 2795,
      "Ġmat": 2796,
      "Ġpul": 2797,
      "Ġpariwisata": 2798,
      "Ġtuj": 2799,
      "Ġtambah": 2800,
      "Ġtarif": 2801,
      "amin": 2802,
      "Ġso": 2803,
      "els": 2804,
      "elasan": 2805,
      "ĠPusat": 2806,
      "apak": 2807,
      "ikro": 2808,
      "isa": 2809,
      "Ġlevel": 2810,
      "ĠBara": 2811,
      "ĠKen": 2812,
      "enti": 2813,
      "uma": 2814,
      "ĠDil": 2815,
      "ĠTNI": 2816,
      "tag": 2817,
      "Ġmengikuti": 2818,
      "abar": 2819,
      "ĠCommun": 2820,
      "ĠCopy": 2821,
      "ampir": 2822,
      "Ġmelibatkan": 2823,
      "ĠNet": 2824,
      "ĠNilai": 2825,
      "Ġfaktor": 2826,
      "Ġpengiriman": 2827,
      "Ġsingk": 2828,
      "Ġsebut": 2829,
      "angkatan": 2830,
      "Ġibu": 2831,
      "Ġaksi": 2832,
      "ĠPLTU": 2833,
      "ĠBerd": 2834,
      "aftar": 2835,
      "Ġapresiasi": 2836,
      "inansial": 2837,
      "auty": 2838,
      "Ġterdapat": 2839,
      "Ġbeli": 2840,
      "merce": 2841,
      "Ġdiharapkan": 2842,
      "Ġorganik": 2843,
      "itmine": 2844,
      "ĠPapua": 2845,
      "Ġsingkat": 2846,
      "40": 2847,
      "45": 2848,
      "GI": 2849,
      "Kar": 2850,
      "Rekomendasi": 2851,
      "Sentimen": 2852,
      "hasil": 2853,
      "sk": 2854,
      "uw": 2855,
      "Â©": 2856,
      "Ġanc": 2857,
      "ĠÂ©": 2858,
      "erak": 2859,
      "erensi": 2860,
      "Ġpand": 2861,
      "Ġkol": 2862,
      "Ġbrief": 2863,
      "apatan": 2864,
      "Ġlokasi": 2865,
      "Ġlayak": 2866,
      "Ġlahir": 2867,
      "ĠBur": 2868,
      "ĠSumat": 2869,
      "ĠStudio": 2870,
      "ĠKl": 2871,
      "ĠKons": 2872,
      "ĠKemen": 2873,
      "ĠMei": 2874,
      "ĠMONI": 2875,
      "uki": 2876,
      "Ġhak": 2877,
      "Ġrek": 2878,
      "ĠRev": 2879,
      "ĠâĢĺ": 2880,
      "Ġfin": 2881,
      "eck": 2882,
      "Ġsebagian": 2883,
      "Ġpersoalan": 2884,
      "Ġpelatihan": 2885,
      "Ġakun": 2886,
      "emprov": 2887,
      "Ġmempert": 2888,
      "Ġmencatat": 2889,
      "Ġout": 2890,
      "Ġkemampuan": 2891,
      "undingan": 2892,
      "insip": 2893,
      "Ġperbaikan": 2894,
      "Ġdimulai": 2895,
      "Ġdinam": 2896,
      "Ġkalau": 2897,
      "unggu": 2898,
      "elesaikan": 2899,
      "Ġmengajak": 2900,
      "Ġserius": 2901,
      "TORING": 2902,
      "ĠDilarang": 2903,
      "ĠCopyright": 2904,
      "Ar": 2905,
      "Hal": 2906,
      "ee": 2907,
      "eum": 2908,
      "gilir": 2909,
      "pir": 2910,
      "ty": 2911,
      "ĿĮ": 2912,
      "Ġpabrik": 2913,
      "Ġtech": 2914,
      "ahkan": 2915,
      "isan": 2916,
      "Ġliter": 2917,
      "ĠBisnis": 2918,
      "Ġperempuan": 2919,
      "ĠKec": 2920,
      "urangan": 2921,
      "ĠII": 2922,
      "Ġinvestigasi": 2923,
      "entr": 2924,
      "entikan": 2925,
      "omosi": 2926,
      "ĠDisi": 2927,
      "ĠTri": 2928,
      "Ġrata": 2929,
      "Ġjalan": 2930,
      "Ġmenging": 2931,
      "awesi": 2932,
      "uhi": 2933,
      "ĠCek": 2934,
      "ĠCantik": 2935,
      "ampingan": 2936,
      "ĠHorm": 2937,
      "ĠHijau": 2938,
      "Ġpengadaan": 2939,
      "aranya": 2940,
      "Ġprioritas": 2941,
      "ambut": 2942,
      "Ġmencari": 2943,
      "indungi": 2944,
      "Ġdisampaikan": 2945,
      "Ġdiskon": 2946,
      "ĠBergilir": 2947,
      "Ġdiberikan": 2948,
      "Ġsepenuh": 2949,
      "ĠYANG": 2950,
      "entukan": 2951,
      "erdas": 2952,
      "ashtag": 2953,
      "ĠSebagai": 2954,
      "Ġbiasa": 2955,
      "hatian": 2956,
      "Ġmakanan": 2957,
      "Ġkasus": 2958,
      "Ġindependen": 2959,
      "clusive": 2960,
      "artnership": 2961,
      "ĠMONITORING": 2962,
      "ĠHormuz": 2963,
      "500": 2964,
      "RA": 2965,
      "Tub": 2966,
      "eal": 2967,
      "hawat": 2968,
      "masing": 2969,
      "po": 2970,
      "ret": 2971,
      "yo": 2972,
      "Ġuc": 2973,
      "Ġaut": 2974,
      "Ġalami": 2975,
      "enj": 2976,
      "enar": 2977,
      "Ġturut": 2978,
      "Ġtitik": 2979,
      "Ġtambahan": 2980,
      "Ġsawit": 2981,
      "Ġbaku": 2982,
      "Ġbalik": 2983,
      "Ġbukti": 2984,
      "Ġditu": 2985,
      "Ġlama": 2986,
      "ĠBitmine": 2987,
      "ekerjaan": 2988,
      "ĠSk": 2989,
      "usunan": 2990,
      "ebar": 2991,
      "ebarkasi": 2992,
      "etail": 2993,
      "ilat": 2994,
      "ĠMarket": 2995,
      "ukul": 2996,
      "Ġhubungan": 2997,
      "ĠDI": 2998,
      "ĠTok": 2999,
      "Ġjajaran": 3000,
      "Ġmengubah": 3001,
      "Ġ200": 3002,
      "awling": 3003,
      "ĠCakung": 3004,
      "ĠNat": 3005,
      "act": 3006,
      "otel": 3007,
      "Ġmenyoroti": 3008,
      "integrasi": 3009,
      "ĠPers": 3010,
      "ambat": 3011,
      "ujur": 3012,
      "ower": 3013,
      "igh": 3014,
      "ogle": 3015,
      "osm": 3016,
      "Ġkemasan": 3017,
      "Ġkemitraan": 3018,
      "unci": 3019,
      "Ġasuransi": 3020,
      "Ġdigitalisasi": 3021,
      "Ġapakah": 3022,
      "Ġmodel": 3023,
      "ategori": 3024,
      "ungkapkan": 3025,
      "Ġdirasakan": 3026,
      "ĠNegeri": 3027,
      "Ġkomunikasi": 3028,
      "ĠEkonomi": 3029,
      "ĠSebelum": 3030,
      "Ġpencapaian": 3031,
      "ĠSulawesi": 3032,
      "ouTub": 3033,
      "Ġkreatif": 3034,
      "Ġsitus": 3035,
      "Ġmomentum": 3036,
      "Ġcrawling": 3037,
      "ĠPurb": 3038,
      "ĠSingapura": 3039,
      "Ġancaman": 3040,
      "Ġsepenuhnya": 3041,
      "EK": 3042,
      "Hari": 3043,
      "Platform": 3044,
      "Sehat": 3045,
      "Terima": 3046,
      "eam": 3047,
      "fik": 3048,
      "ge": 3049,
      "gy": 3050,
      "kir": 3051,
      "lok": 3052,
      "lide": 3053,
      "Ġ@": 3054,
      "alurkan": 3055,
      "Ġdic": 3056,
      "adin": 3057,
      "ike": 3058,
      "ĠKon": 3059,
      "ĠKirim": 3060,
      "ĠMinta": 3061,
      "Ġinst": 3062,
      "ĠDana": 3063,
      "Ġmemilih": 3064,
      "Ġrangk": 3065,
      "timb": 3066,
      "ĠInf": 3067,
      "ĠInvestasi": 3068,
      "edar": 3069,
      "epsi": 3070,
      "Ġnomor": 3071,
      "Ġnasabah": 3072,
      "Ġpenerb": 3073,
      "Ġ11": 3074,
      "udara": 3075,
      "ĠLebih": 3076,
      "antung": 3077,
      "Ġfr": 3078,
      "ĠHP": 3079,
      "ative": 3080,
      "Ġmembutuhkan": 3081,
      "ĠGlobal": 3082,
      "AND": 3083,
      "estari": 3084,
      "Ġsering": 3085,
      "asilkan": 3086,
      "Ġkeluhan": 3087,
      "Ġterbesar": 3088,
      "Ġterbuka": 3089,
      "Ġekspansi": 3090,
      "commerce": 3091,
      "ekanan": 3092,
      "ĠMenurutnya": 3093,
      "ALISI": 3094,
      "arisan": 3095,
      "ĠKesehatan": 3096,
      "Ġkurang": 3097,
      "Ġperlindungan": 3098,
      "Ġimplementasi": 3099,
      "Ġtransparansi": 3100,
      "ustom": 3101,
      "epakatan": 3102,
      "Ġajang": 3103,
      "ĠBerdasarkan": 3104,
      "ouTube": 3105,
      "ALISIS": 3106,
      "499": 3107,
      "baru": 3108,
      "ble": 3109,
      "ez": 3110,
      "eop": 3111,
      "ful": 3112,
      "hit": 3113,
      "kait": 3114,
      "lasi": 3115,
      "âĨĴ": 3116,
      "Ġ*": 3117,
      "Ġut": 3118,
      "Ġob": 3119,
      "arapan": 3120,
      "Ġmah": 3121,
      "Ġmed": 3122,
      "Ġmalam": 3123,
      "atatan": 3124,
      "Ġkategori": 3125,
      "alent": 3126,
      "Ġbangga": 3127,
      "Ġbeban": 3128,
      "ahas": 3129,
      "emu": 3130,
      "onel": 3131,
      "Ġmener": 3132,
      "Ġdiw": 3133,
      "ĠPew": 3134,
      "ĠPlatform": 3135,
      "iket": 3136,
      "Ġlib": 3137,
      "Ġlembaga": 3138,
      "ĠBidang": 3139,
      "eksan": 3140,
      "ĠStor": 3141,
      "ĠKore": 3142,
      "Ġberin": 3143,
      "ĠMEDIA": 3144,
      "ĠTol": 3145,
      "ĠTengg": 3146,
      "Ġrantai": 3147,
      "ĠJuta": 3148,
      "Ġkew": 3149,
      "ĠIng": 3150,
      "abu": 3151,
      "Ġpenurunan": 3152,
      "Ġ13": 3153,
      "Ġpengind": 3154,
      "isisi": 3155,
      "agang": 3156,
      "ĠUtara": 3157,
      "oding": 3158,
      "Ġkepemilikan": 3159,
      "Ġvia": 3160,
      "Ġvisi": 3161,
      "Ġmemperoleh": 3162,
      "utup": 3163,
      "ĠSelat": 3164,
      "angsa": 3165,
      "uncul": 3166,
      "ĠYang": 3167,
      "istem": 3168,
      "Ġminta": 3169,
      "eroan": 3170,
      "ENTI": 3171,
      "anyuw": 3172,
      "Ġperdana": 3173,
      "evelop": 3174,
      "Ġkalian": 3175,
      "atural": 3176,
      "ejahteraan": 3177,
      "Ġpenghargaan": 3178,
      "ĠMasyarakat": 3179,
      "Ġanggota": 3180,
      "Ġpermintaan": 3181,
      "Ġtercatat": 3182,
      "Ġdekat": 3183,
      "ogyakarta": 3184,
      "Ġpembelian": 3185,
      "ĠAward": 3186,
      "Ġberikutnya": 3187,
      "ĠGroup": 3188,
      "ĠDisiarkan": 3189,
      "Ġucap": 3190,
      "ĠPewarta": 3191,
      "ĠKorea": 3192,
      "Ġpengindeksan": 3193,
      "anyuwangi": 3194,
      "200": 3195,
      "Ak": 3196,
      "EAN": 3197,
      "JS": 3198,
      "NM": 3199,
      "bon": 3200,
      "cess": 3201,
      "ier": 3202,
      "otif": 3203,
      "rajin": 3204,
      "ugi": 3205,
      "yle": 3206,
      "âĿĮ": 3207,
      "Ķ´": 3208,
      "ert": 3209,
      "Ġkamp": 3210,
      "Ġtemp": 3211,
      "Ġtransi": 3212,
      "akses": 3213,
      "emuka": 3214,
      "Ġyai": 3215,
      "ĠPut": 3216,
      "esan": 3217,
      "ĠBesar": 3218,
      "ĠBumi": 3219,
      "ilang": 3220,
      "Ġinsi": 3221,
      "ukses": 3222,
      "Ġhampir": 3223,
      "umsi": 3224,
      "ĠDebarkasi": 3225,
      "Ġmemahami": 3226,
      "ĠJuga": 3227,
      "uliner": 3228,
      "ĠRep": 3229,
      "ĠRasa": 3230,
      "iau": 3231,
      "uatu": 3232,
      "ayu": 3233,
      "ĠHUT": 3234,
      "Ġpengrajin": 3235,
      "Ġsis": 3236,
      "ĠESG": 3237,
      "gris": 3238,
      "Ġpemanfaatan": 3239,
      "Ġmenyiapkan": 3240,
      "estinasi": 3241,
      "ĠWij": 3242,
      "ĠOl": 3243,
      "Ġkelas": 3244,
      "rael": 3245,
      "ĠBerk": 3246,
      "Ġsejarah": 3247,
      "Ġuji": 3248,
      "Ġkonsolidasi": 3249,
      "Ġpendek": 3250,
      "argetkan": 3251,
      "time": 3252,
      "Ġpertanian": 3253,
      "Ġterlihat": 3254,
      "anye": 3255,
      "urnalis": 3256,
      "Ġtertinggi": 3257,
      "eritaan": 3258,
      "Ġengagement": 3259,
      "Ġsurya": 3260,
      "incare": 3261,
      "ĠMereka": 3262,
      "ĠInternational": 3263,
      "Ġtindakan": 3264,
      "Ġdibandingkan": 3265,
      "ĠTenggara": 3266,
      "Ġyaitu": 3267,
      "14": 3268,
      "BA": 3269,
      "Cepat": 3270,
      "TP": 3271,
      "Telepon": 3272,
      "ber": 3273,
      "bal": 3274,
      "baik": 3275,
      "bulan": 3276,
      "fri": 3277,
      "hmad": 3278,
      "ji": 3279,
      "light": 3280,
      "min": 3281,
      "pe": 3282,
      "anuari": 3283,
      "Ġdemi": 3284,
      "Ġdasar": 3285,
      "Ġmar": 3286,
      "Ġmisi": 3287,
      "Ġmuncul": 3288,
      "Ġpukul": 3289,
      "Ġteh": 3290,
      "Ġtanggal": 3291,
      "ame": 3292,
      "Ġbumi": 3293,
      "emah": 3294,
      "Ġmenurut": 3295,
      "Ġdisi": 3296,
      "Ġdial": 3297,
      "tusi": 3298,
      "ĠPemprov": 3299,
      "Ġlintas": 3300,
      "ĠBo": 3301,
      "ĠBapak": 3302,
      "ekonom": 3303,
      "ektivitas": 3304,
      "ĠSe": 3305,
      "ĠSaat": 3306,
      "usen": 3307,
      "Ġperkuat": 3308,
      "etika": 3309,
      "Ġberedar": 3310,
      "Ġterintegrasi": 3311,
      "ĠAustr": 3312,
      "Ġref": 3313,
      "Ġruang": 3314,
      "Ġjadwal": 3315,
      "Ġjujur": 3316,
      "ĠJam": 3317,
      "ataan": 3318,
      "Ġ23": 3319,
      "Ġcomp": 3320,
      "Ġ16": 3321,
      "ĠCoverage": 3322,
      "perusahaan": 3323,
      "ĠLogistik": 3324,
      "ĠNov": 3325,
      "Ġsini": 3326,
      "ĠUS": 3327,
      "Ġkontribusi": 3328,
      "Ġmenyeluruh": 3329,
      "usiness": 3330,
      "ication": 3331,
      "Ġpasc": 3332,
      "Ġketat": 3333,
      "Ġdisebut": 3334,
      "Ġdibuat": 3335,
      "undang": 3336,
      "ĠYogyakarta": 3337,
      "Ġpendanaan": 3338,
      "Ġpendapatan": 3339,
      "Ġtren": 3340,
      "ock": 3341,
      "ocial": 3342,
      "ĠðŁĮ": 3343,
      "Ġpertemuan": 3344,
      "area": 3345,
      "Ġplastik": 3346,
      "Ġevent": 3347,
      "ĠPasokan": 3348,
      "ĠAceh": 3349,
      "Ġpeduli": 3350,
      "ebabkan": 3351,
      "Ġminimal": 3352,
      "resh": 3353,
      "elamatan": 3354,
      "ublikasikan": 3355,
      "Ġmembuktikan": 3356,
      "ĠSebelumnya": 3357,
      "kirakan": 3358,
      "ĠInggris": 3359,
      "evelopment": 3360,
      "ekonomian": 3361,
      "13": 3362,
      "90": 3363,
      "DA": 3364,
      "ID": 3365,
      "Ibu": 3366,
      "LU": 3367,
      "Pr": 3368,
      "Tim": 3369,
      "caya": 3370,
      "der": 3371,
      "gen": 3372,
      "lo": 3373,
      "sc": 3374,
      "se": 3375,
      "tob": 3376,
      "Ġusia": 3377,
      "Ġdar": 3378,
      "Ġdestinasi": 3379,
      "Ġmur": 3380,
      "Ġpasi": 3381,
      "atasan": 3382,
      "Ġku": 3383,
      "Ġkan": 3384,
      "Ġkunj": 3385,
      "Ġtem": 3386,
      "Ġthe": 3387,
      "Ġtahap": 3388,
      "Ġtekanan": 3389,
      "Ġtiket": 3390,
      "aktur": 3391,
      "Ġsc": 3392,
      "Ġmenemukan": 3393,
      "Ġmenunggu": 3394,
      "ĠPasar": 3395,
      "Ġlahan": 3396,
      "ĠBr": 3397,
      "ĠSatu": 3398,
      "ĠSehat": 3399,
      "ĠSistem": 3400,
      "Ġperhatian": 3401,
      "etak": 3402,
      "ĠKompetitor": 3403,
      "Ġberupa": 3404,
      "Ġterh": 3405,
      "ĠMem": 3406,
      "entingan": 3407,
      "ĠDep": 3408,
      "Ġriset": 3409,
      "ĠJanuari": 3410,
      "ulangan": 3411,
      "Ġmengungkapkan": 3412,
      "ĠRakyat": 3413,
      "Ġcustom": 3414,
      "andat": 3415,
      "ĠCorporate": 3416,
      "adian": 3417,
      "ĠLaporan": 3418,
      "isik": 3419,
      "Ġpersonel": 3420,
      "Ġkontrak": 3421,
      "ANALISIS": 3422,
      "intech": 3423,
      "uji": 3424,
      "ical": 3425,
      "Ġketentuan": 3426,
      "Ġterbatas": 3427,
      "osan": 3428,
      "Ġberhenti": 3429,
      "Ġagenda": 3430,
      "Ġterkemuka": 3431,
      "erdayakan": 3432,
      "ĠTerkait": 3433,
      "anjutnya": 3434,
      "ĠAlami": 3435,
      "Ġeditor": 3436,
      "idupan": 3437,
      "Ġreal": 3438,
      "Ġdijalankan": 3439,
      "Ġacara": 3440,
      "ĠIsu": 3441,
      "Ġevaluasi": 3442,
      "ĠKereta": 3443,
      "ixel": 3444,
      "Sebagai": 3445,
      "ĠDinas": 3446,
      "ĠCSR": 3447,
      "ediksi": 3448,
      "Ġnyaman": 3449,
      "Ġmateri": 3450,
      "Ġsoal": 3451,
      "Ġrangkaian": 3452,
      "tober": 3453,
      "%.": 3454,
      "):": 3455,
      "100": 3456,
      "EM": 3457,
      "Kal": 3458,
      "Kilat": 3459,
      "Max": 3460,
      "Nusa": 3461,
      "Sel": 3462,
      "Set": 3463,
      "Salam": 3464,
      "date": 3465,
      "hari": 3466,
      "ianto": 3467,
      "juan": 3468,
      "ning": 3469,
      "nilai": 3470,
      "ry": 3471,
      "raga": 3472,
      "yeksi": 3473,
      "enang": 3474,
      "Ġdel": 3475,
      "Ġdok": 3476,
      "Ġmasing": 3477,
      "Ġpekerjaan": 3478,
      "atasi": 3479,
      "Ġkg": 3480,
      "Ġtop": 3481,
      "Ġtingg": 3482,
      "Ġsat": 3483,
      "Ġsempat": 3484,
      "Ġbarang": 3485,
      "Ġbantu": 3486,
      "Ġmenargetkan": 3487,
      "Ġdiakses": 3488,
      "oran": 3489,
      "ĠPI": 3490,
      "ĠPNM": 3491,
      "itasi": 3492,
      "ikit": 3493,
      "isual": 3494,
      "ĠSyariah": 3495,
      "ĠSOV": 3496,
      "ebaran": 3497,
      "ĠKA": 3498,
      "ĠIN": 3499,
      "ĠMed": 3500,
      "ome": 3501,
      "umni": 3502,
      "ĠDaerah": 3503,
      "ĠTh": 3504,
      "ĠTak": 3505,
      "ĠTani": 3506,
      "Ġrakyat": 3507,
      "ĠJika": 3508,
      "ular": 3509,
      "esin": 3510,
      "ĠRate": 3511,
      "ĠRumah": 3512,
      "ĠRabu": 3513,
      "Ġmelaporkan": 3514,
      "ĠNaik": 3515,
      "ĠNomor": 3516,
      "Ġfil": 3517,
      "Ġfinansial": 3518,
      "ĠHaji": 3519,
      "agam": 3520,
      "ĠUni": 3521,
      "otol": 3522,
      "Ġwawancara": 3523,
      "Ġpemer": 3524,
      "alian": 3525,
      "estasi": 3526,
      "intasan": 3527,
      "anjian": 3528,
      "Ġprinsip": 3529,
      "Ġkepentingan": 3530,
      "Ġvolume": 3531,
      "ĠAnd": 3532,
      "ĠOper": 3533,
      "Ġkesepakatan": 3534,
      "ĠASEAN": 3535,
      "Ġsesuatu": 3536,
      "anjutkan": 3537,
      "aksin": 3538,
      "ĠBPOM": 3539,
      "Ġkloter": 3540,
      "Ġbergerak": 3541,
      "ineral": 3542,
      "Ġkendala": 3543,
      "antau": 3544,
      "ĠPendidikan": 3545,
      "Ġribu": 3546,
      "Ġbeasiswa": 3547,
      "ĠGaruda": 3548,
      "Ġprodusen": 3549,
      "ufaktur": 3550,
      "ĠSubianto": 3551,
      "Ġpengaw": 3552,
      "ĠManager": 3553,
      "Ġakuisisi": 3554,
      "ĠOktober": 3555,
      "Ġberfokus": 3556,
      "ĠMandiri": 3557,
      "Ġkonsisten": 3558,
      "Ġtujuan": 3559,
      "hasilan": 3560,
      "ĠSumatera": 3561,
      "Ġpenerbangan": 3562,
      "\",": 3563,
      "22": 3564,
      "300": 3565,
      "70": 3566,
      "ATI": 3567,
      "BG": 3568,
      "CH": 3569,
      "Di": 3570,
      "Go": 3571,
      "MA": 3572,
      "Men": 3573,
      "PN": 3574,
      "Pem": 3575,
      "UR": 3576,
      "bar": 3577,
      "mu": 3578,
      "nik": 3579,
      "ton": 3580,
      "Ġz": 3581,
      "Ġarea": 3582,
      "erasi": 3583,
      "aram": 3584,
      "Ġmil": 3585,
      "ating": 3586,
      "sik": 3587,
      "ange": 3588,
      "alasi": 3589,
      "amat": 3590,
      "Ġswas": 3591,
      "Ġbutuh": 3592,
      "ahuan": 3593,
      "asaran": 3594,
      "Ġmenutur": 3595,
      "Ġmenikmati": 3596,
      "Ġdiv": 3597,
      "iku": 3598,
      "esai": 3599,
      "esuai": 3600,
      "Ġterasa": 3601,
      "urat": 3602,
      "ĠIm": 3603,
      "ĠMineral": 3604,
      "Ġhijau": 3605,
      "umer": 3606,
      "ĠDPR": 3607,
      "esisi": 3608,
      "Ġmengand": 3609,
      "Ġmengembangkan": 3610,
      "âĢĶ": 3611,
      "Ġ27": 3612,
      "ĠRib": 3613,
      "ĠRiau": 3614,
      "abungan": 3615,
      "tron": 3616,
      "Ġcoba": 3617,
      "Ġnamun": 3618,
      "ayat": 3619,
      "Ġmenjalankan": 3620,
      "Ġmemberdayakan": 3621,
      "ago": 3622,
      "ĠES": 3623,
      "Ġwarisan": 3624,
      "uanya": 3625,
      "Ġpromo": 3626,
      "istan": 3627,
      "Ġaspek": 3628,
      "UMKM": 3629,
      "ifikasi": 3630,
      "Ġ80": 3631,
      "ĠKomunikasi": 3632,
      "Ġterdiri": 3633,
      "ĠBPR": 3634,
      "arma": 3635,
      "Ġpihaknya": 3636,
      "Ġemisi": 3637,
      "ĠIsrael": 3638,
      "ĠShop": 3639,
      "Ġiklan": 3640,
      "etugas": 3641,
      "Ġpanen": 3642,
      "Ġribuan": 3643,
      "Ġmusim": 3644,
      "Ġkejadian": 3645,
      "enderal": 3646,
      "injaman": 3647,
      "Ġidentitas": 3648,
      "ĠKloter": 3649,
      "Ġdinamika": 3650,
      "ĠWijaya": 3651,
      "Ġpasien": 3652,
      "Ġmenuturkan": 3653,
      "%),": 3654,
      "Dengan": 3655,
      "EF": 3656,
      "PO": 3657,
      "Pintar": 3658,
      "Poin": 3659,
      "Str": 3660,
      "US": 3661,
      "badah": 3662,
      "ld": 3663,
      "lik": 3664,
      "ualan": 3665,
      "ĊĠĠ": 3666,
      "ening": 3667,
      "Ġdr": 3668,
      "site": 3669,
      "Ġkunci": 3670,
      "alon": 3671,
      "Ġtun": 3672,
      "Ġteg": 3673,
      "Ġtok": 3674,
      "akai": 3675,
      "ammad": 3676,
      "Ġbar": 3677,
      "Ġboleh": 3678,
      "ontribusi": 3679,
      "Ġdidukung": 3680,
      "Ġyakin": 3681,
      "orld": 3682,
      "ĠPener": 3683,
      "Ġleg": 3684,
      "Ġlewat": 3685,
      "ĠBat": 3686,
      "ĠSec": 3687,
      "Ġperundingan": 3688,
      "ebas": 3689,
      "etan": 3690,
      "ĠKh": 3691,
      "ĠMulai": 3692,
      "Ġinklusif": 3693,
      "ukar": 3694,
      "ĠDaya": 3695,
      "Ġmeman": 3696,
      "ulus": 3697,
      "Ġkeand": 3698,
      "ĠInt": 3699,
      "ira": 3700,
      "irikan": 3701,
      "Ġmengaku": 3702,
      "iman": 3703,
      "Ġ21": 3704,
      "ĠRo": 3705,
      "ĠRiz": 3706,
      "trumen": 3707,
      "egara": 3708,
      "Ġpenanganan": 3709,
      "andi": 3710,
      "ĠLangkah": 3711,
      "Ġmenjangkau": 3712,
      "Ġpersonal": 3713,
      "ĠUN": 3714,
      "ormati": 3715,
      "ambang": 3716,
      "anyaan": 3717,
      "Ġkompr": 3718,
      "obilitas": 3719,
      "Ġbahkan": 3720,
      "ewan": 3721,
      "Ġsetempat": 3722,
      "Ġmendalam": 3723,
      "rav": 3724,
      "ðŁĶ´": 3725,
      "Ġberhak": 3726,
      "ĠYouTube": 3727,
      "Ġmanusia": 3728,
      "Ġmeningkatnya": 3729,
      "Ġsehari": 3730,
      "Ġ60": 3731,
      "Ġoperasi": 3732,
      "Ġsedikit": 3733,
      "lien": 3734,
      "Ġalat": 3735,
      "Ġbelak": 3736,
      "Ġkeberangkatan": 3737,
      "ahui": 3738,
      "Ġberdampak": 3739,
      "Ġinstrumen": 3740,
      "Ġkreator": 3741,
      "Ġsituasi": 3742,
      "produk": 3743,
      "ebanon": 3744,
      "ĠSemua": 3745,
      "ĠDesember": 3746,
      "ondasi": 3747,
      "ĠGoogle": 3748,
      "Ġoptimal": 3749,
      "Ġcontent": 3750,
      "Ġregulasi": 3751,
      "hawatiran": 3752,
      "Ġsiswa": 3753,
      "ĠOleh": 3754,
      "ĠAustralia": 3755,
      "Ġkeandalan": 3756,
      "%,": 3757,
      "'s": 3758,
      "60": 3759,
      "BB": 3760,
      "Bank": 3761,
      "Digital": 3762,
      "En": 3763,
      "HSG": 3764,
      "Man": 3765,
      "SM": 3766,
      "VE": 3767,
      "]**": 3768,
      "besar": 3769,
      "cl": 3770,
      "ces": 3771,
      "din": 3772,
      "ey": 3773,
      "hon": 3774,
      "hubungan": 3775,
      "ium": 3776,
      "la": 3777,
      "lus": 3778,
      "mo": 3779,
      "tik": 3780,
      "Ġes": 3781,
      "Ġikut": 3782,
      "Ł¡": 3783,
      "erl": 3784,
      "ering": 3785,
      "Ġdetik": 3786,
      "Ġmeski": 3787,
      "Ġmobil": 3788,
      "Ġmobilitas": 3789,
      "Ġput": 3790,
      "Ġpupuk": 3791,
      "Ġpartnership": 3792,
      "Ġkam": 3793,
      "Ġkand": 3794,
      "Ġkaki": 3795,
      "Ġtel": 3796,
      "Ġtol": 3797,
      "Ġtangga": 3798,
      "akh": 3799,
      "Ġsamb": 3800,
      "Ġbag": 3801,
      "Ġbatch": 3802,
      "Ġbotol": 3803,
      "elang": 3804,
      "asanya": 3805,
      "onj": 3806,
      "Ġmenampilkan": 3807,
      "tus": 3808,
      "tual": 3809,
      "Ġya": 3810,
      "ĠPekan": 3811,
      "isk": 3812,
      "ĠBanyuwangi": 3813,
      "Ġperang": 3814,
      "ility": 3815,
      "ĠKend": 3816,
      "Ġberat": 3817,
      "Ġberubah": 3818,
      "Ġterukur": 3819,
      "ĠMo": 3820,
      "ĠMemb": 3821,
      "ĠMod": 3822,
      "ĠMeski": 3823,
      "ĠAman": 3824,
      "umas": 3825,
      "Ġrute": 3826,
      "ĠJenderal": 3827,
      "ĠInformasi": 3828,
      "edIn": 3829,
      "abat": 3830,
      "abuhan": 3831,
      "embus": 3832,
      "Ġpros": 3833,
      "Ġpener": 3834,
      "ĠCo": 3835,
      "ayo": 3836,
      "ayan": 3837,
      "ampau": 3838,
      "ĠLiputan": 3839,
      "ĠLebanon": 3840,
      "Ġfund": 3841,
      "Ġfisik": 3842,
      "Ġfondasi": 3843,
      "angkutan": 3844,
      "ĠGun": 3845,
      "alahan": 3846,
      "ĠFokus": 3847,
      "opsi": 3848,
      "ambatan": 3849,
      "empo": 3850,
      "icu": 3851,
      "Ġberkontribusi": 3852,
      "owongan": 3853,
      "Ġkeselamatan": 3854,
      "ustru": 3855,
      "ancam": 3856,
      "ancial": 3857,
      "Ġdigelar": 3858,
      "Ġpenyelengg": 3859,
      "Ġdikonfirmasi": 3860,
      "Ġeksek": 3861,
      "Ġinflasi": 3862,
      "ashing": 3863,
      "Ġpercepatan": 3864,
      "Ġketerangannya": 3865,
      "ĠResmi": 3866,
      "Ġkehidupan": 3867,
      "Ġantar": 3868,
      "cript": 3869,
      "Ġaudience": 3870,
      "Ġmewujudkan": 3871,
      "Ġmengingatkan": 3872,
      "ighlight": 3873,
      "ravel": 3874,
      "ampaui": 3875,
      "-|--------": 3876,
      "55": 3877,
      "75": 3878,
      "?\"": 3879,
      "BP": 3880,
      "Bukan": 3881,
      "DO": 3882,
      "EC": 3883,
      "Hub": 3884,
      "ING": 3885,
      "TB": 3886,
      "TT": 3887,
      "Tweet": 3888,
      "VI": 3889,
      "].": 3890,
      "back": 3891,
      "ex": 3892,
      "iwa": 3893,
      "ken": 3894,
      "ous": 3895,
      "pada": 3896,
      "qbal": 3897,
      "su": 3898,
      "vensi": 3899,
      "âĸ": 3900,
      "Ġâľħ": 3901,
      "ersial": 3902,
      "enangan": 3903,
      "Ġdon": 3904,
      "arin": 3905,
      "Ġmesin": 3906,
      "Ġpetugas": 3907,
      "atusan": 3908,
      "Ġkoordinasi": 3909,
      "aluran": 3910,
      "akuan": 3911,
      "Ġbab": 3912,
      "Ġbakar": 3913,
      "ĠPadang": 3914,
      "Ġlink": 3915,
      "Ġlaunch": 3916,
      "ĠBSI": 3917,
      "ĠBisa": 3918,
      "ekal": 3919,
      "ĠSaya": 3920,
      "ĠSalah": 3921,
      "Ġperekonomian": 3922,
      "ĠKor": 3923,
      "ĠKeh": 3924,
      "ĠKAM": 3925,
      "ure": 3926,
      "ĠIqbal": 3927,
      "ĠMu": 3928,
      "Ġhalaman": 3929,
      "ĠDevelopment": 3930,
      "Ġrate": 3931,
      "Ġjasa": 3932,
      "ĠJep": 3933,
      "ĠJasa": 3934,
      "Ġkesiapan": 3935,
      "ire": 3936,
      "Ġcalon": 3937,
      "Ġnon": 3938,
      "Ġnatural": 3939,
      "aysia": 3940,
      "ĠLayanan": 3941,
      "ĠLRT": 3942,
      "ĠHR": 3943,
      "Ġpersepsi": 3944,
      "agu": 3945,
      "endik": 3946,
      "Ġselesai": 3947,
      "stil": 3948,
      "oditas": 3949,
      "Ġ300": 3950,
      "Ġproduktivitas": 3951,
      "Ġkompl": 3952,
      "yarat": 3953,
      "ejak": 3954,
      "Ġpasok": 3955,
      "Ġsetara": 3956,
      "ĠPras": 3957,
      "ĠOtor": 3958,
      "Ġkelapa": 3959,
      "read": 3960,
      "onsumer": 3961,
      "ðŁİ": 3962,
      "Ġdibuka": 3963,
      "Ġasli": 3964,
      "Ġminuman": 3965,
      "entuh": 3966,
      "umuman": 3967,
      "ĠAdapun": 3968,
      "ungkinkan": 3969,
      "ĠBPJS": 3970,
      "Ġbertanggung": 3971,
      "imbah": 3972,
      "ĠArab": 3973,
      "Ġmitigasi": 3974,
      "Ġkekayaan": 3975,
      "ompetKita": 3976,
      "AMP": 3977,
      "abila": 3978,
      "Ġposting": 3979,
      "ĠQatar": 3980,
      "OMEN": 3981,
      "Ġimpor": 3982,
      "ensasi": 3983,
      "elenggarakan": 3984,
      "Ġkompetitor": 3985,
      "Ġshare": 3986,
      "ĠMalaysia": 3987,
      "versitas": 3988,
      "Ġmusik": 3989,
      "Ġurban": 3990,
      "Ġmeliput": 3991,
      "|-------": 3992,
      "ĠLinkedIn": 3993,
      "Bersih": 3994,
      "Ġangle": 3995,
      "ezat": 3996,
      "Ġkunjungan": 3997,
      "Ġcustomer": 3998,
      "Kalau": 3999,
      "Ġmemanfaatkan": 4000,
      "âĸ¡": 4001,
      "16": 4002,
      "47": 4003,
      "800": 4004,
      "Ada": 4005,
      "FI": 4006,
      "GE": 4007,
      "KAN": 4008,
      "MI": 4009,
      "OO": 4010,
      "UI": 4011,
      "]*": 4012,
      "dent": 4013,
      "eek": 4014,
      "hal": 4015,
      "hut": 4016,
      "jakarta": 4017,
      "kap": 4018,
      "ler": 4019,
      "naker": 4020,
      "oaks": 4021,
      "ph": 4022,
      "zi": 4023,
      "Ġ/": 4024,
      "Ġmekan": 4025,
      "Ġmotif": 4026,
      "atus": 4027,
      "Ġkuliner": 4028,
      "alin": 4029,
      "Ġtutur": 4030,
      "akal": 4031,
      "amanya": 4032,
      "Ġstasiun": 4033,
      "Ġsmart": 4034,
      "Ġbuku": 4035,
      "unter": 4036,
      "Ġment": 4037,
      "Ġmeningg": 4038,
      "Ġdif": 4039,
      "ĠPost": 4040,
      "apresiasi": 4041,
      "ĠKont": 4042,
      "ĠKolaborasi": 4043,
      "Ġbersi": 4044,
      "utasi": 4045,
      "urasi": 4046,
      "ĠMuh": 4047,
      "Ġinform": 4048,
      "ukaan": 4049,
      "ĠApr": 4050,
      "umahan": 4051,
      "ĠDit": 4052,
      "ĠDuk": 4053,
      "Ġrampung": 4054,
      "ĠJaya": 4055,
      "irst": 4056,
      "--|": 4057,
      "abilitas": 4058,
      "Ġcab": 4059,
      "egah": 4060,
      "egahan": 4061,
      "Ġpenelit": 4062,
      "ĠLingkungan": 4063,
      "Ġmelanjutkan": 4064,
      "ĠHidup": 4065,
      "Ġgas": 4066,
      "ajak": 4067,
      "ajah": 4068,
      "Ġmembahas": 4069,
      "endly": 4070,
      "ĠUl": 4071,
      "Ġkonektivitas": 4072,
      "tifikat": 4073,
      "Ġpemegang": 4074,
      "Ġmenyelesaikan": 4075,
      "ARI": 4076,
      "empurn": 4077,
      "encapaian": 4078,
      "ilaian": 4079,
      "Ġkarbon": 4080,
      "Ġtahunan": 4081,
      "own": 4082,
      "guna": 4083,
      "reator": 4084,
      "lean": 4085,
      "tarik": 4086,
      "unjung": 4087,
      "ĠMenengah": 4088,
      "ĠVen": 4089,
      "Ġkonstruksi": 4090,
      "Ġpendampingan": 4091,
      "Ġdikenal": 4092,
      "entiment": 4093,
      "Ġmenghasilkan": 4094,
      "ĠKeputusan": 4095,
      "Ġditetapkan": 4096,
      "etrik": 4097,
      "Ġoff": 4098,
      "Ġinsentif": 4099,
      "Ġkekhawatiran": 4100,
      "ĠAngle": 4101,
      "ugas": 4102,
      "ĠReels": 4103,
      "eritakan": 4104,
      "APOR": 4105,
      "ĠExc": 4106,
      "aksanakan": 4107,
      "Ġpenjelasan": 4108,
      "Ġwebsite": 4109,
      "ĠGratis": 4110,
      "Ġmomen": 4111,
      "gabung": 4112,
      "ĠMaluku": 4113,
      "ĠMuslim": 4114,
      "Ġtindak": 4115,
      "entifikasi": 4116,
      "App": 4117,
      "ĠAgustus": 4118,
      "Ġungg": 4119,
      "Ġkonsultasi": 4120,
      "Karena": 4121,
      "Ġkoleksi": 4122,
      "Ġmempertahankan": 4123,
      "ealth": 4124,
      "ĠPurbaya": 4125,
      "ĠStories": 4126,
      "Ġtransisi": 4127,
      "esisir": 4128,
      ".,": 4129,
      "80": 4130,
      "AB": 4131,
      "BK": 4132,
      "CE": 4133,
      "Dari": 4134,
      "Dalam": 4135,
      "KS": 4136,
      "Now": 4137,
      "PA": 4138,
      "Pern": 4139,
      "Startup": 4140,
      "Segar": 4141,
      "duc": 4142,
      "jo": 4143,
      "jek": 4144,
      "ps": 4145,
      "sy": 4146,
      "sus": 4147,
      "ship": 4148,
      "tech": 4149,
      "Ġgi": 4150,
      "Ġab": 4151,
      "Ġasing": 4152,
      "Ġ__": 4153,
      "Ġudara": 4154,
      "Ġmikro": 4155,
      "Ġpe": 4156,
      "sion": 4157,
      "anget": 4158,
      "Ġkain": 4159,
      "Ġkantor": 4160,
      "Ġklien": 4161,
      "aly": 4162,
      "Ġtangg": 4163,
      "akaan": 4164,
      "akter": 4165,
      "aming": 4166,
      "amai": 4167,
      "Ġsambil": 4168,
      "Ġsyariah": 4169,
      "Ġsustainability": 4170,
      "Ġscript": 4171,
      "Ġbanget": 4172,
      "eline": 4173,
      "asama": 4174,
      "ĠPintar": 4175,
      "itkan": 4176,
      "itif": 4177,
      "esm": 4178,
      "esain": 4179,
      "ĠBi": 4180,
      "ĠBuruh": 4181,
      "ĠBuka": 4182,
      "ĠBio": 4183,
      "ektor": 4184,
      "ektar": 4185,
      "ĠStasiun": 4186,
      "ĠSocial": 4187,
      "Ġperger": 4188,
      "utaan": 4189,
      "ĠIM": 4190,
      "ĠMonitor": 4191,
      "ĠMobil": 4192,
      "Ġhektar": 4193,
      "ominasi": 4194,
      "ĠDr": 4195,
      "ĠDetik": 4196,
      "Ġmemp": 4197,
      "Ġmemungkinkan": 4198,
      "Ġjustru": 4199,
      "ĠInovasi": 4200,
      "âĢĭ": 4201,
      "epas": 4202,
      "Ġinisi": 4203,
      "awal": 4204,
      "Ġnetral": 4205,
      "Ġpenerima": 4206,
      "andang": 4207,
      "ĠCN": 4208,
      "adiah": 4209,
      "ĠLu": 4210,
      "Ġgaram": 4211,
      "ations": 4212,
      "Ġsimp": 4213,
      "aging": 4214,
      "ĠEm": 4215,
      "ĠUU": 4216,
      "angku": 4217,
      "ote": 4218,
      "Ġkonkr": 4219,
      "Ġmerah": 4220,
      "ips": 4221,
      "ipta": 4222,
      "estyle": 4223,
      "ĠPerlu": 4224,
      "ĠPerhubungan": 4225,
      "ices": 4226,
      "Ġval": 4227,
      "Ġvisual": 4228,
      "ĠAnne": 4229,
      "Ġpastikan": 4230,
      "Ġketiga": 4231,
      "utus": 4232,
      "Ġmendatang": 4233,
      "ersediaan": 4234,
      "ĠProses": 4235,
      "Ġkeseluruhan": 4236,
      "Ġnegosiasi": 4237,
      "ĠVice": 4238,
      "istis": 4239,
      "Ġmanufaktur": 4240,
      "ĠDirec": 4241,
      "umbu": 4242,
      "ifestyle": 4243,
      "ĠKomitmen": 4244,
      "Ġdireksi": 4245,
      "Ġ150": 4246,
      "ĠPresident": 4247,
      "Ġseorang": 4248,
      "ĠAngg": 4249,
      "oordin": 4250,
      "earch": 4251,
      "ĠTriliun": 4252,
      "ĠPakistan": 4253,
      "antauan": 4254,
      "PIH": 4255,
      "adwalkan": 4256,
      "Ġiklim": 4257,
      "Ġintegrasi": 4258,
      "Ġanggaran": 4259,
      "ĠSout": 4260,
      "ĠDesa": 4261,
      "ĠInternasional": 4262,
      "Ġmenyebutkan": 4263,
      "ffic": 4264,
      "Ġkonflik": 4265,
      "Ġmeyak": 4266,
      "Alami": 4267,
      "ĠKompas": 4268,
      "Ġcounter": 4269,
      "artisipasi": 4270,
      "erhana": 4271,
      "ĠCommunication": 4272,
      "pirasi": 4273,
      "alenta": 4274,
      "Ġlibur": 4275,
      "Ġkampanye": 4276,
      "baiki": 4277,
      "Ġteman": 4278,
      "Ġbantuan": 4279,
      "esuaian": 4280,
      "Ġeksekusi": 4281,
      "ĠExcell": 4282,
      "Pernyataan": 4283,
      "Ġ___": 4284,
      "25": 4285,
      "Dir": 4286,
      "DASI": 4287,
      "KB": 4288,
      "Langkah": 4289,
      "Nomor": 4290,
      "PH": 4291,
      "Pel": 4292,
      "SA": 4293,
      "TH": 4294,
      "bel": 4295,
      "dang": 4296,
      "ief": 4297,
      "juk": 4298,
      "ka": 4299,
      "kes": 4300,
      "late": 4301,
      "of": 4302,
      "oice": 4303,
      "pon": 4304,
      "pastian": 4305,
      "sh": 4306,
      "scr": 4307,
      "Ġimb": 4308,
      "Ġolah": 4309,
      "Ġentitas": 4310,
      "ano": 4311,
      "ansia": 4312,
      "Ġdraft": 4313,
      "Ġmaka": 4314,
      "Ġpinjaman": 4315,
      "sis": 4316,
      "sidi": 4317,
      "ino": 4318,
      "Ġkil": 4319,
      "Ġtua": 4320,
      "Ġtone": 4321,
      "Ġtugas": 4322,
      "Ġsu": 4323,
      "Ġbal": 4324,
      "Ġbes": 4325,
      "Ġbur": 4326,
      "Ġband": 4327,
      "Ġbangsa": 4328,
      "onas": 4329,
      "Ġmenemp": 4330,
      "ĠPangan": 4331,
      "iti": 4332,
      "itis": 4333,
      "espons": 4334,
      "Ġlimbah": 4335,
      "ĠSc": 4336,
      "ĠSi": 4337,
      "ĠSegar": 4338,
      "ĠSiapkan": 4339,
      "ingatan": 4340,
      "ĠMah": 4341,
      "ĠMBG": 4342,
      "entian": 4343,
      "Ġhati": 4344,
      "Ġharapan": 4345,
      "Ġmempr": 4346,
      "Ġrec": 4347,
      "Ġjual": 4348,
      "titusi": 4349,
      "ulture": 4350,
      "olak": 4351,
      "olog": 4352,
      "edung": 4353,
      "ĠRam": 4354,
      "ĠRaya": 4355,
      "ĠRapat": 4356,
      "Ġcl": 4357,
      "ayang": 4358,
      "uduk": 4359,
      "udahan": 4360,
      "uddin": 4361,
      "upsi": 4362,
      "ĠLab": 4363,
      "ĠLampung": 4364,
      "Ġmelampaui": 4365,
      "ĠHasil": 4366,
      "Ġpengurangan": 4367,
      "ajuan": 4368,
      "isian": 4369,
      "ugaan": 4370,
      "Ġ2027": 4371,
      "ĠGayo": 4372,
      "Ġpemangku": 4373,
      "Ġmenyebabkan": 4374,
      "Ġmenjadikan": 4375,
      "ĠPerj": 4376,
      "Ġpromosi": 4377,
      "Ġ34": 4378,
      "Ġkomoditas": 4379,
      "Ġvaksin": 4380,
      "Ġbahasa": 4381,
      "Ġkesejahteraan": 4382,
      "Ġterbar": 4383,
      "Ġharian": 4384,
      "ancar": 4385,
      "ĠBerb": 4386,
      "ðŁĵ": 4387,
      "Ġkemajuan": 4388,
      "Ġsejalan": 4389,
      "erahkan": 4390,
      "Ġkonsep": 4391,
      "Investasi": 4392,
      "Ġminat": 4393,
      "Ġmenghubungi": 4394,
      "Ġperluasan": 4395,
      "Ġsederhana": 4396,
      "Ġpentingnya": 4397,
      "ĠChief": 4398,
      "TIF": 4399,
      "Ġpertanyaan": 4400,
      "Ġdiperkirakan": 4401,
      "Ġbertahap": 4402,
      "Ġgaya": 4403,
      "Ġgaji": 4404,
      "Ġberdiri": 4405,
      "Ġopsi": 4406,
      "Ġaudit": 4407,
      "Ġskincare": 4408,
      "ĠSetelah": 4409,
      "Ġprofil": 4410,
      "orientasi": 4411,
      "eliver": 4412,
      "ĠApi": 4413,
      "Ġwisatawan": 4414,
      "Ġdesa": 4415,
      "Perusahaan": 4416,
      "REK": 4417,
      "ĠSekret": 4418,
      "Program": 4419,
      "ĠHalal": 4420,
      "ĠMuseum": 4421,
      "ĠSeries": 4422,
      "Ġketidakpastian": 4423,
      "Ġmeliputi": 4424,
      "tics": 4425,
      "ĠPertamax": 4426,
      "Ġgerakan": 4427,
      "Ġsegmen": 4428,
      "Halo": 4429,
      "Ġmenerapkan": 4430,
      "ENTIMEN": 4431,
      "ĠNovember": 4432,
      "kenalkan": 4433,
      "Ġbabak": 4434,
      "OMENDASI": 4435,
      "APORAN": 4436,
      "Ġpergerakan": 4437,
      "Ġkonkret": 4438,
      "ĠExcellence": 4439,
      "',": 4440,
      ".*": 4441,
      "..": 4442,
      "62": 4443,
      "Apa": 4444,
      "Co": 4445,
      "DP": 4446,
      "Dan": 4447,
      "Iran": 4448,
      "Jika": 4449,
      "SE": 4450,
      "ST": 4451,
      "Satu": 4452,
      "Slide": 4453,
      "az": 4454,
      "das": 4455,
      "fer": 4456,
      "go": 4457,
      "ging": 4458,
      "hat": 4459,
      "iala": 4460,
      "jawab": 4461,
      "psi": 4462,
      "sw": 4463,
      "sesi": 4464,
      "takan": 4465,
      "tanggal": 4466,
      "uS": 4467,
      "uil": 4468,
      "vices": 4469,
      "wang": 4470,
      "yamanan": 4471,
      "Ġ=": 4472,
      "Ġ>": 4473,
      "Ġul": 4474,
      "Ġamb": 4475,
      "Ġambil": 4476,
      "Ġarah": 4477,
      "eren": 4478,
      "erang": 4479,
      "erap": 4480,
      "enis": 4481,
      "Ġdorong": 4482,
      "Ġmedi": 4483,
      "Ġpagi": 4484,
      "Ġpej": 4485,
      "ater": 4486,
      "atatkan": 4487,
      "inim": 4488,
      "Ġtukar": 4489,
      "ameran": 4490,
      "Ġsaran": 4491,
      "Ġsukses": 4492,
      "Ġbo": 4493,
      "Ġbangunan": 4494,
      "Ġbencana": 4495,
      "ahaman": 4496,
      "ona": 4497,
      "Ġmenaik": 4498,
      "Ġmenurun": 4499,
      "itim": 4500,
      "ish": 4501,
      "Ġlihat": 4502,
      "Ġlancar": 4503,
      "ĠBul": 4504,
      "ĠBos": 4505,
      "ĠBlok": 4506,
      "ĠBusiness": 4507,
      "ĠSejahtera": 4508,
      "ĠSENTIMEN": 4509,
      "etahui": 4510,
      "ĠKopi": 4511,
      "Ġberorientasi": 4512,
      "Ġterg": 4513,
      "utr": 4514,
      "urit": 4515,
      "ĠIHSG": 4516,
      "ĠMoh": 4517,
      "ental": 4518,
      "ĠAhmad": 4519,
      "omi": 4520,
      "ĠDaftar": 4521,
      "ĠTop": 4522,
      "ĠTaman": 4523,
      "Ġratusan": 4524,
      "olahan": 4525,
      "olitik": 4526,
      "ĠInvest": 4527,
      "Ġmengatasi": 4528,
      "ĠRah": 4529,
      "ĠRel": 4530,
      "Ġcic": 4531,
      "Ġnormal": 4532,
      "udul": 4533,
      "peran": 4534,
      "Ġfix": 4535,
      "Ġsiapkan": 4536,
      "eriode": 4537,
      "Ġperseroan": 4538,
      "agline": 4539,
      "ĠEv": 4540,
      "ending": 4541,
      "ĠUp": 4542,
      "alue": 4543,
      "ibadi": 4544,
      "Ġpembaca": 4545,
      "ĠPerkuat": 4546,
      "Ġadv": 4547,
      "Ġadap": 4548,
      "Ġserangan": 4549,
      "ĠWam": 4550,
      "icaraan": 4551,
      "Ġkomersial": 4552,
      "Ġkepastian": 4553,
      "ĠOn": 4554,
      "ingkatkan": 4555,
      "ongk": 4556,
      "italisasi": 4557,
      "ree": 4558,
      "ĠSelama": 4559,
      "erintahan": 4560,
      "artal": 4561,
      "Ġdilaksanakan": 4562,
      "Ġkonsumsi": 4563,
      "Ġpenyediaan": 4564,
      "Ġkerj": 4565,
      "Ġapapun": 4566,
      "tive": 4567,
      "Ġ67": 4568,
      "Ġpohon": 4569,
      "ocal": 4570,
      "ocok": 4571,
      "aste": 4572,
      "ungai": 4573,
      "Ġinternet": 4574,
      "ĠPelanggan": 4575,
      "ollab": 4576,
      "ĠBRIEF": 4577,
      "Ġbergantung": 4578,
      "ĠArt": 4579,
      "ĠSurya": 4580,
      "Ġskema": 4581,
      "Ġinstitusi": 4582,
      "Ġkalangan": 4583,
      "Ġakhirnya": 4584,
      "omotif": 4585,
      "Ġmenggelar": 4586,
      "Ġmengganggu": 4587,
      "ĠTransjakarta": 4588,
      "Ġkompetitif": 4589,
      "ĠSpace": 4590,
      "Ġlaba": 4591,
      "olding": 4592,
      "Ġkonferensi": 4593,
      "Apakah": 4594,
      "ajiban": 4595,
      "nyamanan": 4596,
      "Ġkorban": 4597,
      "Ġketidaknyamanan": 4598,
      "Analisis": 4599,
      "Ġungkap": 4600,
      "Ġpraktik": 4601,
      "ĠAbadi": 4602,
      "Ġmenekankan": 4603,
      "ĠBursa": 4604,
      "Ġliterasi": 4605,
      "entral": 4606,
      "osmetik": 4607,
      "ĠKondisi": 4608,
      "Ġmahal": 4609,
      "Ġkewajiban": 4610,
      "Ġpasca": 4611,
      "Ġpengawasan": 4612,
      "ikuid": 4613,
      "Ġtegas": 4614,
      "ĠBatam": 4615,
      "cessi": 4616,
      "ĠKAMI": 4617,
      "ĠJepang": 4618,
      "phone": 4619,
      "Ġmekanisme": 4620,
      "Ġhektare": 4621,
      "oordinator": 4622,
      "Ġolahraga": 4623,
      "Ġmenaikkan": 4624,
      "11": 4625,
      "BE": 4626,
      "CG": 4627,
      "CS": 4628,
      "Ed": 4629,
      "Isu": 4630,
      "Kem": 4631,
      "Link": 4632,
      "Mel": 4633,
      "Pen": 4634,
      "Story": 4635,
      "Tr": 4636,
      "YA": 4637,
      "bes": 4638,
      "bot": 4639,
      "benar": 4640,
      "do": 4641,
      "ho": 4642,
      "ju": 4643,
      "ker": 4644,
      "leksi": 4645,
      "mark": 4646,
      "nov": 4647,
      "rama": 4648,
      "uaca": 4649,
      "wak": 4650,
      "ystem": 4651,
      "enz": 4652,
      "eness": 4653,
      "Ġda": 4654,
      "Ġdulu": 4655,
      "Ġdetail": 4656,
      "arl": 4657,
      "aras": 4658,
      "arung": 4659,
      "Ġmu": 4660,
      "Ġmak": 4661,
      "Ġmicro": 4662,
      "atih": 4663,
      "ale": 4664,
      "Ġtampil": 4665,
      "Ġsegar": 4666,
      "Ġbasis": 4667,
      "ĠPekerja": 4668,
      "ĠPabrik": 4669,
      "ĠPiala": 4670,
      "ited": 4671,
      "ise": 4672,
      "Ġle": 4673,
      "ĠBagi": 4674,
      "ĠBikin": 4675,
      "eku": 4676,
      "ĠSD": 4677,
      "ĠSep": 4678,
      "ĠSup": 4679,
      "ĠSja": 4680,
      "ĠSudah": 4681,
      "usul": 4682,
      "Ġperg": 4683,
      "Ġperp": 4684,
      "Ġperaw": 4685,
      "ebunan": 4686,
      "eteksi": 4687,
      "ilah": 4688,
      "ilangan": 4689,
      "ĠKan": 4690,
      "Ġbertu": 4691,
      "Ġberakhir": 4692,
      "Ġterima": 4693,
      "ĠIbu": 4694,
      "ĠMilik": 4695,
      "ĠMili": 4696,
      "ĠMUI": 4697,
      "Ġinov": 4698,
      "arikan": 4699,
      "arifikasi": 4700,
      "entik": 4701,
      "ĠAU": 4702,
      "ĠAf": 4703,
      "ĠDem": 4704,
      "ĠDik": 4705,
      "ĠDewan": 4706,
      "ĠTas": 4707,
      "ĠThe": 4708,
      "Ġrekomendasi": 4709,
      "Ġjembatan": 4710,
      "ult": 4711,
      "ulian": 4712,
      "edib": 4713,
      "ĠRE": 4714,
      "ĠRupiah": 4715,
      "Ġcapaian": 4716,
      "awi": 4717,
      "Ġnanti": 4718,
      "egasi": 4719,
      "Ġpenilaian": 4720,
      "ĠCepat": 4721,
      "ehensif": 4722,
      "ĠLalu": 4723,
      "Ġfeed": 4724,
      "Ġformal": 4725,
      "Ġfintech": 4726,
      "ĠHead": 4727,
      "Ġgula": 4728,
      "021": 4729,
      "ĠEf": 4730,
      "ĠEmas": 4731,
      "ĠGP": 4732,
      "Ġwajib": 4733,
      "anggap": 4734,
      "anggaran": 4735,
      "Ġtersebar": 4736,
      "Ġibadah": 4737,
      "iber": 4738,
      "ipsi": 4739,
      "ĠPerm": 4740,
      "Ġekst": 4741,
      "Ġproduktif": 4742,
      "ĠWorld": 4743,
      "ick": 4744,
      "ejar": 4745,
      "Ġverifikasi": 4746,
      "Ġkebun": 4747,
      "ĠOr": 4748,
      "ĠOffic": 4749,
      "Ġsemangat": 4750,
      "indari": 4751,
      "ign": 4752,
      "eneran": 4753,
      "Ġdiselenggarakan": 4754,
      "Ġdibutuhkan": 4755,
      "Ġanti": 4756,
      "ontent": 4757,
      "Ġdikirim": 4758,
      "Ġagr": 4759,
      "Ġdipimpin": 4760,
      "empatkan": 4761,
      "Ġapabila": 4762,
      "ijah": 4763,
      "ĠPengh": 4764,
      "Ġkecepatan": 4765,
      "ĠKomisi": 4766,
      "Ġpesan": 4767,
      "Ġalumni": 4768,
      "Ġbertemu": 4769,
      "Ġkeberhasilan": 4770,
      "Ġ70": 4771,
      "ĠSertakan": 4772,
      "ĠServices": 4773,
      "Ġgab": 4774,
      "adiran": 4775,
      "Ġkenyamanan": 4776,
      "ĠPembangunan": 4777,
      "Ġkompensasi": 4778,
      "ĠKarya": 4779,
      "ipto": 4780,
      "Ġpencegahan": 4781,
      "ugasan": 4782,
      "ĠKeseluruhan": 4783,
      "ĠReach": 4784,
      "Ġdidirikan": 4785,
      "ĠKemnaker": 4786,
      "ĠTrump": 4787,
      "Ġpakai": 4788,
      "REATI": 4789,
      "ĠElijah": 4790,
      "ustainable": 4791,
      "PLN": 4792,
      "elesaian": 4793,
      "engaruhi": 4794,
      "Ġantaranya": 4795,
      "Ġspesifik": 4796,
      "Ġproduc": 4797,
      "PBU": 4798,
      "Ġsubscr": 4799,
      "Ġkonsultan": 4800,
      "frie": 4801,
      "Ġdialog": 4802,
      "Ġkuartal": 4803,
      "yeksikan": 4804,
      "ĠMedan": 4805,
      "Ġswasta": 4806,
      "ĠESDM": 4807,
      "ĠKhusus": 4808,
      "Ġkomprehensif": 4809,
      "vensional": 4810,
      "endikdas": 4811,
      "hutla": 4812,
      "ĠUlang": 4813,
      "syah": 4814,
      "Ġinisiatif": 4815,
      "ĠDirector": 4816,
      "Ġbandara": 4817,
      "REKOMENDASI": 4818,
      "ĠSekretaris": 4819,
      "Ġfixed": 4820,
      "ĠSpaceX": 4821,
      "novation": 4822,
      "ĠSjafrie": 4823,
      "Ġperawatan": 4824,
      "ĠOfficer": 4825,
      "endikdasmen": 4826,
      "\"**": 4827,
      "Bersama": 4828,
      "EW": 4829,
      "GN": 4830,
      "GO": 4831,
      "Hi": 4832,
      "LKI": 4833,
      "Mer": 4834,
      "New": 4835,
      "Pend": 4836,
      "RB": 4837,
      "Sk": 4838,
      "Tier": 4839,
      "UAN": 4840,
      "UPS": 4841,
      "Yth": 4842,
      "eu": 4843,
      "fli": 4844,
      "gent": 4845,
      "haj": 4846,
      "ience": 4847,
      "jen": 4848,
      "lukan": 4849,
      "sor": 4850,
      "Ġum": 4851,
      "anam": 4852,
      "enangkan": 4853,
      "Ġdini": 4854,
      "Ġmon": 4855,
      "siapkan": 4856,
      "intu": 4857,
      "inaan": 4858,
      "Ġkirim": 4859,
      "alk": 4860,
      "alai": 4861,
      "alir": 4862,
      "Ġbl": 4863,
      "elakaan": 4864,
      "asok": 4865,
      "Ġmenimb": 4866,
      "Ġditar": 4867,
      "Ġdiman": 4868,
      "aduat": 4869,
      "adangan": 4870,
      "ĠPan": 4871,
      "ĠPes": 4872,
      "ĠPendiri": 4873,
      "ĠPupuk": 4874,
      "itan": 4875,
      "Ġlong": 4876,
      "ĠBU": 4877,
      "ĠBulan": 4878,
      "ĠSE": 4879,
      "ĠStartup": 4880,
      "ĠSoroti": 4881,
      "ĠKap": 4882,
      "ĠKeber": 4883,
      "Ġbernilai": 4884,
      "Ġberperan": 4885,
      "**:": 4886,
      "urah": 4887,
      "ĠIV": 4888,
      "ĠMa": 4889,
      "aria": 4890,
      "ĠAj": 4891,
      "Ġhilir": 4892,
      "ĠTiga": 4893,
      "ĠTurun": 4894,
      "ĠTempo": 4895,
      "Ġunik": 4896,
      "Ġrest": 4897,
      "ology": 4898,
      "Ġmengaman": 4899,
      "Ġmengapresiasi": 4900,
      "ĠRisiko": 4901,
      "ĠRES": 4902,
      "Ġprovinsi": 4903,
      "Ġpenugasan": 4904,
      "ampilan": 4905,
      "ĠLowongan": 4906,
      "antinya": 4907,
      "ĠNino": 4908,
      "Ġfood": 4909,
      "ĠHend": 4910,
      "Ġgel": 4911,
      "ajo": 4912,
      "akaran": 4913,
      "Ġsebagaimana": 4914,
      "isial": 4915,
      "duksi": 4916,
      "Ġmemberi": 4917,
      "ĠETH": 4918,
      "endag": 4919,
      "ĠGen": 4920,
      "ĠGener": 4921,
      "Ġwujud": 4922,
      "anggapi": 4923,
      "Ġmasak": 4924,
      "graf": 4925,
      "Ġmerger": 4926,
      "Ġpemimpin": 4927,
      "Ġpelanggaran": 4928,
      "ĠPerl": 4929,
      "ĠFil": 4930,
      "ĠFac": 4931,
      "opedia": 4932,
      "Ġpribadi": 4933,
      "ambi": 4934,
      "ainya": 4935,
      "Ġserupa": 4936,
      "ĠAnak": 4937,
      "Ġberbagi": 4938,
      "Ġketersediaan": 4939,
      "Ġmencatatkan": 4940,
      "Ġberkat": 4941,
      "ĠPTPN": 4942,
      "Ġ42": 4943,
      "Ġ47": 4944,
      "arganya": 4945,
      "Ġpenyusunan": 4946,
      "ĠASN": 4947,
      "Ġdikelola": 4948,
      "Ġtrad": 4949,
      "aft": 4950,
      "Ġstruk": 4951,
      "Ġmemasuki": 4952,
      "ernal": 4953,
      "Ġ89": 4954,
      "Ġkonteks": 4955,
      "erdasan": 4956,
      "TION": 4957,
      "arder": 4958,
      "ĠMention": 4959,
      "Ġalasan": 4960,
      "Ġberjangka": 4961,
      "Ġ90": 4962,
      "Ġskala": 4963,
      "Ġgrup": 4964,
      "engkapi": 4965,
      "resif": 4966,
      "ulauan": 4967,
      "Ġdijadwalkan": 4968,
      "ĠSultan": 4969,
      "Ġjangkauan": 4970,
      "Ġtertentu": 4971,
      "ĠExpo": 4972,
      "Ġenam": 4973,
      "Ġperlintasan": 4974,
      "Ġpanel": 4975,
      "ĠFinance": 4976,
      "ĠMaret": 4977,
      "ĠBelajar": 4978,
      "ĠDiskon": 4979,
      "Ġmarketing": 4980,
      "ĠSejumlah": 4981,
      "Ġpraktis": 4982,
      "getkan": 4983,
      "Ġgerai": 4984,
      "ATOR": 4985,
      "ĠStrategi": 4986,
      "Ġpulih": 4987,
      "timbangkan": 4988,
      "Ġinsiden": 4989,
      "Ġterhubung": 4990,
      "Setiap": 4991,
      "Ġdelapan": 4992,
      "Ġtingginya": 4993,
      "Ġbelakang": 4994,
      "Ġkandungan": 4995,
      "Ġbagus": 4996,
      "ĠOtoritas": 4997,
      "AMPAI": 4998,
      "Ġterbarukan": 4999,
      "ikuiditas": 5000,
      "Ġinovatif": 5001,
      "Ġgabungan": 5002,
      "flix": 5003,
      "Ġmenimbulkan": 5004,
      "Ġmengamankan": 5005,
      "24": 5006,
      "26": 5007,
      "35": 5008,
      "Bel": 5009,
      "Cek": 5010,
      "CREATI": 5011,
      "IK": 5012,
      "Kamu": 5013,
      "OL": 5014,
      "Opsi": 5015,
      "Pan": 5016,
      "Sejahtera": 5017,
      "Tidak": 5018,
      "Tani": 5019,
      "bul": 5020,
      "bukan": 5021,
      "de": 5022,
      "dy": 5023,
      "eorang": 5024,
      "hur": 5025,
      "jam": 5026,
      "jok": 5027,
      "kusi": 5028,
      "lor": 5029,
      "lay": 5030,
      "net": 5031,
      "ool": 5032,
      "ping": 5033,
      "so": 5034,
      "saan": 5035,
      "uarga": 5036,
      "uaikan": 5037,
      "vi": 5038,
      "view": 5039,
      "vice": 5040,
      "yu": 5041,
      "Ġarus": 5042,
      "Ġimp": 5043,
      "ans": 5044,
      "err": 5045,
      "erman": 5046,
      "ercayaan": 5047,
      "enuhan": 5048,
      "Ġdapur": 5049,
      "Ġdugaan": 5050,
      "areness": 5051,
      "Ġmis": 5052,
      "Ġmeter": 5053,
      "Ġmotor": 5054,
      "Ġpesisir": 5055,
      "ath": 5056,
      "inf": 5057,
      "ins": 5058,
      "Ġkari": 5059,
      "Ġkapan": 5060,
      "Ġkosmetik": 5061,
      "als": 5062,
      "alang": 5063,
      "alab": 5064,
      "alih": 5065,
      "Ġtulis": 5066,
      "akta": 5067,
      "Ġsesi": 5068,
      "Ġburuh": 5069,
      "Ġbij": 5070,
      "Ġbayar": 5071,
      "Ġbilang": 5072,
      "Ġbumbu": 5073,
      "Ġbeneran": 5074,
      "unda": 5075,
      "unsc": 5076,
      "ahad": 5077,
      "emat": 5078,
      "Ġdiikuti": 5079,
      "adilan": 5080,
      "ĠPh": 5081,
      "ĠPBB": 5082,
      "itt": 5083,
      "itra": 5084,
      "ition": 5085,
      "iksaan": 5086,
      "isah": 5087,
      "Ġlatihan": 5088,
      "ĠBeberapa": 5089,
      "ĠSa": 5090,
      "uskes": 5091,
      "Ġperingatan": 5092,
      "etes": 5093,
      "ĠKu": 5094,
      "ĠKed": 5095,
      "ĠKawasan": 5096,
      "ĠKelas": 5097,
      "ĠKPK": 5098,
      "ĠKadin": 5099,
      "ĠKoordinator": 5100,
      "Ġberm": 5101,
      "Ġberagam": 5102,
      "utin": 5103,
      "urni": 5104,
      "ĠImp": 5105,
      "ĠMe": 5106,
      "ĠAri": 5107,
      "Ġhubungi": 5108,
      "umentasi": 5109,
      "ĠDM": 5110,
      "ĠDav": 5111,
      "ĠTO": 5112,
      "ĠTeh": 5113,
      "rop": 5114,
      "row": 5115,
      "Ġmemimpin": 5116,
      "Ġjurnalis": 5117,
      "Ġjiwa": 5118,
      "Ġjutaan": 5119,
      "ĠJabar": 5120,
      "iden": 5121,
      "edang": 5122,
      "Ġmengundang": 5123,
      "gia": 5124,
      "gional": 5125,
      "ĠRas": 5126,
      "ĠRencana": 5127,
      "ĠRusun": 5128,
      "ĠRosan": 5129,
      "Ġprot": 5130,
      "Ġpeneg": 5131,
      "Ġpenataan": 5132,
      "ehind": 5133,
      "perti": 5134,
      "ĠLagi": 5135,
      "ĠLuncurkan": 5136,
      "ĠLahad": 5137,
      "ĠNew": 5138,
      "ĠNGO": 5139,
      "Ġfase": 5140,
      "Ġfounder": 5141,
      "Ġgen": 5142,
      "ajian": 5143,
      "Ġsinergi": 5144,
      "Ġmembaik": 5145,
      "Ġmembeli": 5146,
      "Ġmembentuk": 5147,
      "angkap": 5148,
      "Ġkonvensional": 5149,
      "Ġmerasa": 5150,
      "Ġpemasok": 5151,
      "Ġpemenuhan": 5152,
      "Ġpemberitaan": 5153,
      "estarian": 5154,
      "ĠPerk": 5155,
      "ĠPern": 5156,
      "anji": 5157,
      "opang": 5158,
      "tura": 5159,
      "empa": 5160,
      "Ġvarian": 5161,
      "Ġberbicara": 5162,
      "Ġkarakter": 5163,
      "Ġmendengar": 5164,
      "Ġsemata": 5165,
      "ĠProyek": 5166,
      "reak": 5167,
      "indahan": 5168,
      "ĠBeras": 5169,
      "osok": 5170,
      "artini": 5171,
      "Ġkemudahan": 5172,
      "Ġdibangun": 5173,
      "Ġsepatu": 5174,
      "ĠMenj": 5175,
      "Ġberharga": 5176,
      "Ġpenyaluran": 5177,
      "Ġpenyesuaian": 5178,
      "Ġpenyelesaian": 5179,
      "mbol": 5180,
      "ngle": 5181,
      "plikasi": 5182,
      "ĠKeamanan": 5183,
      "Ġkecelakaan": 5184,
      "impi": 5185,
      "Ġpertahanan": 5186,
      "Ġketerb": 5187,
      "Ġketerl": 5188,
      "Ġdiperlukan": 5189,
      "ĠPelni": 5190,
      "Ġemas": 5191,
      "|--------|--------": 5192,
      "unggulan": 5193,
      "Ġrevisi": 5194,
      "ĠApakah": 5195,
      "ĠKemudian": 5196,
      "Ġdominan": 5197,
      "untungan": 5198,
      "antage": 5199,
      "eadership": 5200,
      "ĠTransportasi": 5201,
      "Ġpenjualan": 5202,
      "ĠPRO": 5203,
      "Ġsurat": 5204,
      "ĠGreg": 5205,
      "Ġefisien": 5206,
      "Ġarahan": 5207,
      "gabungan": 5208,
      "nounc": 5209,
      "ĠMarc": 5210,
      "ĠBelanja": 5211,
      "Ġspesial": 5212,
      "ĠPenyelengg": 5213,
      "ĠSejak": 5214,
      "board": 5215,
      "ĠIDE": 5216,
      "ĠKenaikan": 5217,
      "Ġfinal": 5218,
      "eopolitik": 5219,
      "ugian": 5220,
      "ularKu": 5221,
      "Ġmengandung": 5222,
      "ĊĠĠĠ": 5223,
      "akhiri": 5224,
      "ashington": 5225,
      "ekalongan": 5226,
      "Ġsmartphone": 5227,
      "ĠMuhammad": 5228,
      "ĠApril": 5229,
      "Ġabad": 5230,
      "âĢĭâĢĭ": 5231,
      "ĠLuar": 5232,
      "Ġcicilan": 5233,
      "Ġleasing": 5234,
      "Ġeksternal": 5235,
      "Ġditargetkan": 5236,
      "aftaran": 5237,
      "Ġstruktur": 5238,
      "CREATIVE": 5239,
      "unscreen": 5240,
      "uskesmas": 5241,
      "\".": 5242,
      "34": 5243,
      "43": 5244,
      "65": 5245,
      "Campaign": 5246,
      "DB": 5247,
      "Ex": 5248,
      "FF": 5249,
      "For": 5250,
      "HUT": 5251,
      "KA": 5252,
      "Kini": 5253,
      "Ketika": 5254,
      "LAPORAN": 5255,
      "LFF": 5256,
      "MN": 5257,
      "Media": 5258,
      "Or": 5259,
      "OJK": 5260,
      "PE": 5261,
      "Ped": 5262,
      "PER": 5263,
      "RO": 5264,
      "Rasa": 5265,
      "Rate": 5266,
      "SH": 5267,
      "Sem": 5268,
      "UN": 5269,
      "eel": 5270,
      "fol": 5271,
      "lian": 5272,
      "map": 5273,
      "nel": 5274,
      "nology": 5275,
      "oga": 5276,
      "sama": 5277,
      "sApp": 5278,
      "Ġing": 5279,
      "Ġec": 5280,
      "Ġemp": 5281,
      "Ġaf": 5282,
      "Ġaja": 5283,
      "Ġqu": 5284,
      "Ġangkutan": 5285,
      "antikan": 5286,
      "eru": 5287,
      "eria": 5288,
      "Ġdeck": 5289,
      "Ġdamai": 5290,
      "Ġduduk": 5291,
      "arno": 5292,
      "Ġmata": 5293,
      "Ġpsik": 5294,
      "injau": 5295,
      "angro": 5296,
      "Ġtour": 5297,
      "amakan": 5298,
      "amental": 5299,
      "Ġsentiment": 5300,
      "Ġbuatan": 5301,
      "Ġbicara": 5302,
      "une": 5303,
      "oni": 5304,
      "onen": 5305,
      "Ġmenetapkan": 5306,
      "Ġmenanggapi": 5307,
      "Ġdihad": 5308,
      "adu": 5309,
      "adinya": 5310,
      "ĠPet": 5311,
      "ĠPara": 5312,
      "ĠPublik": 5313,
      "ĠPariwisata": 5314,
      "ĠPekalongan": 5315,
      "aper": 5316,
      "ikir": 5317,
      "isaris": 5318,
      "Ġlini": 5319,
      "Ġlifestyle": 5320,
      "ĠSum": 5321,
      "ĠSPBU": 5322,
      "Ġperform": 5323,
      "Ġperayaan": 5324,
      "Ġpersiapan": 5325,
      "ebr": 5326,
      "etawi": 5327,
      "ĠKinerja": 5328,
      "Ġternama": 5329,
      "ĠItu": 5330,
      "ĠINI": 5331,
      "ĠITE": 5332,
      "ĠMuda": 5333,
      "ĠMie": 5334,
      "ĠMikro": 5335,
      "ĠMetrik": 5336,
      "enter": 5337,
      "Ġhutan": 5338,
      "Ġhashtag": 5339,
      "Ġhotel": 5340,
      "Ġhadiah": 5341,
      "ĠDampak": 5342,
      "ĠDedi": 5343,
      "ĠTon": 5344,
      "ĠTinggi": 5345,
      "ropa": 5346,
      "Ġmemulai": 5347,
      "Ġmemohon": 5348,
      "Ġri": 5349,
      "Ġruas": 5350,
      "Ġrutin": 5351,
      "ĠJago": 5352,
      "Ġkehad": 5353,
      "Ġkeindahan": 5354,
      "idor": 5355,
      "idana": 5356,
      "edur": 5357,
      "Ġmengad": 5358,
      "Ġmenguat": 5359,
      "Ġ29": 5360,
      "ĠRekomendasi": 5361,
      "ĠRaih": 5362,
      "abis": 5363,
      "Ġcatatan": 5364,
      "Ġcuaca": 5365,
      "Ġprogr": 5366,
      "Ġproaktif": 5367,
      "Ġproperti": 5368,
      "andingan": 5369,
      "ayasan": 5370,
      "udang": 5371,
      "udik": 5372,
      "amping": 5373,
      "ĠLevel": 5374,
      "ĠLewat": 5375,
      "ĠHid": 5376,
      "ĠHotel": 5377,
      "ĠHighlight": 5378,
      "Ġgol": 5379,
      "Ġpengakuan": 5380,
      "Ġpengolahan": 5381,
      "ajurit": 5382,
      "Ġsimbol": 5383,
      "acraft": 5384,
      "agh": 5385,
      "ĠEropa": 5386,
      "ĠGad": 5387,
      "Ġseller": 5388,
      "osisi": 5389,
      "Ġmerasakan": 5390,
      "odjo": 5391,
      "Ġpemilik": 5392,
      "Ġmenyalurkan": 5393,
      "Ġpembentukan": 5394,
      "Ġpembicaraan": 5395,
      "ĠPeraturan": 5396,
      "ĠFor": 5397,
      "ĠFutur": 5398,
      "ĠFort": 5399,
      "anjir": 5400,
      "opok": 5401,
      "Ġpriv": 5402,
      "Ġprestasi": 5403,
      "Ġadil": 5404,
      "Ġ31": 5405,
      "ujan": 5406,
      "ĠWarga": 5407,
      "Ġvalue": 5408,
      "ench": 5409,
      "ency": 5410,
      "ĠPromo": 5411,
      "yakit": 5412,
      "Ġkesalahan": 5413,
      "raf": 5414,
      "Ġdiskusi": 5415,
      "ĠBerikut": 5416,
      "Ġ41": 5417,
      "Ġ45": 5418,
      "ose": 5419,
      "Ġdilihat": 5420,
      "Ġdilengkapi": 5421,
      "ĠVantage": 5422,
      "Ġterjaga": 5423,
      "ĠDireksi": 5424,
      "Ġatlet": 5425,
      "Ġagresif": 5426,
      "Ġkerugian": 5427,
      "Ġterkini": 5428,
      "ublic": 5429,
      "ternatif": 5430,
      "tivasi": 5431,
      "Ġseseorang": 5432,
      "Ġ800": 5433,
      "Ġkripto": 5434,
      "ĠTimes": 5435,
      "ocuS": 5436,
      "Ġkecerdasan": 5437,
      "umpul": 5438,
      "Ġterlibat": 5439,
      "udience": 5440,
      "ĠManajemen": 5441,
      "anyol": 5442,
      "anyakan": 5443,
      "heast": 5444,
      "ponsor": 5445,
      "ĠPemberitaan": 5446,
      "ĠSeti": 5447,
      "ĠKetika": 5448,
      "Ġkekuatan": 5449,
      "Ġtargetkan": 5450,
      "ĠPosisi": 5451,
      "egritas": 5452,
      "Ġtingkatkan": 5453,
      "ature": 5454,
      "Ġkursi": 5455,
      "earning": 5456,
      "antisipasi": 5457,
      "ĠShare": 5458,
      "untungkan": 5459,
      "ĠUsai": 5460,
      "Ġstabil": 5461,
      "ouch": 5462,
      "versity": 5463,
      "Ġlabel": 5464,
      "selerasi": 5465,
      "Ġwarung": 5466,
      "ĠSMA": 5467,
      "Ġelek": 5468,
      "Ġaudiens": 5469,
      "Ġdiproduksi": 5470,
      "ĠKreatif": 5471,
      "ĠNetflix": 5472,
      "ĠReview": 5473,
      "ĠKecil": 5474,
      "Ġauth": 5475,
      "ĠToko": 5476,
      "osmed": 5477,
      "hite": 5478,
      "Ġobat": 5479,
      "Ġmedis": 5480,
      "ĠBerkah": 5481,
      "Ġmarch": 5482,
      "Ġkanal": 5483,
      "andatanganan": 5484,
      "Ġtopik": 5485,
      "Ġfilm": 5486,
      "ĠUniversitas": 5487,
      "Ġtunai": 5488,
      "ĠUNH": 5489,
      "Ġfundamental": 5490,
      "Ġpenyelenggaraan": 5491,
      "ext": 5492,
      "Ġdonasi": 5493,
      "ĠPrasodjo": 5494,
      "Ġmeninggalkan": 5495,
      "ĠSoutheast": 5496,
      "Ġvaksinasi": 5497,
      "hatsApp": 5498,
      "ĠBulog": 5499,
      "wakilan": 5500,
      "Ġdaur": 5501,
      "ĠEfek": 5502,
      "Ġdimanfaatkan": 5503,
      "aduate": 5504,
      "ĠLahadalia": 5505,
      "ĠIDEacraft": 5506,
      "folio": 5507,
      "angrove": 5508,
      "Ġkehadiran": 5509,
      "ocuSign": 5510,
      "28": 5511,
      "400": 5512,
      "77": 5513,
      "78": 5514,
      "BC": 5515,
      "BUMN": 5516,
      "CER": 5517,
      "Gr": 5518,
      "Hormat": 5519,
      "Komp": 5520,
      "Komitmen": 5521,
      "LH": 5522,
      "Mie": 5523,
      "MEDIA": 5524,
      "MCG": 5525,
      "Pemb": 5526,
      "Sep": 5527,
      "Sej": 5528,
      "Tol": 5529,
      "Un": 5530,
      "ave": 5531,
      "cing": 5532,
      "dak": 5533,
      "eo": 5534,
      "lam": 5535,
      "les": 5536,
      "laim": 5537,
      "qual": 5538,
      "rut": 5539,
      "rian": 5540,
      "sour": 5541,
      "tahun": 5542,
      "wulan": 5543,
      "yukur": 5544,
      "Ġest": 5545,
      "Ġumumkan": 5546,
      "łï¸ı": 5547,
      "eral": 5548,
      "enun": 5549,
      "Ġdo": 5550,
      "Ġdaftar": 5551,
      "arna": 5552,
      "Ġmus": 5553,
      "Ġmati": 5554,
      "Ġpar": 5555,
      "Ġpor": 5556,
      "Ġpartisipasi": 5557,
      "Ġpameran": 5558,
      "ated": 5559,
      "ining": 5560,
      "Ġkementerian": 5561,
      "Ġkabupaten": 5562,
      "alnya": 5563,
      "Ġtweet": 5564,
      "akim": 5565,
      "amal": 5566,
      "Ġsol": 5567,
      "Ġsyarat": 5568,
      "Ġsosmed": 5569,
      "Ġbebas": 5570,
      "onus": 5571,
      "adak": 5572,
      "ador": 5573,
      "aduan": 5574,
      "ĠPU": 5575,
      "ĠPil": 5576,
      "ĠPark": 5577,
      "estiv": 5578,
      "estim": 5579,
      "Ġlemb": 5580,
      "Ġlatar": 5581,
      "Ġlagu": 5582,
      "Ġlikuiditas": 5583,
      "ĠBNI": 5584,
      "ĠBersama": 5585,
      "ĠBetawi": 5586,
      "ĠSat": 5587,
      "ĠSch": 5588,
      "ĠSolusi": 5589,
      "usak": 5590,
      "Ġperaturan": 5591,
      "ĠKol": 5592,
      "Ġtertarik": 5593,
      "uter": 5594,
      "utri": 5595,
      "ura": 5596,
      "uruan": 5597,
      "ĠMicro": 5598,
      "Ġinklusi": 5599,
      "ĠAt": 5600,
      "ĠAtas": 5601,
      "Ġhit": 5602,
      "Ġhangat": 5603,
      "ĠDepan": 5604,
      "ĠDompetKita": 5605,
      "ĠTir": 5606,
      "ĠTangan": 5607,
      "ĠTag": 5608,
      "ĠTotal": 5609,
      "ros": 5610,
      "taf": 5611,
      "Ġret": 5612,
      "Ġringan": 5613,
      "ĠJamaah": 5614,
      "ĠJambi": 5615,
      "Ġkeuntungan": 5616,
      "idik": 5617,
      "ĠInter": 5618,
      "edaan": 5619,
      "Ġmengakhiri": 5620,
      "ĠRag": 5621,
      "trans": 5622,
      "Ġcon": 5623,
      "Ġcoding": 5624,
      "awang": 5625,
      "Ġno": 5626,
      "Ġnota": 5627,
      "Ġpenyakit": 5628,
      "Ġpenandatanganan": 5629,
      "ĠCl": 5630,
      "ĠCode": 5631,
      "ĠCampaign": 5632,
      "ĠConsumer": 5633,
      "ĠCAMPAI": 5634,
      "ayoritas": 5635,
      "ĠLuh": 5636,
      "ĠLaut": 5637,
      "ĠNusa": 5638,
      "ĠNike": 5639,
      "ĠNTT": 5640,
      "Ġform": 5641,
      "Ġmenjamin": 5642,
      "ĠHashtag": 5643,
      "Ġpenggan": 5644,
      "Ġpengungsi": 5645,
      "ajan": 5646,
      "acro": 5647,
      "acetan": 5648,
      "ĠUngk": 5649,
      "otong": 5650,
      "Ġwork": 5651,
      "Ġselain": 5652,
      "Ġselanjutnya": 5653,
      "ody": 5654,
      "ipar": 5655,
      "ipun": 5656,
      "Ġpemantauan": 5657,
      "Ġpemerintahan": 5658,
      "Ġmenyusul": 5659,
      "ĠFr": 5660,
      "anjung": 5661,
      "Ġakad": 5662,
      "Ġpre": 5663,
      "Ġprajurit": 5664,
      "ains": 5665,
      "Ġ38": 5666,
      "Ġ39": 5667,
      "Ġservice": 5668,
      "ĠWashington": 5669,
      "ĠWhatsApp": 5670,
      "ics": 5671,
      "iansi": 5672,
      "Ġberkoordinasi": 5673,
      "encan": 5674,
      "Ġkebakaran": 5675,
      "Ġkarya": 5676,
      "asilitasi": 5677,
      "Ġsetia": 5678,
      "Ġmendadak": 5679,
      "chain": 5680,
      "igin": 5681,
      "igence": 5682,
      "Ġterbang": 5683,
      "artemen": 5684,
      "ðŁŁ¡": 5685,
      "Ġkemenangan": 5686,
      "Ġtransfer": 5687,
      "ĠVI": 5688,
      "ĠVideo": 5689,
      "Ġorigin": 5690,
      "uncak": 5691,
      "ĠPemegang": 5692,
      "Ġbersaing": 5693,
      "Ġpenyebab": 5694,
      "Ġkertas": 5695,
      "Ġdipublikasikan": 5696,
      "Ġdipakai": 5697,
      "ijing": 5698,
      "Ġsampaikan": 5699,
      "Ġmenghormati": 5700,
      "eberang": 5701,
      "ĠPengguna": 5702,
      "TAMA": 5703,
      "Ġenergy": 5704,
      "uci": 5705,
      "Ġpesanan": 5706,
      "ĠðŁĴ": 5707,
      "ĠðŁĻ": 5708,
      "Ġperjanjian": 5709,
      "Ġalternatif": 5710,
      "aksim": 5711,
      "imbara": 5712,
      "imbau": 5713,
      "assa": 5714,
      "Ġdimiliki": 5715,
      "ASE": 5716,
      "ASAN": 5717,
      "ĠSurat": 5718,
      "sihan": 5719,
      "Ġkekurangan": 5720,
      "Ġmengaw": 5721,
      "Ġacuan": 5722,
      "elling": 5723,
      "ĠPendaftaran": 5724,
      "ĠProduksi": 5725,
      "ĠSekolah": 5726,
      "Ġintensif": 5727,
      "Ġ0800": 5728,
      "ĠFinancial": 5729,
      "ĠKeluarga": 5730,
      "Ġbeauty": 5731,
      "Ġsupaya": 5732,
      "ĠSpanyol": 5733,
      "Ġkehilangan": 5734,
      "Ġuser": 5735,
      "Ġusai": 5736,
      "Ġwarna": 5737,
      "Ġwaralab": 5738,
      "epakati": 5739,
      "ĠEkspor": 5740,
      "Ġkorupsi": 5741,
      "Ġdesainer": 5742,
      "ĠBeauty": 5743,
      "ĠUnit": 5744,
      "ĠKebijakan": 5745,
      "Ġakuntab": 5746,
      "Ġditutup": 5747,
      "ĠTokopedia": 5748,
      "Ġdiwujudkan": 5749,
      "Ġberinovasi": 5750,
      "Ġtemplate": 5751,
      "ĠRepublik": 5752,
      "Ġpendekatan": 5753,
      "ockchain": 5754,
      "ĠðŁĮ¿": 5755,
      "ĠMemiliki": 5756,
      "Ġlegal": 5757,
      "Ġmengakui": 5758,
      "ĠRizal": 5759,
      "Ġpenerapan": 5760,
      "eekend": 5761,
      "ĠKonten": 5762,
      "Ġcabai": 5763,
      "empurna": 5764,
      "swire": 5765,
      "uild": 5766,
      "Ġmenurunkan": 5767,
      "ĠInvestor": 5768,
      "Ġumrah": 5769,
      "ĠPenyelenggara": 5770,
      "ĠPetani": 5771,
      "ĠFortune": 5772,
      "enchmark": 5773,
      "Tolong": 5774,
      "sourcing": 5775,
      "estival": 5776,
      "ĠRagunan": 5777,
      "ĠCAMPAIGN": 5778,
      "ĠUngkap": 5779,
      "%)**": 5780,
      ")-": 5781,
      "*[": 5782,
      ".**": 5783,
      "61": 5784,
      "Be": 5785,
      "Cantik": 5786,
      "Cerdas": 5787,
      "Es": 5788,
      "Energi": 5789,
      "EASE": 5790,
      "FOR": 5791,
      "Food": 5792,
      "FLU": 5793,
      "GR": 5794,
      "HY": 5795,
      "Hat": 5796,
      "Ken": 5797,
      "Kom": 5798,
      "Kirim": 5799,
      "Koding": 5800,
      "LI": 5801,
      "Laporan": 5802,
      "Mo": 5803,
      "Mart": 5804,
      "Mei": 5805,
      "Pencapaian": 5806,
      "Sek": 5807,
      "The": 5808,
      "Up": 5809,
      "case": 5810,
      "fat": 5811,
      "ftar": 5812,
      "ive": 5813,
      "ku": 5814,
      "ln": 5815,
      "ma": 5816,
      "nack": 5817,
      "out": 5818,
      "ourn": 5819,
      "uy": 5820,
      "uara": 5821,
      "work": 5822,
      "yan": 5823,
      "âĺ": 5824,
      "Ġir": 5825,
      "anaman": 5826,
      "erv": 5827,
      "ersi": 5828,
      "erik": 5829,
      "erence": 5830,
      "enom": 5831,
      "Ġmuka": 5832,
      "Ġpulang": 5833,
      "inar": 5834,
      "alap": 5835,
      "Ġtri": 5836,
      "Ġtegaskan": 5837,
      "Ġtanda": 5838,
      "Ġtabungan": 5839,
      "Ġtalenta": 5840,
      "amatan": 5841,
      "amaian": 5842,
      "Ġsulit": 5843,
      "Ġsusunan": 5844,
      "Ġbonus": 5845,
      "uny": 5846,
      "untuk": 5847,
      "unian": 5848,
      "elayan": 5849,
      "Ġdieks": 5850,
      "Ġdianggap": 5851,
      "adam": 5852,
      "adaran": 5853,
      "orit": 5854,
      "ĠPO": 5855,
      "apital": 5856,
      "isti": 5857,
      "Ġlanjutan": 5858,
      "ĠBit": 5859,
      "ĠBud": 5860,
      "ĠBayar": 5861,
      "ekarno": 5862,
      "ĠSal": 5863,
      "ĠSam": 5864,
      "ebook": 5865,
      "ĠKong": 5866,
      "Ġberc": 5867,
      "Ġberw": 5868,
      "Ġbergabung": 5869,
      "Ġberalih": 5870,
      "Ġtern": 5871,
      "ution": 5872,
      "ury": 5873,
      "urus": 5874,
      "urity": 5875,
      "ĠIF": 5876,
      "ĠIr": 5877,
      "ĠIst": 5878,
      "ĠMul": 5879,
      "ĠMonas": 5880,
      "entan": 5881,
      "oma": 5882,
      "ĠDip": 5883,
      "ĠDua": 5884,
      "ĠTampilkan": 5885,
      "ĠTanjung": 5886,
      "Ġuni": 5887,
      "round": 5888,
      "Ġ(\"": 5889,
      "Ġmemandang": 5890,
      "Ġrint": 5891,
      "Ġrinc": 5892,
      "Ġretail": 5893,
      "tidak": 5894,
      "ĠJadwal": 5895,
      "ĠJurnalis": 5896,
      "ĠJerman": 5897,
      "ĠJln": 5898,
      "Ġkeunggulan": 5899,
      "idi": 5900,
      "idin": 5901,
      "iru": 5902,
      "iron": 5903,
      "irman": 5904,
      "edikasi": 5905,
      "eddy": 5906,
      "esir": 5907,
      "Ġmenged": 5908,
      "Ġmenggab": 5909,
      "Ġmengelola": 5910,
      "Ġmengonfirmasi": 5911,
      "imer": 5912,
      "Ġdaripada": 5913,
      "ĠREL": 5914,
      "ĠRiset": 5915,
      "Ġcita": 5916,
      "Ġconf": 5917,
      "Ġcadangan": 5918,
      "awaran": 5919,
      "Ġpenutup": 5920,
      "andia": 5921,
      "ĠCar": 5922,
      "ĠCara": 5923,
      "ĠCipta": 5924,
      "ayangi": 5925,
      "ayapura": 5926,
      "upati": 5927,
      "perience": 5928,
      "ĠLemb": 5929,
      "ĠLine": 5930,
      "ĠLembaga": 5931,
      "ĠLestari": 5932,
      "ĠNi": 5933,
      "ĠNo": 5934,
      "ĠNama": 5935,
      "Ġfarm": 5936,
      "ecuti": 5937,
      "ĠHar": 5938,
      "Ġgreen": 5939,
      "Ġgue": 5940,
      "Ġguru": 5941,
      "Ġgempa": 5942,
      "Ġpengumuman": 5943,
      "Ġsiber": 5944,
      "ubuh": 5945,
      "endor": 5946,
      "endungan": 5947,
      "endalian": 5948,
      "angkas": 5949,
      "angkut": 5950,
      "otek": 5951,
      "Ġ2022": 5952,
      "ĠGov": 5953,
      "anggar": 5954,
      "ositif": 5955,
      "Ġmerch": 5956,
      "Ġmerespons": 5957,
      "ipina": 5958,
      "Ġmenyes": 5959,
      "ĠFMCG": 5960,
      "optim": 5961,
      "tures": 5962,
      "turut": 5963,
      "ambo": 5964,
      "Ġadopsi": 5965,
      "Ġproduknya": 5966,
      "ĠWas": 5967,
      "ĠWork": 5968,
      "ĠWawancara": 5969,
      "Ġkepulangan": 5970,
      "argai": 5971,
      "ĠAntara": 5972,
      "Ġmempering": 5973,
      "Ġmempersiapkan": 5974,
      "Ġberbayar": 5975,
      "ĠOpen": 5976,
      "daerah": 5977,
      "daftar": 5978,
      "owcase": 5979,
      "reel": 5980,
      "indak": 5981,
      "ĠSelularKu": 5982,
      "rauma": 5983,
      "Ġterbukti": 5984,
      "otaan": 5985,
      "ancaran": 5986,
      "ĠPLTS": 5987,
      "ilisasi": 5988,
      "Ġteknik": 5989,
      "Ġtekstil": 5990,
      "asihat": 5991,
      "Ġindiv": 5992,
      "RIA": 5993,
      "Ġorder": 5994,
      "ĠYLKI": 5995,
      "Ġresm": 5996,
      "onton": 5997,
      "Ġtrack": 5998,
      "Ġekspek": 5999,
      "Ġstream": 6000,
      "plifikasi": 6001,
      "Ġtimur": 6002,
      "Ġkritis": 6003,
      "Ġmenghentikan": 6004,
      "ENCER": 6005,
      "âľ¨": 6006,
      "Ġpoint": 6007,
      "Ġkhas": 6008,
      "2025": 6009,
      "impinan": 6010,
      "ĠAliansi": 6011,
      "Ġdirinya": 6012,
      "order": 6013,
      "ĠIndo": 6014,
      "Ġupdate": 6015,
      "assador": 6016,
      "ĠPelatihan": 6017,
      "ĠPelabuhan": 6018,
      "ĠManis": 6019,
      "Ġdampaknya": 6020,
      "Ġklin": 6021,
      "Ġklarifikasi": 6022,
      "Ġkenapa": 6023,
      "Ġkomponen": 6024,
      "ĠEkonom": 6025,
      "ĠEdu": 6026,
      "erba": 6027,
      "eskr": 6028,
      "eskipun": 6029,
      "Ġbiom": 6030,
      "orius": 6031,
      "ESDM": 6032,
      "Ġdihubungi": 6033,
      "ungguh": 6034,
      "ĠSulbar": 6035,
      "Ġdukung": 6036,
      "Ġdidorong": 6037,
      "ĠAss": 6038,
      "elligence": 6039,
      "APA": 6040,
      "ĠKaltim": 6041,
      "Ġikon": 6042,
      "Ġkompetisi": 6043,
      "ĠTanpa": 6044,
      "ĠSoekarno": 6045,
      "ĠMusk": 6046,
      "ELI": 6047,
      "Ġsuper": 6048,
      "Ġoptimistis": 6049,
      "ĠGaram": 6050,
      "rancis": 6051,
      "enderung": 6052,
      "ĠEkspansi": 6053,
      "oyal": 6054,
      "Ġinteraktif": 6055,
      "Ġinterview": 6056,
      "ĠIDN": 6057,
      "ĠEngagement": 6058,
      "ĠKreator": 6059,
      "Ġreputasi": 6060,
      "Ġpuluhan": 6061,
      "Ġpanduan": 6062,
      "Ġpandemi": 6063,
      "omosikan": 6064,
      "ĠCantikAlami": 6065,
      "ĠNatal": 6066,
      "ĠPerseroan": 6067,
      "ĠInfrastruktur": 6068,
      "Ġucapnya": 6069,
      "Ġinsight": 6070,
      "loud": 6071,
      "Ġeditorial": 6072,
      "Ġsatunya": 6073,
      "ĠINFLU": 6074,
      "ĠOperasional": 6075,
      "ĠShopee": 6076,
      "Ġbarel": 6077,
      "ĠPekanbaru": 6078,
      "Ġprosedur": 6079,
      "ĠKehadiran": 6080,
      "ðŁİ¯": 6081,
      "Ġmental": 6082,
      "Ġbersifat": 6083,
      "ĠVentures": 6084,
      "ektorat": 6085,
      "ĠRamadan": 6086,
      "ĠPerjanjian": 6087,
      "ĠOnline": 6088,
      "cessible": 6089,
      "Ġbertujuan": 6090,
      "ĠPenghargaan": 6091,
      "Ġblockchain": 6092,
      "endagri": 6093,
      "ĠFilipina": 6094,
      "lores": 6095,
      "ĠSaudi": 6096,
      "ĠRasuna": 6097,
      "Ġgenu": 6098,
      "ĠPernyataan": 6099,
      "Ġketerlambatan": 6100,
      "ĠGregorius": 6101,
      "Ġwaralaba": 6102,
      "Hatta": 6103,
      "enomena": 6104,
      "ĠIstana": 6105,
      "Ġrintisan": 6106,
      "Ġmenggabungkan": 6107,
      "ĠRELEASE": 6108,
      "ecutive": 6109,
      "ĠGovern": 6110,
      "Ġindivid": 6111,
      "Ġekspektasi": 6112,
      "ĠINFLUENCER": 6113,
      ".'": 6114,
      "AC": 6115,
      "AO": 6116,
      "BM": 6117,
      "Bulan": 6118,
      "Ch": 6119,
      "Desain": 6120,
      "Fashion": 6121,
      "Fresh": 6122,
      "Glow": 6123,
      "JA": 6124,
      "Journ": 6125,
      "KN": 6126,
      "KP": 6127,
      "Kre": 6128,
      "Kemen": 6129,
      "Keren": 6130,
      "Mas": 6131,
      "Pak": 6132,
      "SK": 6133,
      "SU": 6134,
      "Selam": 6135,
      "Tapi": 6136,
      "Tone": 6137,
      "TEN": 6138,
      "YY": 6139,
      "Yuk": 6140,
      "bi": 6141,
      "br": 6142,
      "col": 6143,
      "conom": 6144,
      "dut": 6145,
      "dul": 6146,
      "hot": 6147,
      "jukan": 6148,
      "jemah": 6149,
      "kot": 6150,
      "lom": 6151,
      "link": 6152,
      "nas": 6153,
      "oT": 6154,
      "par": 6155,
      "range": 6156,
      "tai": 6157,
      "telling": 6158,
      "verifikasi": 6159,
      "âļ": 6160,
      "ĠĊ": 6161,
      "Ġera": 6162,
      "Ġqual": 6163,
      "ģł": 6164,
      "Ł¢": 6165,
      "annya": 6166,
      "anita": 6167,
      "enial": 6168,
      "Ġdeb": 6169,
      "Ġmasi": 6170,
      "Ġmangrove": 6171,
      "Ġpola": 6172,
      "Ġpower": 6173,
      "Ġkode": 6174,
      "Ġkabar": 6175,
      "Ġtah": 6176,
      "Ġtab": 6177,
      "Ġtip": 6178,
      "Ġtentu": 6179,
      "Ġtelepon": 6180,
      "akti": 6181,
      "aksa": 6182,
      "Ġsa": 6183,
      "Ġsal": 6184,
      "Ġsah": 6185,
      "Ġsungai": 6186,
      "Ġsustainable": 6187,
      "Ġsempurna": 6188,
      "Ġby": 6189,
      "Ġbuka": 6190,
      "Ġbangun": 6191,
      "unakan": 6192,
      "unungan": 6193,
      "ela": 6194,
      "asm": 6195,
      "Ġmenu": 6196,
      "Ġmenangani": 6197,
      "Ġmenembus": 6198,
      "Ġmeninjau": 6199,
      "Ġdialami": 6200,
      "Ġdiumumkan": 6201,
      "admap": 6202,
      "orator": 6203,
      "ĠPotensi": 6204,
      "ĠPixel": 6205,
      "ĠPajak": 6206,
      "ĠPPIH": 6207,
      "iktif": 6208,
      "esentasi": 6209,
      "Ġlip": 6210,
      "Ġlawan": 6211,
      "Ġlambat": 6212,
      "Ġloyal": 6213,
      "ĠBN": 6214,
      "ĠBelum": 6215,
      "ĠBakal": 6216,
      "ĠSuh": 6217,
      "ĠSud": 6218,
      "ĠSamp": 6219,
      "ĠSDM": 6220,
      "ĠSustainability": 6221,
      "gaw": 6222,
      "usung": 6223,
      "Ġperal": 6224,
      "Ġperwakilan": 6225,
      "ets": 6226,
      "ila": 6227,
      "ilaku": 6228,
      "ĠKoordinasi": 6229,
      "ĠKUR": 6230,
      "ĠKartini": 6231,
      "Ġberta": 6232,
      "Ġberani": 6233,
      "Ġberarti": 6234,
      "utor": 6235,
      "urang": 6236,
      "ĠMakan": 6237,
      "ĠMasih": 6238,
      "ĠMeta": 6239,
      "ĠMonitoring": 6240,
      "ĠMaju": 6241,
      "ĠMLFF": 6242,
      "ĠMesir": 6243,
      "ĠAli": 6244,
      "ĠAPB": 6245,
      "Ġhid": 6246,
      "Ġhand": 6247,
      "Ġhib": 6248,
      "Ġholding": 6249,
      "ometer": 6250,
      "ĠDim": 6251,
      "ĠDok": 6252,
      "ĠDistr": 6253,
      "ĠTravel": 6254,
      "ĠTipar": 6255,
      "Ġmemakan": 6256,
      "Ġmemadai": 6257,
      "Ġmemutus": 6258,
      "Ġrangka": 6259,
      "Ġjangan": 6260,
      "Ġjenis": 6261,
      "tional": 6262,
      "ĠJumlah": 6263,
      "identifikasi": 6264,
      "ĠInform": 6265,
      "ĠInnovation": 6266,
      "irian": 6267,
      "--|--------": 6268,
      "Ġmengirim": 6269,
      "Ġmengejar": 6270,
      "imo": 6271,
      "imia": 6272,
      "ĠRS": 6273,
      "ĠRute": 6274,
      "abaik": 6275,
      "abetes": 6276,
      "embilan": 6277,
      "epahaman": 6278,
      "Ġcar": 6279,
      "Ġcek": 6280,
      "Ġcuma": 6281,
      "Ġcerdas": 6282,
      "Ġcetak": 6283,
      "Ġculture": 6284,
      "Ġcenderung": 6285,
      "Ġng": 6286,
      "Ġnet": 6287,
      "Ġnelayan": 6288,
      "donesi": 6289,
      "Ġpenanaman": 6290,
      "ĠCor": 6291,
      "ayati": 6292,
      "ĠLam": 6293,
      "ĠLokal": 6294,
      "ĠLebaran": 6295,
      "ĠNur": 6296,
      "Ġfl": 6297,
      "Ġfun": 6298,
      "Ġfenomena": 6299,
      "Ġmenjual": 6300,
      "ĠHanya": 6301,
      "Ġgap": 6302,
      "Ġgame": 6303,
      "Ġpengunjung": 6304,
      "Ġpenggabungan": 6305,
      "ajinan": 6306,
      "isit": 6307,
      "Ġmembaca": 6308,
      "agangkan": 6309,
      "ĠEconom": 6310,
      "Ġ2020": 6311,
      "agihan": 6312,
      "ĠGas": 6313,
      "Ġwell": 6314,
      "ebihan": 6315,
      "Ġiuran": 6316,
      "Ġmass": 6317,
      "Ġmasukan": 6318,
      "odium": 6319,
      "Ġpemain": 6320,
      "Ġpemberh": 6321,
      "usial": 6322,
      "ester": 6323,
      "ĠPerd": 6324,
      "ĠPertumbuhan": 6325,
      "ĠFollow": 6326,
      "ĠFormat": 6327,
      "ĠFounder": 6328,
      "ĠFerr": 6329,
      "ambak": 6330,
      "ambangan": 6331,
      "Ġ32": 6332,
      "Ġ340": 6333,
      "Ġvari": 6334,
      "Ġview": 6335,
      "ĠAnung": 6336,
      "ĠAnalisis": 6337,
      "ĠAncol": 6338,
      "Ġmemperbaiki": 6339,
      "Ġmemperkenalkan": 6340,
      "Ġberbah": 6341,
      "Ġpasang": 6342,
      "Ġpasti": 6343,
      "obosan": 6344,
      "Ġ52": 6345,
      "Ġ58": 6346,
      "Ġketenagakerjaan": 6347,
      "Ġberkolaborasi": 6348,
      "encil": 6349,
      "eview": 6350,
      "Ġkartu": 6351,
      "ĠPrima": 6352,
      "ĠOt": 6353,
      "Ġkelancaran": 6354,
      "luenz": 6355,
      "chi": 6356,
      "yakinan": 6357,
      "indo": 6358,
      "indakan": 6359,
      "Ġ48": 6360,
      "osa": 6361,
      "osko": 6362,
      "osure": 6363,
      "Ġanaly": 6364,
      "Ġannounc": 6365,
      "unjang": 6366,
      "ĠVal": 6367,
      "ĠVolume": 6368,
      "unding": 6369,
      "argo": 6370,
      "ĠYTP": 6371,
      "ĠPemulihan": 6372,
      "Ġrespon": 6373,
      "asee": 6374,
      "Ġpenyidikan": 6375,
      "ift": 6376,
      "place": 6377,
      "Ġ65": 6378,
      "Ġ68": 6379,
      "Ġtime": 6380,
      "Ġkrusial": 6381,
      "ailing": 6382,
      "oci": 6383,
      "epankan": 6384,
      "ĠTerb": 6385,
      "ĠKepercayaan": 6386,
      "ĠPenasihat": 6387,
      "Ġditemukan": 6388,
      "Ġjaminan": 6389,
      "pres": 6390,
      "umpulkan": 6391,
      "Ġbertahun": 6392,
      "Ġ154": 6393,
      "Ġupah": 6394,
      "Ġ78": 6395,
      "Ġmenjelang": 6396,
      "Ġawareness": 6397,
      "Ġreformasi": 6398,
      "ĠKaryawan": 6399,
      "ganik": 6400,
      "erbal": 6401,
      "Ġskor": 6402,
      "Ġinsp": 6403,
      "Ġmiliarder": 6404,
      "ĠAkhir": 6405,
      "Ġâĺ": 6406,
      "Ġkalori": 6407,
      "ĠKesejahteraan": 6408,
      "okasikan": 6409,
      "ĠReal": 6410,
      "ĠTiket": 6411,
      "tofolio": 6412,
      "ĠZul": 6413,
      "ĠZero": 6414,
      "Ġotoritas": 6415,
      "Ġotomotif": 6416,
      "inergi": 6417,
      "Ġplan": 6418,
      "PRNew": 6419,
      "eadline": 6420,
      "ĠElon": 6421,
      "hatikan": 6422,
      "ĠGrup": 6423,
      "Ġtenor": 6424,
      "Ġpanas": 6425,
      "que": 6426,
      "Ġandal": 6427,
      "Ġdemo": 6428,
      "Ġexperience": 6429,
      "Ġpedes": 6430,
      "engkapnya": 6431,
      "Ġlaborator": 6432,
      "Ġchef": 6433,
      "Ġorganisasi": 6434,
      "Ġedukatif": 6435,
      "ĠDiscl": 6436,
      "emaah": 6437,
      "Ġforum": 6438,
      "Ġthread": 6439,
      "Ġpembelajaran": 6440,
      "ĠManagement": 6441,
      "ĠMinyak": 6442,
      "ĠAngka": 6443,
      "Ġdiproses": 6444,
      "Ġdiproyeksikan": 6445,
      "ĠPolda": 6446,
      "ĠKonstruksi": 6447,
      "enarnya": 6448,
      "ĠNataru": 6449,
      "ĠPurba": 6450,
      "eople": 6451,
      "friendly": 6452,
      "Ġrefund": 6453,
      "Ġcompany": 6454,
      "Ġdaring": 6455,
      "Ġdarurat": 6456,
      "Ġmurah": 6457,
      "andatangani": 6458,
      "Ġpemeriksaan": 6459,
      "ĠAndayani": 6460,
      "Ġmiliter": 6461,
      "Ġdividen": 6462,
      "ĠPenerjemah": 6463,
      "Manajemen": 6464,
      "besarnya": 6465,
      "Ġkamar": 6466,
      "ĠKendaraan": 6467,
      "ĠMoU": 6468,
      "ĠGunakan": 6469,
      "ezatSehat": 6470,
      "Ġinformal": 6471,
      "ĠDukuh": 6472,
      "Ġpeneliti": 6473,
      "esmikan": 6474,
      "ĠCNN": 6475,
      "Direktur": 6476,
      "shop": 6477,
      "Ġmenempati": 6478,
      "Ġmempromosikan": 6479,
      "Ġpejalan": 6480,
      "Ġsarana": 6481,
      "Ġkerjasama": 6482,
      "Melalui": 6483,
      "jui": 6484,
      "ĠMiliar": 6485,
      "Ġproduct": 6486,
      "ĠMaaf": 6487,
      "ĠRESMI": 6488,
      "ĠFacebook": 6489,
      "ĠBelanjaCepat": 6490,
      "Ġpsikolog": 6491,
      "oucher": 6492,
      "Ġauthent": 6493,
      "ĠTirto": 6494,
      "ĠLuhut": 6495,
      "encanakan": 6496,
      "ĠðŁĻı": 6497,
      "âĺĲ": 6498,
      "Ġternyata": 6499,
      "Ġmengedepankan": 6500,
      "optimalkan": 6501,
      "amboja": 6502,
      "Ġresminya": 6503,
      "eskripsi": 6504,
      "Journey": 6505,
      "Selamat": 6506,
      "Ġquality": 6507,
      "Ġmasif": 6508,
      "Ġtahapan": 6509,
      "Ġbertajuk": 6510,
      "Ġpemberhentian": 6511,
      "ĠFerrari": 6512,
      "luenza": 6513,
      "Ġannounce": 6514,
      "PRNewswire": 6515,
      "Ġlaboratorium": 6516,
      "!\"": 6517,
      "\")": 6518,
      "Air": 6519,
      "ATE": 6520,
      "Angle": 6521,
      "BD": 6522,
      "BO": 6523,
      "BS": 6524,
      "Bumi": 6525,
      "Corporate": 6526,
      "EI": 6527,
      "Fokus": 6528,
      "Hasil": 6529,
      "Hijau": 6530,
      "Jadi": 6531,
      "Jamu": 6532,
      "Ke": 6533,
      "Kel": 6534,
      "Kaya": 6535,
      "Keber": 6536,
      "KON": 6537,
      "KASAN": 6538,
      "LE": 6539,
      "LAN": 6540,
      "Meng": 6541,
      "NYA": 6542,
      "OT": 6543,
      "RAND": 6544,
      "RUPS": 6545,
      "Sur": 6546,
      "Seberang": 6547,
      "Th": 6548,
      "Ter": 6549,
      "aenal": 6550,
      "ba": 6551,
      "camp": 6552,
      "dr": 6553,
      "dah": 6554,
      "dara": 6555,
      "dagangkan": 6556,
      "gat": 6557,
      "ha": 6558,
      "hi": 6559,
      "hy": 6560,
      "ki": 6561,
      "kota": 6562,
      "langkah": 6563,
      "langga": 6564,
      "pektif": 6565,
      "uarkan": 6566,
      "ype": 6567,
      "Ġeng": 6568,
      "Ġide": 6569,
      "Ġayat": 6570,
      "anusi": 6571,
      "Ġdah": 6572,
      "Ġdef": 6573,
      "Ġdedikasi": 6574,
      "Ġmet": 6575,
      "Ġmantan": 6576,
      "Ġmaksim": 6577,
      "Ġpintu": 6578,
      "Ġpidana": 6579,
      "atama": 6580,
      "atangan": 6581,
      "atuhan": 6582,
      "atisasi": 6583,
      "inati": 6584,
      "anggi": 6585,
      "angdut": 6586,
      "Ġtas": 6587,
      "Ġtahan": 6588,
      "Ġtubuh": 6589,
      "amer": 6590,
      "Ġsch": 6591,
      "Ġsaksi": 6592,
      "Ġsaling": 6593,
      "Ġstud": 6594,
      "Ġsawah": 6595,
      "Ġslide": 6596,
      "Ġbas": 6597,
      "Ġbus": 6598,
      "Ġbola": 6599,
      "Ġbehind": 6600,
      "Ġbanjir": 6601,
      "emahan": 6602,
      "emimpinan": 6603,
      "Ġmenanggung": 6604,
      "Ġmenempatkan": 6605,
      "Ġdiatur": 6606,
      "adaian": 6607,
      "asifik": 6608,
      "ĠPari": 6609,
      "ĠPed": 6610,
      "ĠPay": 6611,
      "ĠPihak": 6612,
      "ite": 6613,
      "esak": 6614,
      "ission": 6615,
      "Ġlog": 6616,
      "Ġlayar": 6617,
      "Ġlearning": 6618,
      "ĠBen": 6619,
      "ĠButuh": 6620,
      "ĠBalai": 6621,
      "ĠBupati": 6622,
      "ĠBBM": 6623,
      "ekat": 6624,
      "ĠSari": 6625,
      "ĠSiap": 6626,
      "ingat": 6627,
      "usakan": 6628,
      "etasi": 6629,
      "etap": 6630,
      "etahuan": 6631,
      "ĠKej": 6632,
      "ĠKPR": 6633,
      "ĠKKB": 6634,
      "ĠKamboja": 6635,
      "Ġberikan": 6636,
      "Ġberisiko": 6637,
      "Ġterdaftar": 6638,
      "utif": 6639,
      "ĠIt": 6640,
      "ĠIPO": 6641,
      "ĠMat": 6642,
      "ĠMIN": 6643,
      "ĠMotor": 6644,
      "Ġinduk": 6645,
      "ukuran": 6646,
      "ĠAL": 6647,
      "ĠAsi": 6648,
      "ĠAmb": 6649,
      "ĠAHY": 6650,
      "Ġhi": 6651,
      "Ġhar": 6652,
      "Ġhad": 6653,
      "Ġhealth": 6654,
      "Ġhunian": 6655,
      "omment": 6656,
      "umhur": 6657,
      "ĠDagang": 6658,
      "ĠDocuSign": 6659,
      "ĠTER": 6660,
      "ĠTunjukkan": 6661,
      "ĠTrauma": 6662,
      "Ġmemf": 6663,
      "Ġmemantau": 6664,
      "Ġmemicu": 6665,
      "Ġmeminim": 6666,
      "Ġrentan": 6667,
      "Ġjelang": 6668,
      "ĠJaga": 6669,
      "ĠJembatan": 6670,
      "ĠJayapura": 6671,
      "ĠJumhur": 6672,
      "ulusan": 6673,
      "olisian": 6674,
      "idur": 6675,
      "ĠInJourney": 6676,
      "atable": 6677,
      "eder": 6678,
      "edulian": 6679,
      "Ġmengangkat": 6680,
      "Ġmenguntungkan": 6681,
      "gitu": 6682,
      "Ġ250": 6683,
      "embada": 6684,
      "trian": 6685,
      "Ġcre": 6686,
      "Ġcode": 6687,
      "Ġcommun": 6688,
      "Ġcocok": 6689,
      "Ġnantinya": 6690,
      "egangan": 6691,
      "egatif": 6692,
      "ĠâĢİ": 6693,
      "andiri": 6694,
      "ĠComp": 6695,
      "ĠCapital": 6696,
      "ayangkan": 6697,
      "aytai": 6698,
      "ampuran": 6699,
      "percaya": 6700,
      "ĠLib": 6701,
      "ĠLiv": 6702,
      "ĠLezatSehat": 6703,
      "Ġfreel": 6704,
      "Ġfiktif": 6705,
      "ĠHus": 6706,
      "ĠHasan": 6707,
      "ĠHong": 6708,
      "ĠHukum": 6709,
      "ĠHumas": 6710,
      "ĠHoaks": 6711,
      "Ġgo": 6712,
      "Ġgelar": 6713,
      "Ġpengusaha": 6714,
      "Ġpengambil": 6715,
      "Ġpengaturan": 6716,
      "ajut": 6717,
      "Ġsiang": 6718,
      "Ġsebenarnya": 6719,
      "ision": 6720,
      "Ġmembayar": 6721,
      "ĠEng": 6722,
      "ĠEko": 6723,
      "ĠUI": 6724,
      "ĠUdara": 6725,
      "angkatkan": 6726,
      "otline": 6727,
      "ĠGreen": 6728,
      "ĠGadang": 6729,
      "ĠGBK": 6730,
      "ĠGedung": 6731,
      "ebutkan": 6732,
      "Ġikan": 6733,
      "Ġseluas": 6734,
      "odalan": 6735,
      "Ġmenyenangkan": 6736,
      "Ġpelosok": 6737,
      "Ġpemberian": 6738,
      "Ġpembinaan": 6739,
      "ĠFair": 6740,
      "ĠFlores": 6741,
      "Ġakr": 6742,
      "empah": 6743,
      "Ġserikat": 6744,
      "Ġsertifikat": 6745,
      "ĠWali": 6746,
      "Ġkepatuhan": 6747,
      "Ġkepemimpinan": 6748,
      "Ġkepedulian": 6749,
      "ĠAnai": 6750,
      "ĠAnind": 6751,
      "Ġmemperhatikan": 6752,
      "obo": 6753,
      "istrasi": 6754,
      "Ġ54": 6755,
      "Ġkebangga": 6756,
      "Ġmendominasi": 6757,
      "ĠOsk": 6758,
      "rioritas": 6759,
      "riendly": 6760,
      "Ġover": 6761,
      "indar": 6762,
      "ĠSelalu": 6763,
      "ĠSelasa": 6764,
      "ĠSelanjutnya": 6765,
      "efit": 6766,
      "Ġkesepahaman": 6767,
      "Ġterbanyak": 6768,
      "ustrasi": 6769,
      "Ġdiselesaikan": 6770,
      "Ġtanker": 6771,
      "onsolidasi": 6772,
      "ogut": 6773,
      "Ġ**\"": 6774,
      "Ġkemungk": 6775,
      "Ġkemacetan": 6776,
      "itorial": 6777,
      "Ġrelatif": 6778,
      "anker": 6779,
      "unjukan": 6780,
      "RIS": 6781,
      "ĠYo": 6782,
      "tioning": 6783,
      "Ġbersedia": 6784,
      "Ġbersenj": 6785,
      "ĠDirektorat": 6786,
      "Ġaturan": 6787,
      "Ġdiketahui": 6788,
      "Ġekspl": 6789,
      "Ġagen": 6790,
      "Ġdipicu": 6791,
      "Ġmemasak": 6792,
      "Ġsesungguh": 6793,
      "aily": 6794,
      "embalikan": 6795,
      "Ġmenghargai": 6796,
      "ERA": 6797,
      "erdeka": 6798,
      "TAAN": 6799,
      "vei": 6800,
      "ĠTerancam": 6801,
      "uccess": 6802,
      "inginkan": 6803,
      "ĠðŁŁ¡": 6804,
      "ĠPenj": 6805,
      "Ġpetern": 6806,
      "Ġalokasi": 6807,
      "ĠPertanian": 6808,
      "Ġdiperoleh": 6809,
      "Ġdipercaya": 6810,
      "Ġeduc": 6811,
      "Ġedtech": 6812,
      "Ġkebersihan": 6813,
      "ĠIndah": 6814,
      "Ġperbedaan": 6815,
      "ĠSertifikasi": 6816,
      "Ġgawang": 6817,
      "Ġopini": 6818,
      "Ġreach": 6819,
      "Ġrealisasi": 6820,
      "ĠPembiayaan": 6821,
      "Ġ94": 6822,
      "erbang": 6823,
      "Ġkeker": 6824,
      "residen": 6825,
      "ĠAkses": 6826,
      "Ġkeluar": 6827,
      "ĠâĨ": 6828,
      "Ġpilar": 6829,
      "Ġpilah": 6830,
      "Ġbiasanya": 6831,
      "Ġperkara": 6832,
      "Ġperkebunan": 6833,
      "Ġperkotaan": 6834,
      "Ġdihentikan": 6835,
      "Ġdihasilkan": 6836,
      "ekomunikasi": 6837,
      "Ġaccessible": 6838,
      "ĠAsosiasi": 6839,
      "Kepala": 6840,
      "ĠZaenal": 6841,
      "paransi": 6842,
      "ĠQRIS": 6843,
      "aksana": 6844,
      "aksasa": 6845,
      "ourse": 6846,
      "ostal": 6847,
      "iterasi": 6848,
      "unting": 6849,
      "ĠExecutive": 6850,
      "ĠPendanaan": 6851,
      "Ġpakaian": 6852,
      "ĠTekno": 6853,
      "ense": 6854,
      "Produk": 6855,
      "ĠTelkomsel": 6856,
      "etujuan": 6857,
      "Ġaroma": 6858,
      "Ġarrange": 6859,
      "krak": 6860,
      "ĠMerger": 6861,
      "Ġexc": 6862,
      "Ġexclusive": 6863,
      "ĠAirlangga": 6864,
      "Ġoptimalisasi": 6865,
      "Ġtradisi": 6866,
      "Ġdekorasi": 6867,
      "Ġcontoh": 6868,
      "ĠAbidin": 6869,
      "ĠAngkatan": 6870,
      "Ġberfungsi": 6871,
      "Ġkonsistensi": 6872,
      "GIAN": 6873,
      "ĠKemenhaj": 6874,
      "ĠIII": 6875,
      "Ġmengingat": 6876,
      "ĠCeko": 6877,
      "retary": 6878,
      "Ġditujukan": 6879,
      "ĠMarketing": 6880,
      "Ġinstan": 6881,
      "Ġinstansi": 6882,
      "ĠDanaKilat": 6883,
      "Ġmahasiswa": 6884,
      "Ġliburan": 6885,
      "ĠPutra": 6886,
      "BAGIAN": 6887,
      "Ġmaritim": 6888,
      "load": 6889,
      "ĠDepok": 6890,
      "Selama": 6891,
      "Ġdokter": 6892,
      "Ġzakat": 6893,
      "Ġmilenial": 6894,
      "Ġdiverifikasi": 6895,
      "ĠImplementasi": 6896,
      "Ġmengandalkan": 6897,
      "ĠSecretary": 6898,
      "Enak": 6899,
      "Ġkamera": 6900,
      "Ġsambutan": 6901,
      "onjak": 6902,
      "onjakan": 6903,
      "VIEW": 6904,
      "ĠMuamal": 6905,
      "Ġpenelitian": 6906,
      "Ġunggul": 6907,
      "Ġunggulan": 6908,
      "Ġgizi": 6909,
      "ĠIMMEDIA": 6910,
      "Ġvalid": 6911,
      "Ġmeyakini": 6912,
      "Ġmeyakinkan": 6913,
      "Ġimbal": 6914,
      "Ġkilo": 6915,
      "Ġbesok": 6916,
      "ĠSegarMart": 6917,
      "ĠHasilnya": 6918,
      "elivery": 6919,
      "Ġterganggu": 6920,
      "utrisi": 6921,
      "ĠRelations": 6922,
      "ĠEvent": 6923,
      "Ġadaptif": 6924,
      "ĠWamen": 6925,
      "ĠArtinya": 6926,
      "ekuensi": 6927,
      "Mereka": 6928,
      "ĠKapal": 6929,
      "Belanja": 6930,
      "influencer": 6931,
      "Ġbiji": 6932,
      "ĠKuC": 6933,
      "ĠTeheran": 6934,
      "Ġpenegakan": 6935,
      "Ġprogres": 6936,
      "Sejuk": 6937,
      "Ġportofolio": 6938,
      "ironment": 6939,
      "Ġpenutupan": 6940,
      "ĠLembah": 6941,
      "Ġmerchant": 6942,
      "ĠGaramSejahtera": 6943,
      "Ġgenuine": 6944,
      "ĠGovernance": 6945,
      "âļłï¸ı": 6946,
      "ĠSampah": 6947,
      "donesian": 6948,
      "inergiEnergi": 6949,
      "Ġauthentic": 6950,
      "Ġengine": 6951,
      "anusiaan": 6952,
      "Ġmaksimal": 6953,
      "ĠOskaria": 6954,
      "Ġkemungkinan": 6955,
      "Ġbersenjata": 6956,
      "Ġsesungguhnya": 6957,
      "ĠMuamalat": 6958,
      "ĠIMMEDIATE": 6959,
      "23": 6960,
      "29": 6961,
      "48": 6962,
      "53": 6963,
      "54": 6964,
      "87": 6965,
      "91": 6966,
      "Asia": 6967,
      "Bo": 6968,
      "Best": 6969,
      "CC": 6970,
      "CR": 6971,
      "Cara": 6972,
      "Collab": 6973,
      "Content": 6974,
      "DompetKita": 6975,
      "Founder": 6976,
      "GBK": 6977,
      "Hook": 6978,
      "IG": 6979,
      "Judul": 6980,
      "Lab": 6981,
      "MM": 6982,
      "MR": 6983,
      "Nesia": 6984,
      "Nov": 6985,
      "OP": 6986,
      "On": 6987,
      "Periode": 6988,
      "SN": 6989,
      "SP": 6990,
      "Sh": 6991,
      "Top": 6992,
      "Temp": 6993,
      "Tahun": 6994,
      "Trans": 6995,
      "Tindakan": 6996,
      "Voice": 6997,
      "Work": 6998,
      "YANG": 6999,
      "Yogut": 7000,
      "aingan": 7001,
      "bilitas": 7002,
      "bility": 7003,
      "ca": 7004,
      "cons": 7005,
      "eimb": 7006,
      "eature": 7007,
      "fil": 7008,
      "hak": 7009,
      "ham": 7010,
      "hub": 7011,
      "harga": 7012,
      "jid": 7013,
      "jata": 7014,
      "lem": 7015,
      "nical": 7016,
      "pas": 7017,
      "puk": 7018,
      "pend": 7019,
      "top": 7020,
      "teksi": 7021,
      "uit": 7022,
      "vitas": 7023,
      "vStr": 7024,
      "vironment": 7025,
      "zz": 7026,
      "zon": 7027,
      "Ġit": 7028,
      "Ġay": 7029,
      "Ġakar": 7030,
      "Ġ).": 7031,
      "Ġ),": 7032,
      "Ġarm": 7033,
      "ereng": 7034,
      "erto": 7035,
      "ertifikasi": 7036,
      "ertifikat": 7037,
      "erangkatkan": 7038,
      "enew": 7039,
      "Ġdarah": 7040,
      "Ġmi": 7041,
      "Ġmag": 7042,
      "Ġmayoritas": 7043,
      "Ġpay": 7044,
      "Ġpadi": 7045,
      "Ġpark": 7046,
      "Ġpanggung": 7047,
      "Ġpack": 7048,
      "Ġpuskesmas": 7049,
      "angerang": 7050,
      "Ġkalah": 7051,
      "Ġkian": 7052,
      "Ġkena": 7053,
      "Ġtunjukkan": 7054,
      "Ġtarik": 7055,
      "Ġtawarkan": 7056,
      "Ġtemuan": 7057,
      "Ġtagline": 7058,
      "Ġtestim": 7059,
      "Ġtidur": 7060,
      "akit": 7061,
      "akers": 7062,
      "akili": 7063,
      "amew": 7064,
      "Ġsne": 7065,
      "Ġsentral": 7066,
      "Ġsunscreen": 7067,
      "Ġsuccess": 7068,
      "Ġbek": 7069,
      "Ġbaja": 7070,
      "Ġbadan": 7071,
      "Ġbadai": 7072,
      "Ġbakal": 7073,
      "empor": 7074,
      "elon": 7075,
      "ondon": 7076,
      "Ġmenolak": 7077,
      "Ġmenangkap": 7078,
      "Ġdiam": 7079,
      "Ġdises": 7080,
      "tut": 7081,
      "orot": 7082,
      "ĠPensi": 7083,
      "ĠPaid": 7084,
      "ĠPencapaian": 7085,
      "ĠPeriode": 7086,
      "ith": 7087,
      "iting": 7088,
      "itung": 7089,
      "itamin": 7090,
      "ape": 7091,
      "aption": 7092,
      "eser": 7093,
      "isw": 7094,
      "Ġlezat": 7095,
      "Ġlocal": 7096,
      "ĠBas": 7097,
      "ĠBab": 7098,
      "ĠBest": 7099,
      "ĠBunga": 7100,
      "ĠBangun": 7101,
      "ĠBagaimana": 7102,
      "ĠBond": 7103,
      "ĠBajo": 7104,
      "ĠBMN": 7105,
      "ĠBendungan": 7106,
      "ĠBRAND": 7107,
      "ĠSP": 7108,
      "ĠSed": 7109,
      "ĠSant": 7110,
      "ĠSolo": 7111,
      "ĠSimp": 7112,
      "ĠSav": 7113,
      "ĠSambut": 7114,
      "ĠSEM": 7115,
      "ĠSystem": 7116,
      "Ġpergi": 7117,
      "Ġperangkat": 7118,
      "Ġperilaku": 7119,
      "ĠKE": 7120,
      "ĠKang": 7121,
      "ĠKamu": 7122,
      "Ġbermas": 7123,
      "Ġberencana": 7124,
      "Ġberulang": 7125,
      "uri": 7126,
      "ĠIk": 7127,
      "ĠIoT": 7128,
      "ĠMI": 7129,
      "ĠMet": 7130,
      "Ġinti": 7131,
      "arim": 7132,
      "ents": 7133,
      "entosa": 7134,
      "ukiman": 7135,
      "ĠAC": 7136,
      "ĠAg": 7137,
      "ĠAtasi": 7138,
      "ĠAgen": 7139,
      "Ġhub": 7140,
      "Ġhome": 7141,
      "Ġhormati": 7142,
      "Ġhabis": 7143,
      "ĠDar": 7144,
      "ĠDel": 7145,
      "ĠDev": 7146,
      "ĠDraft": 7147,
      "ĠTar": 7148,
      "ĠTerd": 7149,
      "ĠTarif": 7150,
      "ĠTembus": 7151,
      "ĠTingkatkan": 7152,
      "rokr": 7153,
      "Ġmemudah": 7154,
      "Ġmempro": 7155,
      "Ġrapat": 7156,
      "Ġrasanya": 7157,
      "Ġraksasa": 7158,
      "Ġjanji": 7159,
      "Ġjemaah": 7160,
      "ulih": 7161,
      "Ġkeyakinan": 7162,
      "idat": 7163,
      "esign": 7164,
      "Ġmengel": 7165,
      "Ġmengapa": 7166,
      "Ġmengatur": 7167,
      "Ġmengutip": 7168,
      "Ġmengantisipasi": 7169,
      "Ġmengimbau": 7170,
      "Ġmengoptimalkan": 7171,
      "imaan": 7172,
      "imited": 7173,
      "Ġ26": 7174,
      "amaan": 7175,
      "ĠRef": 7176,
      "ĠRampung": 7177,
      "eper": 7178,
      "Ġcast": 7179,
      "Ġcatat": 7180,
      "Ġcreator": 7181,
      "Ġclean": 7182,
      "away": 7183,
      "iaga": 7184,
      "egunungan": 7185,
      "Ġpensi": 7186,
      "andai": 7187,
      "ĠCerdas": 7188,
      "udayaan": 7189,
      "ĠLaunch": 7190,
      "okol": 7191,
      "okok": 7192,
      "Ġmelemah": 7193,
      "antah": 7194,
      "antap": 7195,
      "ĠNy": 7196,
      "ĠNag": 7197,
      "Ġfav": 7198,
      "Ġformat": 7199,
      "Ġfungsi": 7200,
      "Ġfact": 7201,
      "Ġfresh": 7202,
      "Ġfirst": 7203,
      "Ġfakta": 7204,
      "Ġmenjalin": 7205,
      "ecu": 7206,
      "ection": 7207,
      "ĠHadir": 7208,
      "ĠHubungi": 7209,
      "ĠHindari": 7210,
      "ĠHimbara": 7211,
      "Ġgor": 7212,
      "Ġgeopolitik": 7213,
      "Ġgudang": 7214,
      "Ġpengetahuan": 7215,
      "ajer": 7216,
      "Ġpersaingan": 7217,
      "acing": 7218,
      "actur": 7219,
      "agement": 7220,
      "ĠEast": 7221,
      "ĠEth": 7222,
      "endang": 7223,
      "endali": 7224,
      "ĠUr": 7225,
      "ĠGi": 7226,
      "Ġwhite": 7227,
      "Ġtersangka": 7228,
      "pora": 7229,
      "Ġmerata": 7230,
      "Ġmerusak": 7231,
      "tific": 7232,
      "Ġpemutusan": 7233,
      "Ġmenyimp": 7234,
      "Ġmenyambut": 7235,
      "Ġpelat": 7236,
      "Ġpelajar": 7237,
      "Ġpelayaran": 7238,
      "Ġpembuatan": 7239,
      "Ġpembeli": 7240,
      "usik": 7241,
      "inter": 7242,
      "intasi": 7243,
      "ĠPerundingan": 7244,
      "ĠPerumahan": 7245,
      "ĠFasilitas": 7246,
      "ĠFood": 7247,
      "ĠFarma": 7248,
      "ĠFebr": 7249,
      "ĠFAO": 7250,
      "Ġakurat": 7251,
      "Ġpras": 7252,
      "Ġprom": 7253,
      "Ġprediksi": 7254,
      "Ġprimer": 7255,
      "Ġadmin": 7256,
      "Ġ35": 7257,
      "ujian": 7258,
      "Ġserum": 7259,
      "ĠWib": 7260,
      "Ġkomisi": 7261,
      "Ġkomisaris": 7262,
      "iano": 7263,
      "Ġkepolisian": 7264,
      "atuK": 7265,
      "Ġmencoba": 7266,
      "Ġmencegah": 7267,
      "Ġberkumpul": 7268,
      "randing": 7269,
      "ĠPratama": 7270,
      "ĠOut": 7271,
      "river": 7272,
      "Ġsemen": 7273,
      "Ġseminggu": 7274,
      "Ġsemuanya": 7275,
      "ĠSelandia": 7276,
      "angsat": 7277,
      "Ġterbentuk": 7278,
      "inggal": 7279,
      "Ġdisebabkan": 7280,
      "Ġdisepakati": 7281,
      "Ġteks": 7282,
      "ĠBerp": 7283,
      "artner": 7284,
      "ðŁļ": 7285,
      "Ġkemarin": 7286,
      "Ġkemanusiaan": 7287,
      "Ġdibahas": 7288,
      "Ġdiluncurkan": 7289,
      "Ġbranding": 7290,
      "unjuk": 7291,
      "ĠMenko": 7292,
      "ĠVeda": 7293,
      "ĠVance": 7294,
      "undangan": 7295,
      "ĠYayasan": 7296,
      "Ġpenyedia": 7297,
      "Ġpenyeber": 7298,
      "Ġdikembangkan": 7299,
      "Ġtrending": 7300,
      "Ġkerap": 7301,
      "Ġkerusakan": 7302,
      "Ġbesarnya": 7303,
      "oney": 7304,
      "Ġterkendali": 7305,
      "ife": 7306,
      "ific": 7307,
      "ply": 7308,
      "plin": 7309,
      "eroes": 7310,
      "Ġsekitarnya": 7311,
      "ĠPengadaan": 7312,
      "ĠPengelolaan": 7313,
      "ĠPengendalian": 7314,
      "Ġinfluenza": 7315,
      "ĠTerp": 7316,
      "Ġpesat": 7317,
      "ĠðŁİ": 7318,
      "ĠðŁĳ": 7319,
      "ĠðŁĵ": 7320,
      "2024": 7321,
      "ious": 7322,
      "ĠKepulauan": 7323,
      "ĠKepresiden": 7324,
      "ĠSeni": 7325,
      "ĠSensus": 7326,
      "Ġditemp": 7327,
      "Ġditangani": 7328,
      "Ġpertambangan": 7329,
      "Ġaliran": 7330,
      "ĠPertahankan": 7331,
      "ĠĠĠ": 7332,
      "ĠĠĠĠĠ": 7333,
      "prise": 7334,
      "pretasi": 7335,
      "Ġdirilis": 7336,
      "Ġedisi": 7337,
      "Ġbertambah": 7338,
      "imbang": 7339,
      "ĠManus": 7340,
      "erjasama": 7341,
      "Ġstatus": 7342,
      "Ġdiminta": 7343,
      "ĠDieng": 7344,
      "ĠBRILink": 7345,
      "ĠArgent": 7346,
      "uliah": 7347,
      "Ġav": 7348,
      "Ġperdamaian": 7349,
      "Ġ95": 7350,
      "Ġseni": 7351,
      "Ġsensor": 7352,
      "Ġpilot": 7353,
      "Ġbiod": 7354,
      "Ġkedatangan": 7355,
      "Ġdijaga": 7356,
      "Konten": 7357,
      "ONS": 7358,
      "ĠApp": 7359,
      "ĠAstron": 7360,
      "TEM": 7361,
      "Ġlanjutnya": 7362,
      "Ġjarak": 7363,
      "eritahuan": 7364,
      "Ġterpilih": 7365,
      "Ġterpencil": 7366,
      "ĠExclusive": 7367,
      "Ġenak": 7368,
      "ĠRespons": 7369,
      "Ġpenjaga": 7370,
      "Ġtertutup": 7371,
      "aliknya": 7372,
      "Ġkompetensi": 7373,
      "etujui": 7374,
      "PKGBK": 7375,
      "ĠFinTech": 7376,
      "ĠFinnet": 7377,
      "ĠMalang": 7378,
      "PLATE": 7379,
      "Ġbegitu": 7380,
      "ĠSoal": 7381,
      "ĠSemarang": 7382,
      "INE": 7383,
      "Ġsupl": 7384,
      "ffee": 7385,
      "ĠBelanda": 7386,
      "Ġchat": 7387,
      "ĠStatus": 7388,
      "ĠMengutip": 7389,
      "ĠMengalir": 7390,
      "Ġkonfirmasi": 7391,
      "Ġmarketplace": 7392,
      "Ġjazz": 7393,
      "ĠKrak": 7394,
      "ĠKredit": 7395,
      "Ġrobot": 7396,
      "ufactur": 7397,
      "ombak": 7398,
      "RINGKASAN": 7399,
      "Anak": 7400,
      "ĠTechnology": 7401,
      "Sebelum": 7402,
      "ĠDinilai": 7403,
      "ĠâĢĭ\"": 7404,
      "Ġstorytelling": 7405,
      "Ġsubsidi": 7406,
      "ĠBeijing": 7407,
      "ĠMinerba": 7408,
      "ĠEnvironment": 7409,
      "Ġangin": 7410,
      "Ġtujuh": 7411,
      "ĠCommunity": 7412,
      "skalasi": 7413,
      "Ġkolom": 7414,
      "Ġbriefing": 7415,
      "Ġdinamis": 7416,
      "Ġautentik": 7417,
      "timbangan": 7418,
      "Ġframew": 7419,
      "estarikan": 7420,
      "ĠStore": 7421,
      "Ġberinisial": 7422,
      "Ġkampus": 7423,
      "Ġtempur": 7424,
      "ĠSeabaik": 7425,
      "ĠTaniDigital": 7426,
      "ĠRibu": 7427,
      "ĠRibuan": 7428,
      "tronik": 7429,
      "ĊĠĠĠĠĠĠĠ": 7430,
      "Ġdrone": 7431,
      "ĠSecara": 7432,
      "Ġputih": 7433,
      "Ġputaran": 7434,
      "ĠModal": 7435,
      "Ġpenyelenggara": 7436,
      "Ġkompleks": 7437,
      "Ġinformatif": 7438,
      "ĠPintarKoding": 7439,
      "esmian": 7440,
      "ĠCNBC": 7441,
      "ĠAnggaran": 7442,
      "ĠAnggota": 7443,
      "Ġkilometer": 7444,
      "Ġambisi": 7445,
      "Ġambassador": 7446,
      "Ġmedium": 7447,
      "ĠMohammad": 7448,
      "Editor": 7449,
      "arlemen": 7450,
      "ĠKanada": 7451,
      "ĠTaspen": 7452,
      "Ġfeedback": 7453,
      "Pendidikan": 7454,
      "ĠPesawat": 7455,
      "ĠBULAN": 7456,
      "ĠKeberlanjutan": 7457,
      "Ġhilirisasi": 7458,
      "Ġtrading": 7459,
      "ĠArif": 7460,
      "ĠDavid": 7461,
      "Ġketerbatasan": 7462,
      "PERNYA": 7463,
      "ĠSumm": 7464,
      "ĠJagoan": 7465,
      "ampingi": 7466,
      "Ġestetika": 7467,
      "Ġmuslim": 7468,
      "Ġakadem": 7469,
      "%)**:": 7470,
      "eriksa": 7471,
      "Ġbercerita": 7472,
      "Ġfarmasi": 7473,
      "Ġklinis": 7474,
      "Ġbiomassa": 7475,
      "Ġindividu": 7476,
      "Ġlipat": 7477,
      "ĠSudirman": 7478,
      "Ġperalatan": 7479,
      "ĠDistribusi": 7480,
      "Ġmassal": 7481,
      "ĠDisclosure": 7482,
      "Ġmemfasilitasi": 7483,
      "Ġpengambilan": 7484,
      "Ġakrab": 7485,
      "Ġkebanggaan": 7486,
      "ĠKuCoin": 7487,
      "Voiceover": 7488,
      "vStream": 7489,
      "Ġayam": 7490,
      "Ġparkir": 7491,
      "orotan": 7492,
      "rokrasi": 7493,
      "Ġmemudahkan": 7494,
      "ulihkan": 7495,
      "ĠFebruari": 7496,
      "Ġpenyeberangan": 7497,
      "ĠKepresidenan": 7498,
      "ĠArgentina": 7499,
      "Ġframework": 7500,
      "PERNYATAAN": 7501,
      "57": 7502,
      "85": 7503,
      "94": 7504,
      ":*": 7505,
      "?**": 7506,
      "Ac": 7507,
      "Ad": 7508,
      "BU": 7509,
      "Bar": 7510,
      "Bali": 7511,
      "BPL": 7512,
      "DG": 7513,
      "DU": 7514,
      "DON": 7515,
      "EA": 7516,
      "ED": 7517,
      "EP": 7518,
      "Ek": 7519,
      "EGE": 7520,
      "Fin": 7521,
      "Feed": 7522,
      "Farma": 7523,
      "Itu": 7524,
      "Jus": 7525,
      "Kl": 7526,
      "Kes": 7527,
      "Kulit": 7528,
      "KASI": 7529,
      "Logistik": 7530,
      "Local": 7531,
      "Netral": 7532,
      "OI": 7533,
      "PG": 7534,
      "Pl": 7535,
      "Pas": 7536,
      "Peng": 7537,
      "Pixel": 7538,
      "PPIH": 7539,
      "Rumah": 7540,
      "RBI": 7541,
      "Solusi": 7542,
      "Sejak": 7543,
      "Save": 7544,
      "TN": 7545,
      "TRA": 7546,
      "Type": 7547,
      "UA": 7548,
      "VER": 7549,
      "WA": 7550,
      "``": 7551,
      "bas": 7552,
      "bum": 7553,
      "bahan": 7554,
      "cu": 7555,
      "con": 7556,
      "cepatan": 7557,
      "day": 7558,
      "dian": 7559,
      "dera": 7560,
      "ford": 7561,
      "gak": 7562,
      "hua": 7563,
      "iat": 7564,
      "ions": 7565,
      "kif": 7566,
      "klus": 7567,
      "keu": 7568,
      "nusantara": 7569,
      "nomor": 7570,
      "oMax": 7571,
      "padai": 7572,
      "ron": 7573,
      "rist": 7574,
      "sur": 7575,
      "semb": 7576,
      "tem": 7577,
      "uel": 7578,
      "uad": 7579,
      "uAI": 7580,
      "uarakan": 7581,
      "wi": 7582,
      "wear": 7583,
      "yadi": 7584,
      "year": 7585,
      "Ġ%": 7586,
      "Ġent": 7587,
      "Ġali": 7588,
      "anegara": 7589,
      "erat": 7590,
      "erin": 7591,
      "erant": 7592,
      "ergy": 7593,
      "ene": 7594,
      "enes": 7595,
      "Ġdelivery": 7596,
      "aring": 7597,
      "Ġmul": 7598,
      "Ġmohon": 7599,
      "Ġmetan": 7600,
      "Ġmeskipun": 7601,
      "Ġpop": 7602,
      "Ġpantai": 7603,
      "Ġpajak": 7604,
      "Ġpuncak": 7605,
      "atim": 7606,
      "atistik": 7607,
      "sight": 7608,
      "inal": 7609,
      "Ġkm": 7610,
      "Ġkat": 7611,
      "Ġkit": 7612,
      "Ġkab": 7613,
      "Ġkayu": 7614,
      "Ġkajian": 7615,
      "Ġkanker": 7616,
      "alisi": 7617,
      "aldera": 7618,
      "Ġtur": 7619,
      "Ġtema": 7620,
      "Ġtutup": 7621,
      "Ġtambang": 7622,
      "Ġsl": 7623,
      "Ġsant": 7624,
      "Ġsana": 7625,
      "Ġsasaran": 7626,
      "Ġbr": 7627,
      "Ġbed": 7628,
      "Ġbaca": 7629,
      "Ġbarat": 7630,
      "Ġback": 7631,
      "Ġbatas": 7632,
      "Ġbaju": 7633,
      "Ġbawang": 7634,
      "emok": 7635,
      "emod": 7636,
      "elaskan": 7637,
      "elajah": 7638,
      "asang": 7639,
      "Ġmenak": 7640,
      "Ġmenulis": 7641,
      "Ġmenanam": 7642,
      "Ġmenandatangani": 7643,
      "Ġdiisi": 7644,
      "Ġdiabetes": 7645,
      "ado": 7646,
      "adana": 7647,
      "orban": 7648,
      "ĠPo": 7649,
      "ĠPat": 7650,
      "ĠPalu": 7651,
      "ĠPAN": 7652,
      "ĠPenting": 7653,
      "ĠPEN": 7654,
      "ĠPartnership": 7655,
      "ĠPasifik": 7656,
      "itel": 7657,
      "itech": 7658,
      "aph": 7659,
      "apoMax": 7660,
      "ikator": 7661,
      "essional": 7662,
      "isor": 7663,
      "Ġland": 7664,
      "Ġliputan": 7665,
      "Ġlight": 7666,
      "Ġlebar": 7667,
      "Ġlansia": 7668,
      "Ġlonjakan": 7669,
      "ĠBuk": 7670,
      "ĠBahan": 7671,
      "ĠBanyak": 7672,
      "ĠBER": 7673,
      "ĠBuku": 7674,
      "ĠBantu": 7675,
      "ĠBalik": 7676,
      "ĠBrief": 7677,
      "ĠBFI": 7678,
      "ĠBimo": 7679,
      "ĠBEI": 7680,
      "ĠSama": 7681,
      "ĠStar": 7682,
      "ĠSumb": 7683,
      "ĠSangat": 7684,
      "ĠSuku": 7685,
      "ĠSte": 7686,
      "ĠSuci": 7687,
      "ĠSinergiEnergi": 7688,
      "ĠSentosa": 7689,
      "Ġperikan": 7690,
      "engalaman": 7691,
      "ety": 7692,
      "etakan": 7693,
      "ĠKI": 7694,
      "ĠKur": 7695,
      "ĠKara": 7696,
      "ĠKamp": 7697,
      "ĠKita": 7698,
      "ĠKini": 7699,
      "ĠKonf": 7700,
      "ĠKCS": 7701,
      "Ġberup": 7702,
      "Ġberapa": 7703,
      "Ġberusia": 7704,
      "Ġterobosan": 7705,
      "utamakan": 7706,
      "ĠImb": 7707,
      "ĠMau": 7708,
      "ĠMasa": 7709,
      "ĠMos": 7710,
      "ĠMerah": 7711,
      "ĠMedi": 7712,
      "ĠMill": 7713,
      "ĠMadin": 7714,
      "ĠMING": 7715,
      "ĠMerdeka": 7716,
      "ĠAM": 7717,
      "ĠAff": 7718,
      "Ġhighlight": 7719,
      "Ġhoaks": 7720,
      "ĠDom": 7721,
      "ĠTanggal": 7722,
      "ĠTahu": 7723,
      "ĠTour": 7724,
      "ĠTambahan": 7725,
      "ĠTeddy": 7726,
      "ĠTetap": 7727,
      "ĠTangerang": 7728,
      "Ġunjuk": 7729,
      "Ġmemat": 7730,
      "Ġmemangkas": 7731,
      "Ġred": 7732,
      "Ġrawit": 7733,
      "Ġjaga": 7734,
      "ĠJak": 7735,
      "ĠJos": 7736,
      "uler": 7737,
      "ulin": 7738,
      "ulir": 7739,
      "olor": 7740,
      "ĠIndonesian": 7741,
      "ederasi": 7742,
      "esiasi": 7743,
      "Ġmengk": 7744,
      "Ġmengal": 7745,
      "Ġmengetahui": 7746,
      "Ġmengembalikan": 7747,
      "Ġmengutamakan": 7748,
      "ime": 7749,
      "ĠRace": 7750,
      "abatan": 7751,
      "abudi": 7752,
      "epr": 7753,
      "truc": 7754,
      "Ġcas": 7755,
      "Ġcac": 7756,
      "Ġcapai": 7757,
      "Ġcall": 7758,
      "Ġcraft": 7759,
      "Ġcollab": 7760,
      "Ġcourse": 7761,
      "Ġprocess": 7762,
      "Ġnih": 7763,
      "iaomi": 7764,
      "ege": 7765,
      "egan": 7766,
      "Ġpendukung": 7767,
      "andung": 7768,
      "andirian": 7769,
      "uhkan": 7770,
      "ĠCr": 7771,
      "ĠCall": 7772,
      "ĠCOO": 7773,
      "udut": 7774,
      "ĠLap": 7775,
      "ĠLeadership": 7776,
      "ĠLondon": 7777,
      "Ġmelew": 7778,
      "Ġmelindungi": 7779,
      "Ġmelintasi": 7780,
      "Ġmelestarikan": 7781,
      "ĠNE": 7782,
      "ĠNTB": 7783,
      "Ġmenjabat": 7784,
      "ĠHI": 7785,
      "ĠHas": 7786,
      "ĠHingga": 7787,
      "ĠHarus": 7788,
      "ĠHeru": 7789,
      "ĠHeroes": 7790,
      "Ġgard": 7791,
      "Ġgaris": 7792,
      "Ġground": 7793,
      "Ġgunakan": 7794,
      "Ġgerbang": 7795,
      "Ġpengamanan": 7796,
      "ajam": 7797,
      "ajaan": 7798,
      "Ġsil": 7799,
      "Ġsir": 7800,
      "Ġsiapa": 7801,
      "Ġsiny": 7802,
      "Ġsiklus": 7803,
      "Ġsebab": 7804,
      "ising": 7805,
      "ubsidi": 7806,
      "Ġperspektif": 7807,
      "acy": 7808,
      "ĠEs": 7809,
      "ĠUt": 7810,
      "ĠUang": 7811,
      "ĠUTAMA": 7812,
      "oth": 7813,
      "otongan": 7814,
      "otcamp": 7815,
      "Ġ2028": 7816,
      "ĠGI": 7817,
      "ĠGM": 7818,
      "ĠGaya": 7819,
      "Ġwanita": 7820,
      "anggulangan": 7821,
      "alahkan": 7822,
      "Ġselaku": 7823,
      "Ġmerek": 7824,
      "Ġmerilis": 7825,
      "ibers": 7826,
      "odoh": 7827,
      "Ġpemro": 7828,
      "Ġpemenang": 7829,
      "Ġpemasaran": 7830,
      "Ġmenyerang": 7831,
      "Ġmenyetujui": 7832,
      "Ġpelestarian": 7833,
      "Ġpemben": 7834,
      "Ġpembukaan": 7835,
      "Ġpemberitahuan": 7836,
      "esto": 7837,
      "intang": 7838,
      "inting": 7839,
      "ĠForm": 7840,
      "ĠFaktor": 7841,
      "ĠFinansial": 7842,
      "ĠFestival": 7843,
      "ĠFrancis": 7844,
      "Ġpred": 7845,
      "ambarkan": 7846,
      "ARE": 7847,
      "ART": 7848,
      "Ġekonom": 7849,
      "ĠWA": 7850,
      "ĠWah": 7851,
      "ĠWilayah": 7852,
      "yaratan": 7853,
      "Ġversi": 7854,
      "Ġmemperl": 7855,
      "Ġmemperkirakan": 7856,
      "obrol": 7857,
      "alani": 7858,
      "Ġberkait": 7859,
      "encanaan": 7860,
      "ewaan": 7861,
      "Ġmendesak": 7862,
      "Ġmendampingi": 7863,
      "ĠPre": 7864,
      "tories": 7865,
      "Ġkelima": 7866,
      "check": 7867,
      "Ġsemester": 7868,
      "indu": 7869,
      "efore": 7870,
      "Ġkesadaran": 7871,
      "anif": 7872,
      "angsungan": 7873,
      "ancer": 7874,
      "Ġtanaman": 7875,
      "ĠBersih": 7876,
      "arto": 7877,
      "lahraga": 7878,
      "Ġrelatable": 7879,
      "Ġantusi": 7880,
      "Ġsepakat": 7881,
      "unjawa": 7882,
      "ĠVir": 7883,
      "Ġkonser": 7884,
      "ĠPemkot": 7885,
      "Ind": 7886,
      "Ġbersangkutan": 7887,
      "Ġpenyimp": 7888,
      "Ġmanapun": 7889,
      "Ġterjadinya": 7890,
      "Ġekstr": 7891,
      "Ġkerajinan": 7892,
      "Ġdiplom": 7893,
      "Ġmemasok": 7894,
      "masalahan": 7895,
      "ijak": 7896,
      "Ġtimeline": 7897,
      "Ġtimbul": 7898,
      "Ġ87": 7899,
      "Ġkritik": 7900,
      "ĠPengaturan": 7901,
      "ĠPengamat": 7902,
      "ĠPengumuman": 7903,
      "ĠTerl": 7904,
      "ĠTerima": 7905,
      "mann": 7906,
      "Ġberlanjut": 7907,
      "Ġberlebihan": 7908,
      "ĠPenanggulangan": 7909,
      "ategy": 7910,
      "Ġoperasionalnya": 7911,
      "Ġpeta": 7912,
      "ĠAlumni": 7913,
      "ungkap": 7914,
      "ĠBPS": 7915,
      "Ġeff": 7916,
      "ĠDanaku": 7917,
      "Ġdiperkuat": 7918,
      "Ġdiperdagangkan": 7919,
      "Ġterlebih": 7920,
      "ĠIndia": 7921,
      "Ġkomitmennya": 7922,
      "ĠPeluncuran": 7923,
      "Ġperbatasan": 7924,
      "Ġ74": 7925,
      "Ġ2019": 7926,
      "erjakan": 7927,
      "ohan": 7928,
      "Ġdimensi": 7929,
      "arison": 7930,
      "Ġawak": 7931,
      "Ġopening": 7932,
      "arahkan": 7933,
      "Ġregional": 7934,
      "ĠEduc": 7935,
      "etax": 7936,
      "ĠSetyawan": 7937,
      "Ġgraduate": 7938,
      "eveloper": 7939,
      "Ġsenjata": 7940,
      "Ġartinya": 7941,
      "ĠAkselerasi": 7942,
      "Ġpilih": 7943,
      "Ġbirokrasi": 7944,
      ".\"*": 7945,
      "ugar": 7946,
      "ompetisi": 7947,
      "coin": 7948,
      "Ġ180": 7949,
      "ESG": 7950,
      "Ġkalinya": 7951,
      "Ġcapture": 7952,
      "Ġmasuknya": 7953,
      "ertaan": 7954,
      "Ġaction": 7955,
      "ĠAsrama": 7956,
      "Ġ190": 7957,
      "TEGI": 7958,
      "Ġlanjutkan": 7959,
      "ĠIslam": 7960,
      "andingkan": 7961,
      "Ġpitching": 7962,
      "ĠTren": 7963,
      "gage": 7964,
      "Ġplant": 7965,
      "ĠPaket": 7966,
      "ĠPakai": 7967,
      "ĠKalau": 7968,
      "TUK": 7969,
      "untaskan": 7970,
      "Pert": 7971,
      "mpat": 7972,
      "mpulan": 7973,
      "ĠMasuk": 7974,
      "ĠTransparansi": 7975,
      "ĠTekstil": 7976,
      "REATOR": 7977,
      "ĠKamar": 7978,
      "Ġintegritas": 7979,
      "Ġwebinar": 7980,
      "ĠPasal": 7981,
      "ĠXiaomi": 7982,
      "ĠKerok": 7983,
      "ĠAcara": 7984,
      "ĠAction": 7985,
      "intaro": 7986,
      "Ġseries": 7987,
      "Ġtercapai": 7988,
      "ooking": 7989,
      "Ġspesifikasi": 7990,
      "Ġmeja": 7991,
      "âĢĻ,": 7992,
      "Ġcontrol": 7993,
      "Ġminimum": 7994,
      "ĠSMF": 7995,
      "ĠSMK": 7996,
      "Ġelemen": 7997,
      "ĠKompl": 7998,
      "ĠBeasiswa": 7999,
      "edikuAI": 8000,
      "box": 8001,
      "Ġmewakili": 8002,
      "adahal": 8003,
      "ĠBatikKeren": 8004,
      "ĠDibuka": 8005,
      "ĠPolri": 8006,
      "ĠKreasi": 8007,
      "elsmann": 8008,
      "erensiasi": 8009,
      "ĠBurgen": 8010,
      "ĠSumatra": 8011,
      "ĠKonsumen": 8012,
      "Ġrekor": 8013,
      "Ġoutsourcing": 8014,
      "ĠKecamatan": 8015,
      "Ġinstalasi": 8016,
      "Ġutara": 8017,
      "Ġmedali": 8018,
      "emui": 8019,
      "Ġberinvestasi": 8020,
      "Ġ133": 8021,
      "seNov": 8022,
      "ĠDepartemen": 8023,
      "Ġrealistis": 8024,
      "Selain": 8025,
      "Setelah": 8026,
      "Ġdelegasi": 8027,
      "Ġtinggal": 8028,
      "Ġpemerataan": 8029,
      "ĠOperating": 8030,
      "Google": 8031,
      "Ġswasembada": 8032,
      "ĠBPRS": 8033,
      "Ġtuntas": 8034,
      "Ġtoko": 8035,
      "Ġtoken": 8036,
      "Ġtokoh": 8037,
      "Ġbelakangan": 8038,
      "clud": 8039,
      "Ġtelekomunikasi": 8040,
      "Ġsambal": 8041,
      "ĠKendati": 8042,
      "Ġprospek": 8043,
      "ousel": 8044,
      "Ġkomplain": 8045,
      "|-------|": 8046,
      "halal": 8047,
      "Ġmentah": 8048,
      "Ġcabang": 8049,
      "Ġtanggul": 8050,
      "ĠBiang": 8051,
      "ĠBioFarma": 8052,
      "ĠMobilKu": 8053,
      "Ġsimpanan": 8054,
      "PHK": 8055,
      "Ġbalapan": 8056,
      "Ġbeserta": 8057,
      "ĠSegarSejuk": 8058,
      "ĠLabuan": 8059,
      "sesibel": 8060,
      "Ġulasan": 8061,
      "ĠUpdate": 8062,
      "ĠSuper": 8063,
      "Ġperguruan": 8064,
      "ĠOrgan": 8065,
      "Ġsubscribers": 8066,
      "ĠDirectors": 8067,
      "Ġrestoran": 8068,
      "Ġgelap": 8069,
      "ĠGeneral": 8070,
      "Ġmisalnya": 8071,
      "Ġkarier": 8072,
      "ĠImpact": 8073,
      "ĠMega": 8074,
      "ropis": 8075,
      "ĠMarciano": 8076,
      "Pedas": 8077,
      "SHOT": 8078,
      "eely": 8079,
      "Ġeco": 8080,
      "Ġperforma": 8081,
      "Ġmengadakan": 8082,
      "ĠSetiabudi": 8083,
      "ĠTokoLokal": 8084,
      "ĠUNHCR": 8085,
      "riansyah": 8086,
      "Ġsolid": 8087,
      "Ġformula": 8088,
      "Ġpengganti": 8089,
      "Kenapa": 8090,
      "MoU": 8091,
      "Ġtriwulan": 8092,
      "Ġdiekspl": 8093,
      "ĠSams": 8094,
      "ĠIFMA": 8095,
      "ĠHarry": 8096,
      "anggarai": 8097,
      "ĠWaspada": 8098,
      "ĠAPBD": 8099,
      "Ġberbahaya": 8100,
      "ĠZulkif": 8101,
      "Ġcreative": 8102,
      "ĠHusada": 8103,
      "ostalgia": 8104,
      "Ġkilogram": 8105,
      "ĠWamenaker": 8106,
      "Ġsneakers": 8107,
      "emporer": 8108,
      "Ġdisesuaikan": 8109,
      "ĠMetro": 8110,
      "arimunjawa": 8111,
      "ĠDevvStream": 8112,
      "ĠCerdasKita": 8113,
      "ĠNagelsmann": 8114,
      "ĠAstronergy": 8115,
      "BPLH": 8116,
      "erantasan": 8117,
      "Ġmetanol": 8118,
      "Ġsantunan": 8119,
      "emokr": 8120,
      "emodial": 8121,
      "ĠSteel": 8122,
      "Ġperikanan": 8123,
      "ĠKarawang": 8124,
      "Ġberupaya": 8125,
      "ĠMadinah": 8126,
      "ĠMINGG": 8127,
      "ĠJosua": 8128,
      "Ġmelewati": 8129,
      "Ġsinyal": 8130,
      "Ġberkaitan": 8131,
      "ĠBurgenst": 8132,
      "seNova": 8133,
      "ĠZulkifli": 8134,
      ")*": 8135,
      "*\"": 8136,
      "41": 8137,
      "56": 8138,
      "AF": 8139,
      "Am": 8140,
      "Audience": 8141,
      "BN": 8142,
      "Bot": 8143,
      "Bagi": 8144,
      "Banyuwangi": 8145,
      "CF": 8146,
      "Care": 8147,
      "CEO": 8148,
      "Dim": 8149,
      "Dia": 8150,
      "Dana": 8151,
      "DELI": 8152,
      "FR": 8153,
      "Gar": 8154,
      "Gap": 8155,
      "Jago": 8156,
      "KG": 8157,
      "Kota": 8158,
      "Kons": 8159,
      "Kementerian": 8160,
      "LES": 8161,
      "Launch": 8162,
      "Lestari": 8163,
      "LSM": 8164,
      "MS": 8165,
      "Min": 8166,
      "Mem": 8167,
      "Muda": 8168,
      "Monas": 8169,
      "NAS": 8170,
      "Narasi": 8171,
      "Nutri": 8172,
      "Pay": 8173,
      "Pagi": 8174,
      "Rp": 8175,
      "Target": 8176,
      "Warung": 8177,
      "YouTube": 8178,
      "aos": 8179,
      "beda": 8180,
      "break": 8181,
      "blem": 8182,
      "cious": 8183,
      "des": 8184,
      "dentifikasi": 8185,
      "ea": 8186,
      "eing": 8187,
      "founder": 8188,
      "gkrak": 8189,
      "husi": 8190,
      "kg": 8191,
      "ket": 8192,
      "kata": 8193,
      "kami": 8194,
      "lib": 8195,
      "laku": 8196,
      "langsungan": 8197,
      "mata": 8198,
      "max": 8199,
      "oom": 8200,
      "pik": 8201,
      "rative": 8202,
      "rediksi": 8203,
      "rome": 8204,
      "sek": 8205,
      "sari": 8206,
      "sektor": 8207,
      "the": 8208,
      "uap": 8209,
      "ven": 8210,
      "via": 8211,
      "word": 8212,
      "wira": 8213,
      "yang": 8214,
      "yani": 8215,
      "yono": 8216,
      "zen": 8217,
      "§µ": 8218,
      "Ġ<": 8219,
      "Ġx": 8220,
      "Ġil": 8221,
      "Ġusah": 8222,
      "Ġangkatan": 8223,
      "Ġukuran": 8224,
      "Ġuap": 8225,
      "anod": 8226,
      "annel": 8227,
      "erapan": 8228,
      "ereum": 8229,
      "erging": 8230,
      "enue": 8231,
      "Ġdep": 8232,
      "Ġdown": 8233,
      "Ġdriver": 8234,
      "Ġdeveloper": 8235,
      "arrative": 8236,
      "Ġmo": 8237,
      "Ġmut": 8238,
      "Ġmess": 8239,
      "Ġmanc": 8240,
      "Ġmarah": 8241,
      "Ġmimpi": 8242,
      "Ġmacro": 8243,
      "Ġpula": 8244,
      "Ġpixel": 8245,
      "Ġpikir": 8246,
      "Ġpartner": 8247,
      "Ġpadahal": 8248,
      "angit": 8249,
      "Ġkis": 8250,
      "Ġkaya": 8251,
      "Ġkeri": 8252,
      "alagi": 8253,
      "Ġtud": 8254,
      "Ġtadi": 8255,
      "Ġtest": 8256,
      "Ġtemukan": 8257,
      "Ġtravel": 8258,
      "Ġtalk": 8259,
      "Ġtagihan": 8260,
      "akt": 8261,
      "aking": 8262,
      "akapan": 8263,
      "amm": 8264,
      "amuk": 8265,
      "aminan": 8266,
      "Ġsus": 8267,
      "Ġsay": 8268,
      "Ġsuka": 8269,
      "Ġsadar": 8270,
      "Ġsantai": 8271,
      "Ġsudut": 8272,
      "Ġbat": 8273,
      "Ġbul": 8274,
      "Ġbawa": 8275,
      "Ġbuah": 8276,
      "Ġbutuhkan": 8277,
      "Ġbenchmark": 8278,
      "unch": 8279,
      "ahasan": 8280,
      "ahli": 8281,
      "emajaan": 8282,
      "elai": 8283,
      "elod": 8284,
      "asaan": 8285,
      "astikan": 8286,
      "oner": 8287,
      "onest": 8288,
      "onny": 8289,
      "Ġmendon": 8290,
      "Ġmenutup": 8291,
      "Ġmenopang": 8292,
      "Ġdita": 8293,
      "Ġdiuji": 8294,
      "Ġdiarahkan": 8295,
      "asin": 8296,
      "ora": 8297,
      "orand": 8298,
      "ĠPar": 8299,
      "ĠPal": 8300,
      "ĠPesan": 8301,
      "ĠParlemen": 8302,
      "itia": 8303,
      "itMax": 8304,
      "apros": 8305,
      "esko": 8306,
      "isu": 8307,
      "isman": 8308,
      "Ġla": 8309,
      "Ġlari": 8310,
      "Ġline": 8311,
      "Ġlupa": 8312,
      "Ġlaki": 8313,
      "Ġlomb": 8314,
      "Ġlowongan": 8315,
      "Ġlepas": 8316,
      "Ġleadership": 8317,
      "Ġlulusan": 8318,
      "ĠBu": 8319,
      "ĠBar": 8320,
      "ĠBeli": 8321,
      "ĠBatch": 8322,
      "ĠBicara": 8323,
      "ĠBagh": 8324,
      "ĠBTN": 8325,
      "eknologi": 8326,
      "ekraf": 8327,
      "ĠSol": 8328,
      "ĠSearch": 8329,
      "ĠSentral": 8330,
      "ĠSIG": 8331,
      "ĠSugar": 8332,
      "ĠSonny": 8333,
      "ush": 8334,
      "Ġperundang": 8335,
      "Ġpertimbangan": 8336,
      "Ġperencanaan": 8337,
      "Ġpermasalahan": 8338,
      "Ġperemajaan": 8339,
      "ebak": 8340,
      "ebranding": 8341,
      "ilin": 8342,
      "iling": 8343,
      "illah": 8344,
      "illi": 8345,
      "ĠKebut": 8346,
      "ĠKpl": 8347,
      "ĠKualitas": 8348,
      "ĠKump": 8349,
      "ĠKSG": 8350,
      "ĠKPI": 8351,
      "ĠKunci": 8352,
      "ĠKTP": 8353,
      "ĠKLH": 8354,
      "ĠKarimunjawa": 8355,
      "Ġberi": 8356,
      "Ġberisi": 8357,
      "Ġberter": 8358,
      "Ġberguna": 8359,
      "Ġbertrans": 8360,
      "Ġterencana": 8361,
      "Ġterulang": 8362,
      "Ġterancam": 8363,
      "Ġtergabung": 8364,
      "Ġterpercaya": 8365,
      "utar": 8366,
      "urance": 8367,
      "ĠIbadah": 8368,
      "ĠIKN": 8369,
      "ĠMon": 8370,
      "ĠMom": 8371,
      "ĠMaj": 8372,
      "ĠMoto": 8373,
      "ĠMudik": 8374,
      "arizon": 8375,
      "airan": 8376,
      "ention": 8377,
      "ĠAK": 8378,
      "ĠAT": 8379,
      "ĠAz": 8380,
      "ĠAkan": 8381,
      "ĠAgr": 8382,
      "ĠAudit": 8383,
      "ĠAvi": 8384,
      "ĠAyu": 8385,
      "ĠAudience": 8386,
      "Ġhook": 8387,
      "Ġhumas": 8388,
      "Ġhujan": 8389,
      "omod": 8390,
      "ĠDC": 8391,
      "ĠDAN": 8392,
      "ĠDody": 8393,
      "ĠDaily": 8394,
      "ĠTV": 8395,
      "ĠTi": 8396,
      "ĠTempat": 8397,
      "ĠTulis": 8398,
      "ĠTransi": 8399,
      "ĠTID": 8400,
      "rozen": 8401,
      "Ġmemad": 8402,
      "Ġmemuji": 8403,
      "Ġmemengaruhi": 8404,
      "Ġrem": 8405,
      "Ġritel": 8406,
      "Ġjejak": 8407,
      "Ġjuara": 8408,
      "tip": 8409,
      "tir": 8410,
      "tisipasi": 8411,
      "ĠJalur": 8412,
      "ĠJaz": 8413,
      "ĠJulian": 8414,
      "ulator": 8415,
      "Ġkesi": 8416,
      "Ġkeempat": 8417,
      "olos": 8418,
      "ĠInclusive": 8419,
      "edul": 8420,
      "Ġmengalir": 8421,
      "Ġmengangkut": 8422,
      "Ġmenginginkan": 8423,
      "imu": 8424,
      "implementasi": 8425,
      "ĠRamah": 8426,
      "ĠRacing": 8427,
      "abun": 8428,
      "abel": 8429,
      "abung": 8430,
      "abaran": 8431,
      "embak": 8432,
      "try": 8433,
      "Ġcons": 8434,
      "Ġcerm": 8435,
      "Ġchan": 8436,
      "Ġconsumer": 8437,
      "Ġcanggi": 8438,
      "Ġproyeksi": 8439,
      "Ġnano": 8440,
      "Ġpenda": 8441,
      "Ġpenampilan": 8442,
      "andeng": 8443,
      "ĠCon": 8444,
      "ĠCil": 8445,
      "ĠCerita": 8446,
      "ĠConf": 8447,
      "ĠComm": 8448,
      "ĠCegah": 8449,
      "ĠContent": 8450,
      "ĠCaldera": 8451,
      "ĠLE": 8452,
      "ĠLa": 8453,
      "ĠLintas": 8454,
      "ĠLiterasi": 8455,
      "oko": 8456,
      "Ġmelepas": 8457,
      "Ġmelonjak": 8458,
      "antar": 8459,
      "ĠNeu": 8460,
      "Ġmenjalani": 8461,
      "ecahkan": 8462,
      "ĠHart": 8463,
      "ĠHAL": 8464,
      "ĠHarapan": 8465,
      "ĠHealth": 8466,
      "Ġgenc": 8467,
      "Ġgood": 8468,
      "Ġginj": 8469,
      "Ġpengg": 8470,
      "Ġpengerjaan": 8471,
      "Ġpengingat": 8472,
      "Ġpengecu": 8473,
      "ajari": 8474,
      "Ġpersetujuan": 8475,
      "Ġpersyaratan": 8476,
      "action": 8477,
      "acuna": 8478,
      "agaman": 8479,
      "ĠEmb": 8480,
      "ĠEli": 8481,
      "ĠEner": 8482,
      "ĠEmer": 8483,
      "otik": 8484,
      "ĠGam": 8485,
      "ĠGap": 8486,
      "ĠGaji": 8487,
      "ĠGangguan": 8488,
      "ĠGeely": 8489,
      "Ġwajah": 8490,
      "Ġwaste": 8491,
      "Ġwith": 8492,
      "jauh": 8493,
      "jauan": 8494,
      "pori": 8495,
      "Ġmasakan": 8496,
      "Ġsela": 8497,
      "Ġselengkapnya": 8498,
      "stall": 8499,
      "grasi": 8500,
      "Ġmered": 8501,
      "Ġmerayakan": 8502,
      "ibu": 8503,
      "ibaf": 8504,
      "odo": 8505,
      "iption": 8506,
      "tifisial": 8507,
      "Ġpemil": 8508,
      "Ġpemahaman": 8509,
      "Ġmenyusun": 8510,
      "Ġmenyuarakan": 8511,
      "Ġpembahasan": 8512,
      "intai": 8513,
      "ĠPerubahan": 8514,
      "ĠFL": 8515,
      "ĠFirst": 8516,
      "ĠFarizon": 8517,
      "anjikan": 8518,
      "ambal": 8519,
      "ambungan": 8520,
      "Ġeku": 8521,
      "Buatin": 8522,
      "ujuan": 8523,
      "ĠWir": 8524,
      "ĠWaste": 8525,
      "ĠWEGE": 8526,
      "iche": 8527,
      "icarakan": 8528,
      "ications": 8529,
      "Ġkompor": 8530,
      "ejarah": 8531,
      "ejolak": 8532,
      "Ġkepulauan": 8533,
      "ĠAnaly": 8534,
      "Ġberbulan": 8535,
      "obatan": 8536,
      "orporat": 8537,
      "Ġberkala": 8538,
      "Ġkarhutla": 8539,
      "Ġdapatkan": 8540,
      "Ġsetahun": 8541,
      "ĠPref": 8542,
      "ĠPrediksi": 8543,
      "ĠOc": 8544,
      "torkan": 8545,
      "rier": 8546,
      "Ġbukanlah": 8547,
      "ĠPros": 8548,
      "indung": 8549,
      "ĠSeleksi": 8550,
      "Ġkesukses": 8551,
      "Ġkeseimb": 8552,
      "Ġkesabaran": 8553,
      "ustry": 8554,
      "Ġdisalurkan": 8555,
      "Ġdisabilitas": 8556,
      "ĠBert": 8557,
      "Ġ46": 8558,
      "oso": 8559,
      "osof": 8560,
      "Ġdiberangkatkan": 8561,
      "Ġrelokasi": 8562,
      "Ġindikator": 8563,
      "Ġdilaporkan": 8564,
      "unjungi": 8565,
      "Ġujung": 8566,
      "ĠMeny": 8567,
      "ĠVokasi": 8568,
      "ĠVoucher": 8569,
      "RISI": 8570,
      "Ġresearch": 8571,
      "Ġpositioning": 8572,
      "Inf": 8573,
      "Ins": 8574,
      "Ġbersyukur": 8575,
      "Ġbersertifikat": 8576,
      "Ġmanis": 8577,
      "Ġpendiri": 8578,
      "Ġterjual": 8579,
      "ĠASDP": 8580,
      "ĠDirut": 8581,
      "ĠDirjen": 8582,
      "Ġminum": 8583,
      "comm": 8584,
      "Ġdipengaruhi": 8585,
      "after": 8586,
      "Ġapp": 8587,
      "tivity": 8588,
      "Ġ61": 8589,
      "Ġ81": 8590,
      "Ġkontemporer": 8591,
      "uangDesain": 8592,
      "Ġharusnya": 8593,
      "Ġkron": 8594,
      "Ġkrim": 8595,
      "ailand": 8596,
      "Ġmenghambat": 8597,
      "Ġmenghakim": 8598,
      "erdasarkan": 8599,
      "ĠPengusaha": 8600,
      "ĠPenguatan": 8601,
      "ĠPengembangan": 8602,
      "TAS": 8603,
      "Ġmoda": 8604,
      "Ġinfo": 8605,
      "ĠTert": 8606,
      "Ġkecantikan": 8607,
      "ucapkan": 8608,
      "ĠðŁ¤": 8609,
      "ĠðŁ§µ": 8610,
      "ialog": 8611,
      "ĠInsti": 8612,
      "ĠInsurance": 8613,
      "Ġditingkatkan": 8614,
      "Ġperjuangan": 8615,
      "airkan": 8616,
      "ĠAdam": 8617,
      "ĠAlert": 8618,
      "ĠPertahanan": 8619,
      "Ġbersamaan": 8620,
      "Ġefek": 8621,
      "Ġefektivitas": 8622,
      "Ġdipers": 8623,
      "Ġdipert": 8624,
      "Ġdiperbaiki": 8625,
      "Ġterlindungi": 8626,
      "Ġterlambat": 8627,
      "Ġbertahan": 8628,
      "Ġkeberadaan": 8629,
      "Ġkeberlangsungan": 8630,
      "ALU": 8631,
      "imba": 8632,
      "ĠIndra": 8633,
      "ĠIndof": 8634,
      "Ġbenefit": 8635,
      "Ġperbandingan": 8636,
      "okuskan": 8637,
      "Ġ71": 8638,
      "ĠManajer": 8639,
      "Ġstok": 8640,
      "Ġstyle": 8641,
      "anyahu": 8642,
      "Ġdiminati": 8643,
      "ĠDiv": 8644,
      "Ġear": 8645,
      "Ġberpartisipasi": 8646,
      "Ġemerging": 8647,
      "Ġberdaya": 8648,
      "ĠBRIN": 8649,
      "inkes": 8650,
      "ĠAragh": 8651,
      "ĠPembangkit": 8652,
      "ĠPembalap": 8653,
      "ĠKarhutla": 8654,
      "angkitkan": 8655,
      "erma": 8656,
      "ĠEdTech": 8657,
      "ĠSebanyak": 8658,
      "ĠSebaliknya": 8659,
      "Ġ120": 8660,
      "ftaran": 8661,
      "Ġ99": 8662,
      "erbFresh": 8663,
      "Ġseniman": 8664,
      "Ġinspirasi": 8665,
      "ORK": 8666,
      "Ġpercakapan": 8667,
      "hipping": 8668,
      "Ġlapisan": 8669,
      "Ġprofit": 8670,
      "Ġpencipta": 8671,
      "ĠAksesibel": 8672,
      "Ġkeduanya": 8673,
      "ught": 8674,
      "Ġmengacu": 8675,
      "Ġrevitalisasi": 8676,
      "eksadana": 8677,
      "ĠSulsel": 8678,
      "ĠRegional": 8679,
      "Ġmanfaatnya": 8680,
      "ONTEN": 8681,
      "ally": 8682,
      "Ġdiduga": 8683,
      "gerak": 8684,
      "ĠKemendikdasmen": 8685,
      "ĠPERLU": 8686,
      "gagalan": 8687,
      "Ġdomain": 8688,
      "ĠPHE": 8689,
      "ize": 8690,
      "ĠRespon": 8691,
      "Ġpenghasil": 8692,
      "Pertama": 8693,
      "mpan": 8694,
      "ĠSektor": 8695,
      "incin": 8696,
      "Ġshowcase": 8697,
      "akupan": 8698,
      "ĠKelasee": 8699,
      "Ġsiapapun": 8700,
      "ights": 8701,
      "ightco": 8702,
      "Ġmengajukan": 8703,
      "Ġmengajarkan": 8704,
      "sisten": 8705,
      "onder": 8706,
      "ĠAirAsia": 8707,
      "ĠPurw": 8708,
      "ĠEksek": 8709,
      "ombang": 8710,
      "injam": 8711,
      "Ġinteraksi": 8712,
      "ĠIndustries": 8713,
      "getHub": 8714,
      "ĠAngkutan": 8715,
      "ĠBatikode": 8716,
      "ĠDibuat": 8717,
      "ĠUndang": 8718,
      "Ġreport": 8719,
      "Ġmembukukan": 8720,
      "MENT": 8721,
      "ĠNetwork": 8722,
      "ĠNetanyahu": 8723,
      "Karya": 8724,
      "Ġtechnical": 8725,
      "ĠNatuna": 8726,
      "ĠInfluencer": 8727,
      "ENTING": 8728,
      "ĠAwards": 8729,
      "Ġtransit": 8730,
      "ĠPutih": 8731,
      "ĠPutri": 8732,
      "ĠRasaKaya": 8733,
      "minal": 8734,
      "Ġdisiapkan": 8735,
      "Ġdisiplin": 8736,
      "ĠSeiring": 8737,
      "Ġrefleksi": 8738,
      "Press": 8739,
      "Ġmurni": 8740,
      "ĠBrian": 8741,
      "Ġmaterial": 8742,
      "Ġdokumen": 8743,
      "ĠUniversity": 8744,
      "Pemerintah": 8745,
      "ĠDPRD": 8746,
      "Ġbarrier": 8747,
      "Ġkandidat": 8748,
      "Ġtelur": 8749,
      "iskusi": 8750,
      "ĠMojok": 8751,
      "ĠModel": 8752,
      "Ġpenerimaan": 8753,
      "empoa": 8754,
      "|-------|--------": 8755,
      "Ġdifokuskan": 8756,
      "duct": 8757,
      "Ġmempublikasikan": 8758,
      "Ġvalidasi": 8759,
      "Ġbursa": 8760,
      "Ġrecall": 8761,
      "ĠPerjalanan": 8762,
      "Ġpejabat": 8763,
      "Ġbootcamp": 8764,
      "ĠRahmad": 8765,
      "Ġadaptasi": 8766,
      "Peny": 8767,
      "besaran": 8768,
      "ĠAfriansyah": 8769,
      "ĠDemo": 8770,
      "edibility": 8771,
      "ĠAjang": 8772,
      "ĠHendra": 8773,
      "Ġgelombang": 8774,
      "ĠGenerasi": 8775,
      "Ġkarir": 8776,
      "ĠPhapros": 8777,
      "ĠKelasKita": 8778,
      "ĠImpian": 8779,
      "Ġprotokol": 8780,
      "Ġmembaiknya": 8781,
      "ĠPerkebunan": 8782,
      "boarding": 8783,
      "Semua": 8784,
      "Ġdihadiri": 8785,
      "ĠHidayati": 8786,
      "ĠGadung": 8787,
      "ĠForum": 8788,
      "Ġelektr": 8789,
      "Ġelektronik": 8790,
      "Kompas": 8791,
      "rutmen": 8792,
      "ĠPilihan": 8793,
      "Ġlembar": 8794,
      "ĠAtlet": 8795,
      "Ġmengawal": 8796,
      "Ġakuntabel": 8797,
      "Beauty": 8798,
      "ervasi": 8799,
      "ĠBitcoin": 8800,
      "Ġuniversitas": 8801,
      "Ġrincian": 8802,
      "Ġmemperingati": 8803,
      "ĠOpenAI": 8804,
      "ĠAssoci": 8805,
      "Kreatif": 8806,
      "biotik": 8807,
      "Ġsaldo": 8808,
      "Ġloyalitas": 8809,
      "Ġhibah": 8810,
      "ĠCoretax": 8811,
      "ĠLamongan": 8812,
      "ĠNurul": 8813,
      "Ġwellness": 8814,
      "Ġviews": 8815,
      "Ġresponsi": 8816,
      "Ġâĺķ": 8817,
      "Ġpedestrian": 8818,
      "Ġdahulu": 8819,
      "ĠMINTA": 8820,
      "Ġmeminimalkan": 8821,
      "ederhan": 8822,
      "Ġcommunity": 8823,
      "ĠHasanuddin": 8824,
      "rioritaskan": 8825,
      "pasgat": 8826,
      "Ġarmada": 8827,
      "elontorkan": 8828,
      "ĠBMNR": 8829,
      "ĠSedangkan": 8830,
      "ĠKangen": 8831,
      "Ġbermasalah": 8832,
      "Ġfavorit": 8833,
      "ĠEthereum": 8834,
      "tificial": 8835,
      "Ġpromote": 8836,
      "Ġchatbot": 8837,
      "ĠKrakatau": 8838,
      "ufacturing": 8839,
      "Ġenthusi": 8840,
      "alisir": 8841,
      "ĠPANRB": 8842,
      "ĠImbas": 8843,
      "Ġmematuhi": 8844,
      "ulinary": 8845,
      "Ġcacat": 8846,
      "ĠHassan": 8847,
      "ĠFrancisco": 8848,
      "anifesto": 8849,
      "clude": 8850,
      "emokratisasi": 8851,
      "ĠBurgenstock": 8852,
      "Dimensi": 8853,
      "DELIVER": 8854,
      "JagoPedas": 8855,
      "LSMART": 8856,
      "libli": 8857,
      "Ġusahanya": 8858,
      "anoderma": 8859,
      "Ġmancanegara": 8860,
      "Ġkisaran": 8861,
      "elodrome": 8862,
      "Ġmendongkrak": 8863,
      "orandum": 8864,
      "Ġlomba": 8865,
      "ĠKpler": 8866,
      "ĠKumparan": 8867,
      "ĠKSGC": 8868,
      "Ġberterima": 8869,
      "ĠTIDAK": 8870,
      "ĠJazz": 8871,
      "implementasikan": 8872,
      "Ġcanggih": 8873,
      "Ġpendaftaran": 8874,
      "ĠNeuer": 8875,
      "ĠHALAL": 8876,
      "Ġginjal": 8877,
      "Ġpengecualian": 8878,
      "ĠEnergy": 8879,
      "ĠEmerging": 8880,
      "ĠPreferen": 8881,
      "Ġkeseimbangan": 8882,
      "Ġmenghakimi": 8883,
      "ĠIndofarma": 8884,
      "ĠAraghchi": 8885,
      "Ġpenciptaan": 8886,
      "ĠMojokerto": 8887,
      "Ġenthusiast": 8888,
      "%):**": 8889,
      "'t": 8890,
      "08": 8891,
      "09": 8892,
      "150": 8893,
      "37": 8894,
      "38": 8895,
      "52": 8896,
      "59": 8897,
      "66": 8898,
      "69": 8899,
      "700": 8900,
      "As": 8901,
      "Agr": 8902,
      "Aplikasi": 8903,
      "Bur": 8904,
      "Butuh": 8905,
      "BAS": 8906,
      "BPS": 8907,
      "Body": 8908,
      "Bijak": 8909,
      "Call": 8910,
      "Cakung": 8911,
      "COO": 8912,
      "Clean": 8913,
      "Caption": 8914,
      "DE": 8915,
      "Dear": 8916,
      "Draft": 8917,
      "Eskalasi": 8918,
      "Flu": 8919,
      "FAP": 8920,
      "Gu": 8921,
      "Green": 8922,
      "Gue": 8923,
      "HT": 8924,
      "Head": 8925,
      "HPS": 8926,
      "IF": 8927,
      "IPP": 8928,
      "Jangan": 8929,
      "Jalan": 8930,
      "Juni": 8931,
      "Jiwa": 8932,
      "KO": 8933,
      "Kr": 8934,
      "Kol": 8935,
      "Kode": 8936,
      "KAL": 8937,
      "Kolaborasi": 8938,
      "LD": 8939,
      "Lima": 8940,
      "Lebaran": 8941,
      "Mak": 8942,
      "MAR": 8943,
      "Minggu": 8944,
      "Made": 8945,
      "MBG": 8946,
      "Negatif": 8947,
      "Pul": 8948,
      "Pac": 8949,
      "Post": 8950,
      "Pemprov": 8951,
      "PAND": 8952,
      "Positif": 8953,
      "RAN": 8954,
      "Se": 8955,
      "Si": 8956,
      "Sari": 8957,
      "Sul": 8958,
      "Sup": 8959,
      "Sec": 8960,
      "Saat": 8961,
      "Seluruh": 8962,
      "Tik": 8963,
      "TOR": 8964,
      "Total": 8965,
      "Tenang": 8966,
      "Tips": 8967,
      "UNI": 8968,
      "Waktu": 8969,
      "auran": 8970,
      "bat": 8971,
      "bah": 8972,
      "bud": 8973,
      "bank": 8974,
      "bps": 8975,
      "bitkan": 8976,
      "ced": 8977,
      "cast": 8978,
      "du": 8979,
      "dik": 8980,
      "dalam": 8981,
      "ean": 8982,
      "egi": 8983,
      "eep": 8984,
      "eSave": 8985,
      "gin": 8986,
      "gah": 8987,
      "has": 8988,
      "hern": 8989,
      "iel": 8990,
      "jasm": 8991,
      "kah": 8992,
      "kada": 8993,
      "kab": 8994,
      "kali": 8995,
      "kop": 8996,
      "kular": 8997,
      "kimia": 8998,
      "lukkan": 8999,
      "lash": 9000,
      "lawan": 9001,
      "laki": 9002,
      "lining": 9003,
      "me": 9004,
      "micro": 9005,
      "ned": 9006,
      "nia": 9007,
      "oo": 9008,
      "ought": 9009,
      "pay": 9010,
      "pedia": 9011,
      "pasar": 9012,
      "positif": 9013,
      "qua": 9014,
      "rin": 9015,
      "redi": 9016,
      "saham": 9017,
      "sell": 9018,
      "sost": 9019,
      "tel": 9020,
      "tek": 9021,
      "uasa": 9022,
      "uaraan": 9023,
      "va": 9024,
      "vit": 9025,
      "wil": 9026,
      "wayat": 9027,
      "xit": 9028,
      "xury": 9029,
      "ym": 9030,
      "yum": 9031,
      "yber": 9032,
      "zman": 9033,
      "¤ï¸ı": 9034,
      "ĊĠ": 9035,
      "Ġend": 9036,
      "Ġ,âĢĿ": 9037,
      "Ġayah": 9038,
      "Ġangkat": 9039,
      "Ġahli": 9040,
      "Ķ¥": 9041,
      "Ŀ¤ï¸ı": 9042,
      "erapa": 9043,
      "enek": 9044,
      "enaga": 9045,
      "Ġdeng": 9046,
      "Ġdur": 9047,
      "Ġdarat": 9048,
      "Ġderm": 9049,
      "Ġdompet": 9050,
      "Ġdeteksi": 9051,
      "Ġdeskripsi": 9052,
      "aro": 9053,
      "arahan": 9054,
      "Ġmini": 9055,
      "Ġmust": 9056,
      "Ġmandiri": 9057,
      "Ġph": 9058,
      "Ġpew": 9059,
      "Ġpaham": 9060,
      "Ġpoll": 9061,
      "Ġparah": 9062,
      "Ġpungg": 9063,
      "att": 9064,
      "ates": 9065,
      "atew": 9066,
      "injauan": 9067,
      "inzman": 9068,
      "Ġkum": 9069,
      "Ġkoper": 9070,
      "Ġkampung": 9071,
      "Ġkembangkan": 9072,
      "Ġkuliah": 9073,
      "alas": 9074,
      "alanya": 9075,
      "alalan": 9076,
      "alika": 9077,
      "Ġti": 9078,
      "Ġtand": 9079,
      "Ġtau": 9080,
      "Ġtamu": 9081,
      "Ġtulang": 9082,
      "Ġtulus": 9083,
      "Ġtips": 9084,
      "Ġtayang": 9085,
      "Ġtajam": 9086,
      "akor": 9087,
      "aktivitas": 9088,
      "amik": 9089,
      "amrin": 9090,
      "Ġsum": 9091,
      "Ġsusah": 9092,
      "Ġsalurkan": 9093,
      "Ġsystem": 9094,
      "Ġsponsor": 9095,
      "Ġsyukur": 9096,
      "Ġstaf": 9097,
      "Ġsembilan": 9098,
      "Ġsakit": 9099,
      "Ġstories": 9100,
      "Ġbut": 9101,
      "Ġbaris": 9102,
      "Ġblok": 9103,
      "Ġbusiness": 9104,
      "Ġbreak": 9105,
      "Ġbiru": 9106,
      "Ġbeper": 9107,
      "unai": 9108,
      "untut": 9109,
      "ahe": 9110,
      "emar": 9111,
      "eling": 9112,
      "elita": 9113,
      "eluang": 9114,
      "asus": 9115,
      "onial": 9116,
      "Ġmenya": 9117,
      "Ġmentor": 9118,
      "Ġmenentukan": 9119,
      "Ġmenonton": 9120,
      "Ġmenunjang": 9121,
      "Ġdiev": 9122,
      "Ġdiambil": 9123,
      "Ġdiolah": 9124,
      "Ġdiversi": 9125,
      "Ġdiimplementasikan": 9126,
      "adat": 9127,
      "adap": 9128,
      "ades": 9129,
      "adani": 9130,
      "asib": 9131,
      "Ġyear": 9132,
      "Ġyour": 9133,
      "ĠPP": 9134,
      "ĠPl": 9135,
      "ĠPang": 9136,
      "ĠPunya": 9137,
      "ĠPilih": 9138,
      "ĠPekerjaan": 9139,
      "ĠPlay": 9140,
      "ĠPuskesmas": 9141,
      "ĠPopok": 9142,
      "ĠPublic": 9143,
      "ĠPadam": 9144,
      "ĠPPKGBK": 9145,
      "apus": 9146,
      "aparkan": 9147,
      "ikul": 9148,
      "ikot": 9149,
      "esl": 9150,
      "esat": 9151,
      "esanan": 9152,
      "isang": 9153,
      "Ġlun": 9154,
      "Ġlingk": 9155,
      "Ġlead": 9156,
      "Ġlaju": 9157,
      "Ġlidi": 9158,
      "Ġlimited": 9159,
      "Ġlolos": 9160,
      "ĠBek": 9161,
      "ĠBus": 9162,
      "ĠBant": 9163,
      "ĠBeri": 9164,
      "ĠBers": 9165,
      "ĠBre": 9166,
      "ĠBerikan": 9167,
      "ĠBukti": 9168,
      "ĠBTS": 9169,
      "ĠBangsa": 9170,
      "ĠBebas": 9171,
      "ĠBintaro": 9172,
      "ĠSid": 9173,
      "ĠSesi": 9174,
      "ĠSim": 9175,
      "ĠSemb": 9176,
      "ĠSri": 9177,
      "ĠSanc": 9178,
      "ĠSudi": 9179,
      "ĠSosial": 9180,
      "ĠStory": 9181,
      "ĠSawit": 9182,
      "ĠSentuh": 9183,
      "ĠSentiment": 9184,
      "ĠSponsor": 9185,
      "ĠStaf": 9186,
      "ĠSains": 9187,
      "ĠSakti": 9188,
      "ĠSisw": 9189,
      "ĠSTRA": 9190,
      "ingua": 9191,
      "usal": 9192,
      "Ġperak": 9193,
      "Ġperampingan": 9194,
[...]
